<unk>	0
<s>	0
</s>	0
।	-3.40894
,	-3.54259
▁ਹੈ	-3.61914
▁ਦੇ	-3.80239
▁	-3.89622
▁ਵਿੱਚ	-3.96998
▁ਦੀ	-4.12466
▁ਅਤੇ	-4.15013
▁ਦਾ	-4.39842
▁ਨੂੰ	-4.45002
▁ਇੱਕ	-4.66122
▁ਹਨ	-4.72709
-	-4.76784
▁ਤੋਂ	-4.89799
.	-4.9554
▁ਸੀ	-5.00462
▁ਤੇ	-5.10313
▁ਇਹ	-5.1168
▁ਇਸ	-5.14294
▁ਨਾਲ	-5.15232
▁ਨੇ	-5.15943
▁·	-5.19994
▁ਲਈ	-5.33679
ਾਂ	-5.3537
▁ਵੀ	-5.36461
▁ਕਿ	-5.44209
▁ਜੋ	-5.55877
ੀ	-5.60334
▁ਕੀਤਾ	-5.69274
▁q	-5.74572
▁ਜਾਂਦਾ	-5.76508
▁�	-5.77868
▁ਵਿਚ	-5.78967
▁ਗਿਆ	-5.83808
▁ਹੀ	-5.86405
▁ਉਹ	-5.88509
▁ਉਸ	-5.94557
X	-5.96007
▁ਤੌਰ	-5.97991
▁ਹੁੰਦਾ	-5.99526
ਾ	-6.00549
▁ਨਹੀਂ	-6.00922
▁ਉੱਤੇ	-6.01523
▁ਕਿਸੇ	-6.0319
ੇ	-6.04569
▁ਦੀਆਂ	-6.09235
▁ਕੇ	-6.12321
▁ਜਾਂ	-6.12561
▁ਕੀਤੀ	-6.1297
▁ਹੋ	-6.15843
▁ਕਰਨ	-6.16211
:	-6.16683
ਆਂ	-6.20462
▁ਕਰ	-6.21997
▁ਜਿਸ	-6.28839
▁ਸਨ	-6.32696
�	-6.35892
▁ਜਾ	-6.37862
▁ਹੁੰਦੀ	-6.40653
▁ਪਰ	-6.44546
▁ਹੋਇਆ	-6.47626
▁ਹੋਰ	-6.50575
ਕ	-6.51926
ਨ	-6.51965
▁ਤੱਕ	-6.54089
▁'	-6.54989
▁ਸਭ	-6.55709
▁ਤਾਂ	-6.56839
ਸ	-6.57041
▁ਸਿੰਘ	-6.57106
▁ਉਨ੍ਹਾਂ	-6.57733
▁ਆਪਣੇ	-6.62359
▁ਗਈ	-6.63633
▁ਸਮੁੰਦਰ	-6.6449
▁ਦੁਆਰਾ	-6.65621
▁।	-6.66385
▁ਦੋ	-6.67559
▁ਬਹੁਤ	-6.67739
▁ਦਿੱਤਾ	-6.67879
▁ਹੁੰਦੇ	-6.69255
▁ਵਾਲੇ	-6.69852
▁ਬਾਅਦ	-6.69927
▁ਸਕਦਾ	-6.70083
▁ਸਾਲ	-6.71473
▁ਰੂਪ	-6.73135
▁ਕੋਈ	-6.75268
▁ਅੰਦਰ	-6.78713
▁ਕੁਆਂਟਮ	-6.78798
ਲ	-6.78949
▁ਹੋਏ	-6.80338
▁ਕਰਦਾ	-6.8037
ਤੇ	-6.84432
▁ਭਾਰਤ	-6.8491
▁ਹੋਣ	-6.85739
▁ਪਿੰਡ	-6.88083
▁ਜਾਂਦੀ	-6.88143
▁ਸਮੇਂ	-6.88395
▁ਕਰਦੇ	-6.90453
▁ਗਏ	-6.90831
ਰ	-6.91404
▁ਇਕ	-6.93
▁ਕਿਹਾ	-6.94289
▁ਪੰਜਾਬ	-6.96761
▁ਥਿਊਰੀ	-6.9811
▁ਭਾਰਤੀ	-6.98355
▁ਕਈ	-6.99624
▁"	-6.99644
▁ਕੰਮ	-7.00427
ਿਕ	-7.02026
▁ਪੰਜਾਬੀ	-7.04201
ਤ	-7.052
▁ਜਦੋਂ	-7.07311
▁ਸਾਰੇ	-7.08383
"	-7.08862
▁ਜੀ	-7.09076
▁ਰਾਹੀਂ	-7.10189
▁ਜਾਣ	-7.11034
▁ਜਿਵੇਂ	-7.11065
▁ਨਾ	-7.11197
▁ਹੋਈ	-7.11769
ਿਤ	-7.12161
▁ਆਪਣੀ	-7.13444
;	-7.1348
▁ਵਿੱਚੋਂ	-7.1354
'	-7.13765
▁ਵੱਲ	-7.14604
▁ਪਹਿਲਾਂ	-7.15039
▁ਸ਼ੁਰੂ	-7.15259
▁ਸਪੇਸ	-7.1594
▁ਉਸਨੇ	-7.1634
▁ਲੋਕ	-7.17285
▁ਨਾਮ	-7.18444
▁ਕਣ	-7.18526
ਦੇ	-7.18742
▁ਰਿਹਾ	-7.19339
▁ਰਾਜ	-7.21532
ਚ	-7.22067
▁ਇਕੁਏਸ਼ਨ	-7.22769
▁ਵਾਲੀ	-7.23657
▁ਭਾਸ਼ਾ	-7.24176
▁ਇਹਨਾਂ	-7.2447
▁ਗੁਰੂ	-7.25734
ਤਾ	-7.26459
▁ਕੀਤੇ	-7.26625
▁=	-7.27009
ਂ	-7.2746
ਜ਼	-7.28191
▁ਲਿਆ	-7.2852
▁ਵਾਸਤੇ	-7.29077
▁ਊਰਜਾ	-7.30445
▁ਖੇਤਰ	-7.30968
▁ਜਾਂਦੇ	-7.31394
▁ਕਰਦੀ	-7.31508
▁‘	-7.32982
▁{\	-7.33387
▁ਕਿਉਂਕਿ	-7.3375
▁ਜਨਮ	-7.33861
▁ਆਮ	-7.33878
▁ਕਾਰਨ	-7.3444
▁ਜਿੱਥੇ	-7.34571
▁ਕਰਕੇ	-7.34638
▁ਸ਼ਹਿਰ	-7.34967
▁ਰਹੇ	-7.35559
▁ਵਜੋਂ	-7.35732
▁ਉਹਨਾਂ	-7.37552
▁ਫੀਲਡ	-7.39097
ਈ	-7.39303
▁ਵਾਰ	-7.3934
▁ਵਾਲਾ	-7.40693
▁ਵਿਗਿਆਨ	-7.41173
▁ਮੁੱਖ	-7.4185
ਮ	-7.42128
▁ਕੁੱਝ	-7.42498
▁ਜਿਆਦਾ	-7.43821
ੀਆਂ	-7.45034
ਵਾਂ	-7.45576
▁ਹੋਵੇ	-7.45988
▁ਫੇਰ	-7.46695
▁ਤਿੰਨ	-7.4738
ਡ	-7.47411
ਏ	-7.48451
▁ਪ੍ਰਾਪਤ	-7.48479
/	-7.4857
▁ਪੈਦਾ	-7.48956
▁ਕੁਝ	-7.49176
ਦਾ	-7.4919
s	-7.49753
▁ਬਾਰੇ	-7.50824
▁ਅਨੁਸਾਰ	-7.51089
style	-7.51481
▁ਦਿਨ	-7.53185
▁ਇਸਨੂੰ	-7.54941
ਣ	-7.54956
display	-7.55183
▁ਮਕੈਨਿਕਸ	-7.55211
▁ਲੈ	-7.55857
▁ਰਿਲੇਟੀਵਿਟੀ	-7.56195
▁ਹੁੰਦੀਆਂ	-7.56333
▁ਦਿੱਤੀ	-7.56706
▁2	-7.57317
▁ਪਹਿਲੀ	-7.57388
▁ਸਾਹਿਬ	-7.57851
▁ਸ਼ਬਦ	-7.58307
▁ਸਾਹਿਤ	-7.58947
▁ਲੋਕਾਂ	-7.60129
|	-7.6057
ੋ	-7.62178
▁ਸਦੀ	-7.62246
▁ਸਪਿੱਨ	-7.62359
▁ਦੇਸ਼	-7.62425
▁ਦੂਜੇ	-7.63055
▁ਵੇਵ	-7.63222
▁ਆਪ	-7.63275
▁ਸਿਸਟਮ	-7.63385
▁ਆ	-7.64045
▁ਕਰਨਾ	-7.6432
’	-7.64594
▁ਦੌਰਾਨ	-7.64747
▁ਹਿੱਸਾ	-7.65145
▁ਵਲੋਂ	-7.66253
▁ਗੈਰ	-7.66902
▁ਸਿਰਫ	-7.6759
▁ਹਰ	-7.6769
▁ਪ੍ਰਕਾਸ਼	-7.67762
▁ਇੱਥੇ	-7.67908
ਟ	-7.68525
▁ਖਾੜੀ	-7.6853
▁ਸ਼ਾਮਿਲ	-7.68945
▁ਨਾਂ	-7.69339
▁ਤਰ੍ਹਾਂ	-7.69457
▁ਯੂਨੀਵਰਸਿਟੀ	-7.69531
▁ਸਕਦੇ	-7.69878
▁ਘੱਟ	-7.70742
▁ਜੇਕਰ	-7.70777
▁ਸਪੇਸਟਾਈਮ	-7.70865
▁ਵੱਖ	-7.70898
▁ਆਦਿ	-7.71146
▁ਕਣਾਂ	-7.7141
▁ਰਹੀ	-7.71663
ਿਆ	-7.7175
▁ਬਣ	-7.71989
▁ਇਸਦੇ	-7.72359
ਿਆਂ	-7.74793
▁ਸੰਸਾਰ	-7.74857
▁ਵੱਧ	-7.74989
▁ਸਮਾਂ	-7.75689
▁ਹੁਣ	-7.758
▁ਸ	-7.76101
▁-	-7.76106
▁ਫੰਕਸ਼ਨ	-7.76168
▁ਇਨ੍ਹਾਂ	-7.76769
2	-7.77751
▁ਵਰਤੋਂ	-7.78293
▁ਭੌਤਿਕ	-7.78926
▁ਸਕਦੀ	-7.7936
▁ਹੱਲ	-7.79855
▁ਸਥਿਤ	-7.79908
▁ਪ੍ਰਤਿ	-7.80249
ਰੀ	-7.80501
▁ਫਿਰ	-7.80836
▁ਜਿਹਨਾਂ	-7.81944
ਦ	-7.82006
▁ਉਸਨੂੰ	-7.82045
▁ਤਰਾਂ	-7.83733
▁ਉੱਪਰ	-7.83781
ਨਾ	-7.83972
▁ਸ਼ਾਮਲ	-7.84184
▁ਅਸੀਂ	-7.84937
▁ਅਰਥ	-7.85087
▁ਜੀਵਨ	-7.85532
▁ਸਕੂਲ	-7.86393
▁ਅ	-7.86888
▁ਦਰਮਿਆਨ	-7.86895
▁ਵਕਤ	-7.87079
▁ਹਾਂ	-7.87162
▁ਘਰ	-7.87423
▁1	-7.87577
ਜ	-7.87782
▁ਸਬੰਧਤ	-7.88146
▁ਸ਼੍ਰੋਡਿੰਜਰ	-7.88193
▁ਅਵਸਥਾ	-7.88567
▁ਏ	-7.89198
▁ਉਮਰ	-7.89788
▁ਪੇਸ਼	-7.90141
▁ਮੂਲ	-7.90995
▁ਚਾਰ	-7.91176
▁ਪਿਤਾ	-7.91919
▁ਮੋਮੈਂਟਮ	-7.92416
▁ਉਸਦੇ	-7.92722
▁ਜ਼ਿਲ੍ਹੇ	-7.92777
▁ਪੁੰਜ	-7.93127
▁ਫਿਲਮ	-7.93383
▁ਅਜਿਹੀ	-7.93651
▁ਵੈਕਟਰ	-7.93947
ਵੀਂ	-7.94109
▁ਹਰੇ	-7.94126
▁|	-7.94913
▁ਜਨਰਲ	-7.95158
▁ਵਿਖੇ	-7.95192
▁the	-7.95999
▁“	-7.96321
▁ਲਿਖਿਆ	-7.9852
▁ਸਿਧਾਂਤ	-7.98963
▁ਮੰਨਿਆ	-7.99057
▁ਵੱਡਾ	-7.99066
▁ਅਮਰੀਕਾ	-8.00678
▁ਧਰਮ	-8.00847
▁ਕੀ	-8.01109
ਦੀ	-8.01455
1	-8.01738
ਆ	-8.02088
▁ਇਸਦੀ	-8.02788
▁ਇਸਦਾ	-8.03078
ਸੀ	-8.03378
▁ਫ਼ਿਲਮ	-8.03963
▁ਧਰਤੀ	-8.04117
▁.	-8.04213
▁ਪਹਿਲਾ	-8.04342
▁’	-8.04363
▁ਗੱਲ	-8.04412
▁ਸਾਪੇਖਿਕ	-8.04473
▁ਕਲਾਸੀਕਲ	-8.04847
▁ਪਹਿਲੇ	-8.0524
▁ਅੱਗੇ	-8.0561
ਲੇ	-8.06126
▁ਉਸਦੀ	-8.06509
ਵ	-8.06601
▁ਫ੍ਰੇਮ	-8.06766
▁ਕਿਸਮ	-8.0679
▁ਗਤੀ	-8.07593
▁ਅਜਿਹੇ	-8.07765
▁ਇਸਲਈ	-8.07809
▁ਵਿਸ਼ੇਸ਼	-8.07833
▁ਈ	-8.07915
▁ਪਾਣੀ	-8.09359
▁ਮੌਤ	-8.09404
▁ਖਾਸ	-8.09439
▁ਦੱਖਣੀ	-8.09816
▁ਜਾਂਦੀਆਂ	-8.09923
▁ਉੱਤਰ	-8.10183
▁ਜਿਸਦਾ	-8.10344
▁ਗਰੁੱਪ	-8.10388
▁ਰੱਖਿਆ	-8.10463
▁ਘਟਨਾਵਾਂ	-8.10854
▁ਰਚਨਾ	-8.10928
▁ਆਪਣਾ	-8.11762
▁ਦਿੰਦਾ	-8.1196
▁ਸਥਾਨ	-8.12233
▁x	-8.12288
▁ਪ੍ਰਸਿੱਧ	-8.12348
▁A	-8.12377
▁ਕੋਲ	-8.12493
▁ਵਿਕਾਸ	-8.13355
”	-8.13447
▁ਟਾਪੂ	-8.13998
▁ਅਧੀਨ	-8.14026
▁ਸਰਕਾਰ	-8.14034
▁ਦੱਖਣ	-8.15163
▁ਲੇਖਕ	-8.15467
▁ਉਦਾਹਰਨ	-8.1563
▁ਅੰਗਰੇਜ਼ੀ	-8.15929
▁ਬਣਾਇਆ	-8.16356
▁ਚ	-8.16555
▁ਗਣਿਤ	-8.16708
▁ਵਿਆਹ	-8.1684
▁ਵੱਡੇ	-8.17062
▁ਵਾਲੀਆਂ	-8.17087
▁of	-8.1735
▁ਵਿਆਖਿਆ	-8.17823
▁ਮਾਡਲ	-8.17824
ਿੰਗ	-8.17983
▁ਆਈਨਸਟਾਈਨ	-8.18239
▁ਪੂਰੀ	-8.18327
▁ਉੱਤਰੀ	-8.18567
ਟੀ	-8.19052
▁ਇਸਤਰਾਂ	-8.19111
▁ਰਹਿੰਦਾ	-8.19514
▁ਨਿਯਮ	-8.19726
▁ਪਾਕਿਸਤਾਨ	-8.19812
▁ਮਹੱਤਵਪੂਰਨ	-8.20005
▁ਬਾਦ	-8.2023
▁ਸਾਰੀਆਂ	-8.20642
▁ਕਾਲਜ	-8.20646
ੀਆ	-8.21087
▁ਨਾਵਲ	-8.21107
▁ਕਹਿੰਦੇ	-8.21212
▁ਦੇਣ	-8.21399
▁ਵੱਲੋਂ	-8.21486
▁ਕੁੱਲ	-8.2157
▁ਇਲਾਵਾ	-8.21573
▁ਪ੍ਰਭਾਵ	-8.21608
▁ਪਰਿਵਾਰ	-8.21625
▁ਦ	-8.22292
▁ਖੋਜ	-8.22492
▁ਸਿੱਖ	-8.22499
▁ਦਿੱਤੇ	-8.22574
▁ਅਪਣੇ	-8.22615
▁ਪ੍ਰਮੁੱਖ	-8.22636
▁S	-8.22677
ਲਾ	-8.22745
▁ਜਾਣਿਆ	-8.22993
▁ਵਿਸ਼ਵ	-8.23048
਼	-8.23121
▁ਇੱਕੋ	-8.23286
ਕੇ	-8.2444
▁ਓਪਰੇਟਰ	-8.24529
▁ਵਰਤਿਆ	-8.25017
▁ਬ੍ਰਹਿਮੰਡ	-8.25036
▁ਅਜਿਹਾ	-8.25171
▁ਭੌਤਿਕੀ	-8.25246
▁ਜਿਸਨੂੰ	-8.25254
▁ਵਿਚਾਰ	-8.25323
▁3	-8.25531
▁•	-8.2571
ਹ	-8.25775
▁ਔਬਜ਼ਰਵਰ	-8.25929
ਅ	-8.26019
▁ਬਦਲ	-8.26152
ਗ	-8.26342
▁a	-8.26355
ਬ	-8.26374
▁ਡੀ	-8.27182
▁ਸਪੀਡ	-8.27969
▁ਰੇਖਾ	-8.28305
▁ਕਦੇ	-8.28356
▁ਦੂਰੀ	-8.29025
▁ਡਾ	-8.29098
▁ਭਾਵੇਂ	-8.29376
▁ਲ	-8.29529
ਵੀ	-8.29542
▁ਵੱਡੀ	-8.2968
▁ਬਿੰਦੂ	-8.29729
▁ਮੁੱਲ	-8.29865
▁ਗਿਣਤੀ	-8.30025
▁ਚਿੱਤਰ	-8.3085
▁ਮਸ਼ਹੂਰ	-8.31057
▁ਵੱਖਰੇ	-8.31078
▁ਇਤਿਹਾਸ	-8.31239
▁ਸਪੈਸ਼ਲ	-8.31393
ਨੀ	-8.31459
▁ਟਾਈਮ	-8.31602
▁ਪੱਛਮੀ	-8.31888
▁ਸਬੰਧ	-8.32095
▁ਲਾਗੂ	-8.32264
▁ਹਿੱਸੇ	-8.3243
▁ਦੋਵੇਂ	-8.32565
ੋਂ	-8.32658
▁ਬਣਾ	-8.32717
▁E	-8.32982
▁ਕਵੀ	-8.33068
}	-8.33302
▁ਪਾਸੇ	-8.3332
▁ਅਧਿਐਨ	-8.33347
▁ਬਲਾਕ	-8.33418
▁ਜਿਨ੍ਹਾਂ	-8.33429
▁ਦੂਰ	-8.33571
▁ਸਿੱਖਿਆ	-8.33601
ੂ	-8.33801
▁/	-8.34856
▁ਕਹਾਣੀ	-8.3514
▁ਸੰਯੁਕਤ	-8.35321
▁ਨਾਪ	-8.35554
▁ਵਿਚੋਂ	-8.36368
▁ਆਈ	-8.36512
▁ਲੌਰੰਟਜ਼	-8.36524
▁ਕਾਲ	-8.3663
ਸ਼	-8.36882
▁20	-8.37148
▁ਮਾਂ	-8.37239
▁\	-8.37285
▁ਨਾਲ਼	-8.37291
▁ਸੰਭਵ	-8.37531
▁ਦਿੱਲੀ	-8.37769
▁ਪੰਜ	-8.37776
▁ਕੀਤੀਆਂ	-8.37827
▁ਇਸੇ	-8.37894
▁ਤਰੀਕੇ	-8.37939
▁ਪਰਸਪਰ	-8.38014
▁ਭਾਗ	-8.3895
▁ਬਾਕੀ	-8.39188
▁ਕਲਾ	-8.39219
▁ਹੋਣਾ	-8.39597
▁ਸਮਾਜ	-8.39784
ਲੀ	-8.39806
▁ਰਾਜਧਾਨੀ	-8.40226
▁ਥਾਂ	-8.40643
▁ਪ੍ਰਸਤੁਤ	-8.4103
▁ਅਮਰੀਕੀ	-8.41194
▁ਅਨੁਮਾਨ	-8.41528
▁ਭੂਮਿਕਾ	-8.41688
▁ਅਕਸਰ	-8.41894
ਪ	-8.42395
▁ਵਾਂਗ	-8.42396
▁ਮੌਜੂਦ	-8.42732
▁ਤਰੰਗਾਂ	-8.42761
▁ਸਪਿੱਨੌਰ	-8.42903
▁ਨੇੜੇ	-8.42982
▁ਪਤਾ	-8.43101
▁in	-8.4312
▁ਸੰਗੀਤ	-8.43187
▁ਲਿਖੇ	-8.43216
▁ਤਕ	-8.4326
▁ਦੂਜੀ	-8.44115
▁ਅਵਸਥਾਵਾਂ	-8.44119
▁ਸਮਝ	-8.44274
▁ਇ	-8.4438
▁ਨਿਊ	-8.44426
▁ਜੋੜ	-8.44739
▁ਚੀਨ	-8.44928
▁ਗਈਆਂ	-8.44981
▁ਚਾਹੀਦਾ	-8.45086
▁ਪ੍ਰਯੋਗ	-8.45245
▁ਬਣਤਰ	-8.4533
ਰਾ	-8.45361
▁ਦਿਸ਼ਾ	-8.45468
▁ਮੈਂਬਰ	-8.45898
▁ਉਲਟ	-8.46046
▁ਹੇਠ	-8.46624
▁ਸਹੀ	-8.46755
▁ਉੱਚ	-8.46894
▁ਕਿਤਾਬ	-8.47122
▁ਪਰਿਭਾਸ਼ਿਤ	-8.47416
▁10	-8.47433
▁ਮਾਤਰਾ	-8.48038
▁ਬਣਾਉਣ	-8.48116
▁ਅੱਜ	-8.48504
▁ਕਵਿਤਾ	-8.48537
▁4	-8.48664
▁ਰੰਗ	-8.48674
▁ਦੂਜਾ	-8.48967
▁ਪਿਆ	-8.49411
▁ਟੀਮ	-8.49484
ਓ	-8.49491
▁ਅੰਤ	-8.49521
▁15	-8.49686
▁ਕਾਵਿ	-8.49737
▁ਬਣਿਆ	-8.50221
▁ਨਤੀਜੇ	-8.50331
▁ਸਟਰਿੰਗ	-8.50469
▁ਗਰੈਵੀਟੇਸ਼ਨਲ	-8.50488
▁ਕਾਰਜ	-8.50567
▁ਰੱਖਦਾ	-8.50575
▁ਭਾਵ	-8.5065
▁ਉਸਦਾ	-8.50805
▁B	-8.51044
ਿ	-8.51142
▁ਬੋਲੀ	-8.51246
▁16	-8.51275
ਕਾ	-8.51296
▁ਪਦਾਰਥ	-8.5132
▁ਸਧਾਰਨ	-8.51405
▁ਗਰੈਵਿਟੀ	-8.51625
▁ਸੰਨ	-8.51763
▁p	-8.51804
▁ਵਰਗ	-8.51961
▁ਤਰੰਗ	-8.52112
▁ਚਾਰਜ	-8.5229
ਵਾ	-8.52379
▁ਨੰਬਰ	-8.52696
▁c	-8.52853
▁ਬਾਹਰ	-8.52907
▁ਸਭਾ	-8.53185
▁ਮਿਲ	-8.54167
▁ਸ੍ਰੀ	-8.54456
▁ਸ਼ਾਹ	-8.54689
ਇਸ	-8.54713
▁ਸ਼ਬਦਾਂ	-8.54745
ਵੇਂ	-8.54815
▁ਬ	-8.54903
▁ਜੇ	-8.5499
ਜੀ	-8.55302
▁ਛੋਟੇ	-8.55469
▁ਤਿਆਰ	-8.55533
▁ਕਿਲੋਮੀਟਰ	-8.5561
▁ਜ਼ਿਆਦਾ	-8.56046
▁ਲਾਲ	-8.56119
▁ਬਰਾਬਰ	-8.5624
▁ਵਿਸ਼ਾਲ	-8.56617
▁ਕਰਦੀਆਂ	-8.56731
▁ਵਿਚਕਾਰ	-8.5685
▁ਨਤੀਜਾ	-8.56866
▁ਭਰ	-8.56951
▁ਹਿੰਦੀ	-8.57282
▁5	-8.57388
ਤੀ	-8.57882
ਅਯਾਮੀ	-8.57909
▁ਚੀਜ਼	-8.57978
▁ਲੈਣ	-8.58279
▁ਸਥਿਰ	-8.58316
▁ਵਰਗੇ	-8.58377
▁ਸਾਲਾਂ	-8.5842
▁ਦੇਸ਼ਾਂ	-8.58844
▁ਕਲੌਕ	-8.58853
▁ਦੁਨੀਆਂ	-8.58934
▁ਸਗੋਂ	-8.59703
▁ਮੱਧ	-8.59771
▁ਸ਼ੁੱਧ	-8.60088
▁ਰਹਿੰਦੀ	-8.60361
▁ਆਇਆ	-8.60544
▁ਭਾਈ	-8.60636
▁ਥਿਊਰੀਆਂ	-8.6064
▁ਮਾਤਾ	-8.60792
▁t	-8.60838
▁ਪੱਧਰ	-8.60858
ਪਛਾਣ	-8.6089
▁ਯਾਤਰਾ	-8.61007
▁ਰੱਖਦੇ	-8.61084
▁ਮੇਲ	-8.61175
▁ਸਾਬਤ	-8.61384
ਪੁਰ	-8.61497
▁ਵਿਅਕਤੀ	-8.62015
E	-8.62022
▁ਰਹਿਣ	-8.62048
▁m	-8.62396
▁ਪਾਰਟੀ	-8.62621
▁ਉਪ	-8.62724
▁ਗੀਤ	-8.63281
▁ਪੂਰਬੀ	-8.63312
▁ਕ੍ਰਿਆ	-8.63456
▁ਮੁਤਾਬਕ	-8.6346
▁ਲੜਾਈ	-8.63535
▁ਸਰਵ	-8.63831
▁ਦਿੰਦੀ	-8.63893
▁12	-8.64299
▁ਰਹਿੰਦੇ	-8.6467
3	-8.6486
▁ਕੇਂਦਰ	-8.65022
ੀਅਨ	-8.65207
▁ਘਟਨਾ	-8.65234
▁ਫਾਰਮੂਲਾ	-8.65398
▁ਸਥਾਪਨਾ	-8.6554
ਵੱਖ	-8.65649
▁ਔਰਤਾਂ	-8.65704
▁ਸੰਖੇਪ	-8.66199
▁ਸਮਾਨ	-8.66262
▁ਕੰਪਲੈਕਸ	-8.66354
▁ਸ਼ੁਰੂਆਤੀ	-8.66359
▁ਲਗਭਗ	-8.66537
▁ਭਾਸ਼ਾਵਾਂ	-8.66571
▁ਸਮੇਤ	-8.66576
▁17	-8.66602
▁ਮਨੁੱਖ	-8.66682
▁ਸਮੀਕਰਨ	-8.66741
▁ਆਫ	-8.66786
▁ਤੋ	-8.66865
ਮੀ	-8.66988
▁ਜਾਵੇ	-8.67186
▁ਆਧੁਨਿਕ	-8.67368
▁ਜਾਣਕਾਰੀ	-8.67465
▁ਮਿਲਦਾ	-8.68188
▁ਵਾਸਤਵਿਕ	-8.68303
▁ਗਤੀਸ਼ੀਲ	-8.6844
▁ਪ੍ਰਦੇਸ਼	-8.68477
▁I	-8.68578
▁ਇਸਨੇ	-8.69042
▁ਕਰੋ	-8.69238
▁ਸੇਵਾ	-8.69341
▁ਦਰ	-8.69476
▁ਸਰਲ	-8.69585
▁ਪ੍ਰਕਾਰ	-8.69639
▁ਹੇਠਾਂ	-8.69931
▁ਸਮੀਕਰਨਾਂ	-8.70118
▁+	-8.7018
ਡੀ	-8.70257
ਂਸ	-8.70496
▁ਸ਼ੁਰੂਆਤ	-8.70647
▁ਵੇਲੇ	-8.70651
▁ਨਵੇਂ	-8.70709
▁ਛੱਡ	-8.70883
ਯੋਗ	-8.70889
▁ψ	-8.7091
▁ਜਾਰੀ	-8.71045
▁ਸੈੱਟ	-8.71228
▁ਕੁ	-8.71246
▁ਮੀਟਰ	-8.71312
▁ਰੱਖਣ	-8.71554
▁ਬੀ	-8.71881
▁ਸੰਚਾਰ	-8.71955
▁ਨਾਲੋਂ	-8.72062
▁ਬੁਨਿਆਦੀ	-8.72614
▁0	-8.72906
▁ਕੇਂਦਰੀ	-8.72977
4	-8.73064
ਬੀ	-8.73122
c	-8.73151
▁ਨਿਰਭਰ	-8.73193
▁ਪੜ੍ਹਾਈ	-8.73238
▁6	-8.73539
▁ਪ੍ਰਕਾਸ਼ਿਤ	-8.7354
▁ਮੰਗ	-8.73578
▁ਜੰਗ	-8.73784
▁18	-8.7443
▁ਇਲੈਕਟ੍ਰੌਨ	-8.74514
▁ਵਧ	-8.74522
▁ਕੇਵਲ	-8.74522
▁ਅਬਾਦੀ	-8.74541
▁ਅਪਣੀ	-8.7484
▁ਅਜੇ	-8.74852
▁ਕਾਰਣ	-8.75026
▁ਹਾਲਾਂਕਿ	-8.75156
▁ਪੈਂਦਾ	-8.75222
▁ਲਿਖੀ	-8.75276
ਕੀ	-8.75315
▁ਪੁਜੀਸ਼ਨ	-8.75353
▁ਚੰਗੀ	-8.75472
▁ਖੇਤਰਾਂ	-8.7553
▁ਹੋਂਦ	-8.75679
▁ਅੰਤਰਰਾਸ਼ਟਰੀ	-8.75867
▁ਸਮੂਹ	-8.75942
▁ਵਧੇਰੇ	-8.75983
°	-8.76025
▁ਸਵੈ	-8.76092
d	-8.76178
▁ਵਿਸ਼ਲੇਸ਼ਣ	-8.76704
▁ਡਾਲਰ	-8.7671
▁ਕਾ	-8.76827
▁ਬਣਾਈ	-8.7695
▁ਏਸ਼ੀਆ	-8.77014
▁O	-8.77153
▁ਇਨਾਮ	-8.7721
ਨੇ	-8.77331
▁ਮੁਤਾਬਿਕ	-8.77338
▁ਦਰਸਾਇਆ	-8.77431
▁ਰਾਮ	-8.77912
ੁ	-8.78229
▁ਕੁਦਰਤੀ	-8.78407
ਮਾ	-8.78417
▁ਰਾਸ਼ਟਰੀ	-8.78464
▁ਨਿਰਦੇਸ਼ਾਂਕ	-8.78529
k	-8.7857
▁ਰਾਜਾ	-8.78743
▁ਪ੍ਰਭਾਵਿਤ	-8.78894
N	-8.7905
▁ਮਾਰ	-8.79107
▁ਪਹੁੰਚ	-8.79533
▁ਧਾਰਮਿਕ	-8.79564
▁ਦਿੰਦੇ	-8.79828
▁ਆਉਣ	-8.79965
▁and	-8.7997
▁ਕਿਵੇਂ	-8.8015
ਦੀਆਂ	-8.8043
▁ਪੁਟੈਂਸ਼ਲ	-8.806
▁ਨਾਟਕ	-8.80627
▁ਡਿਗਰੀ	-8.80872
▁ਪੁਰਸਕਾਰ	-8.80903
▁ਜਿਸਨੇ	-8.80913
▁ਆਮਤੌਰ	-8.811
▁ਮਹਾਨ	-8.81175
▁ਅਲ	-8.81185
▁14	-8.81521
ਵੇ	-8.81531
▁ਪੁੱਤਰ	-8.81642
▁ਕੌਰ	-8.81644
▁ਪ੍ਰਸਤੁਤੀ	-8.81727
▁ਵੰਡ	-8.81774
▁ਪਛਾਣ	-8.819
▁ਪਾ	-8.81981
▁ਹੈਮਿਲਟੋਨੀਅਨ	-8.82029
▁ਲੜੀ	-8.82116
▁ਆਫ਼	-8.82236
▁ਲੱਗ	-8.82376
▁ਮੈਂ	-8.82417
▁ਸਮਾਜਿਕ	-8.82485
▁ਮਿਲਦੀ	-8.82572
▁ਬਣੇ	-8.82607
▁ਯੂਰਪ	-8.82629
▁ਹਿੰਦੂ	-8.82683
▁ਸਕਦੀਆਂ	-8.82759
ਣਾ	-8.82811
▁ਸਭਿਆਚਾਰ	-8.82822
▁ਕ੍ਰਿਕਟ	-8.82998
▁ਧਿਆਨ	-8.83039
▁s	-8.83075
e	-8.83168
▁ਵਿਸ਼ੇਸ਼ਤਾਵਾਂ	-8.83184
▁ਗ੍ਰੰਥ	-8.832
▁ਮ	-8.8346
▁19	-8.83512
▁ਪ੍ਰਤੀ	-8.83539
▁C	-8.83554
▁ਬਾਬਾ	-8.83606
▁ਸਮਰੂਪਤਾ	-8.83694
▁ਬੰਦ	-8.83752
▁ਅੰਦਰੂਨੀ	-8.84003
ਇਹ	-8.84258
▁ਧਾਰਨਾ	-8.84282
▁ਨਾਮਕ	-8.84312
ਾਤਮਿਕ	-8.84468
▁ਸੁਤੰਤਰ	-8.84625
ed	-8.84662
▁ਅੰਤਰ	-8.84717
ਕੋ	-8.84739
▁ਸਾਡੇ	-8.85048
▁ਆਰ	-8.85091
▁V	-8.85245
▁ਗੁਣਨਫਲ	-8.85246
▁ਕੰਪਨੀ	-8.85438
▁ਨਦੀ	-8.85454
▁ਜਨਵਰੀ	-8.85627
a	-8.86172
▁ਹੋਈਆਂ	-8.86283
▁11	-8.86371
▁to	-8.86724
▁ਹਾਸਲ	-8.86751
▁v	-8.86813
▁ਜਦੋਂਕਿ	-8.86843
▁ਐਨਰਜੀ	-8.8687
▁ਫੀਲਡਾਂ	-8.86905
▁ਮਨ	-8.86991
▁ਲੰਬਾਈ	-8.87019
▁ਓਸ	-8.87077
ਫ਼	-8.87115
▁ਆਏ	-8.87122
▁n	-8.87137
▁ਪੀ	-8.87275
▁ਬੇ	-8.87277
ਫ	-8.87318
▁ਰਹਿ	-8.87585
▁ਸਕੇ	-8.87652
▁ਯੋਗਦਾਨ	-8.87693
▁ਦਰਿਆ	-8.88047
ਪੀ	-8.88103
6	-8.88122
▁ਬਣੀ	-8.8814
▁ਬਲ	-8.88154
▁ਚਰਚਾ	-8.88169
ਬੱਧ	-8.88206
▁ਮਨੁੱਖੀ	-8.88375
▁13	-8.88495
▁ਯੋਗ	-8.88532
▁7	-8.88827
▁ਜ਼ਿਲ੍ਹਾ	-8.8883
▁ਪ੍ਰਧਾਨ	-8.88912
▁ਨਵੀਂ	-8.89102
▁ਅਗਸਤ	-8.89107
▁9	-8.89212
▁ਆਉਂਦਾ	-8.89219
▁ਇਸ਼ਾਰਾ	-8.89483
▁8	-8.89695
▁ਸੀਮਤ	-8.89767
n	-8.89819
▁{	-8.90068
▁ਪ੍ਰਾਚੀਨ	-8.90505
▁ਸਾਰੀ	-8.90529
▁ਸਪੱਸ਼ਟ	-8.90542
▁ਵਧੀਆ	-8.90626
▁ਮੰਨ	-8.9063
▁ਦੇਵ	-8.9103
▁ਹੱਦ	-8.91047
▁ਪੂਰਬ	-8.91275
▁ਜਰੂਰਤ	-8.9142
▁ਮੈਟ੍ਰਿਕਸ	-8.91429
▁ਵਿਕਸਿਤ	-8.91723
▁^	-8.91849
▁ਸ਼ਕਤੀ	-8.91913
▁ਇਲਾਕੇ	-8.92137
▁ਜਰਮਨੀ	-8.92189
▁2011	-8.92253
▁ਯੁੱਧ	-8.9227
▁ਦ੍ਰਿਸ਼ਟੀਕੋਣ	-8.92288
▁ਚੋਣ	-8.92347
\	-8.92412
ੜ	-8.92516
▁ਤਬਦੀਲੀ	-8.92592
▁ਯੂ	-8.92725
▁ਮਾਰਚ	-8.9275
▁ਬਿਆਨ	-8.92768
▁ਹ	-8.92815
▁M	-8.92821
▁ਐਂਡ	-8.92829
▁ਬਲੈਕ	-8.92854
▁ਦੁਨੀਆ	-8.92898
▁ਵਿਗਿਆਨੀ	-8.93038
▁ਰੂਸੀ	-8.93129
▁H	-8.93346
▁ਅਧਾਰ	-8.93378
▁ਅਕਤੂਬਰ	-8.93444
▁ਪਾਇਆ	-8.93496
▁ਭਰਾ	-8.93619
▁}	-8.94114
▁ਮਿਲਿਆ	-8.94262
▁ਜਰੂਰ	-8.94291
▁:	-8.94304
▁ਅਸਲ	-8.9443
▁ਤੱਤ	-8.94633
▁ਮਿੰਕੋਵਸਕੀ	-8.94808
▁ਪਰਤੋ	-8.94905
▁ਐਮ	-8.94922
▁ਬੱਚਿਆਂ	-8.95039
▁ਬ੍ਰਿਟਿਸ਼	-8.95449
▁ਉੱਥੇ	-8.95543
0	-8.95865
▁ਅਧਿਕਾਰ	-8.9592
▁ਸਮੱਸਿਆ	-8.96
▁30	-8.96062
▁ਇੰਗਲੈਂਡ	-8.96086
▁ਲਾ	-8.96135
▁ਇਲੈਕਟ੍ਰਿਕ	-8.96213
▁ਪੱਛਮ	-8.96494
▁ਰੱਖਦੀ	-8.96497
ਦਾਰ	-8.96772
▁ਸੂਚੀ	-8.96971
▁ਅਯਾਮ	-8.97111
▁ਮੰਤਰੀ	-8.9731
▁ਛੋਟੀ	-8.97389
▁ਲੱਛਣ	-8.97513
▁ਰੈਫ੍ਰੈ	-8.97588
▁ਨਵੰਬਰ	-8.97756
ਯ	-8.9776
▁ਉਦੋਂ	-8.9778
▁ਡੀਰਾਕ	-8.97801
▁ਉਰਦੂ	-8.97809
▁ਇਕੁਏਸ਼ਨਾਂ	-8.97871
▁ਵ	-8.97954
▁ਜੁਲਾਈ	-8.97971
▁ਜਰਮਨ	-8.98079
▁ਨੋਟ	-8.98182
▁ਉਸੇ	-8.98287
▁ਖੇਡਾਂ	-8.98325
▁ਰੂਸ	-8.98738
▁ਪ੍ਰ	-8.98803
▁P	-8.98946
5	-8.99004
▁ਪੁਸਤਕ	-8.99048
▁ਲਾਹੌਰ	-8.99057
▁ਕਾਫੀ	-8.99243
▁ਬੱਚੇ	-8.99405
▁ਸਰਕਾਰੀ	-8.9957
▁ਦਹਾਕੇ	-8.99634
▁ਵਿਸਥਾਰ	-8.99862
ing	-8.99874
ਕਰ	-8.99905
▁ਰੱਖ	-8.99919
▁ਚੀਜ਼ਾਂ	-8.99955
▁ਜਾਣਾ	-9.00178
▁ਦਸੰਬਰ	-9.00183
▁ਪੂਰਵ	-9.00266
▁ਸਾਮਰਾਜ	-9.00306
ਨੂੰ	-9.00395
▁ਨਿਸ਼ਚਿਤ	-9.00565
▁ਵਰਤੇ	-9.00581
▁ਐ	-9.00657
▁ਰਚਨਾਵਾਂ	-9.00856
ਸ਼ਨ	-9.00893
▁ਕ੍ਰਿਆਵਾਂ	-9.00922
▁ਪੂਰਾ	-9.01091
▁ਛੇ	-9.01122
▁ਲੇਖ	-9.01236
▁ਸੰਘ	-9.0126
ਗਾ	-9.01462
▁ਨਗਰ	-9.0155
▁ਵਾਪਸ	-9.01569
▁ਨਾਨਕ	-9.01904
▁ਪੁਨਰ	-9.02021
▁ਅੰਕ	-9.02057
▁ਹੋਵੇਗਾ	-9.02059
▁ਰਹੀਆਂ	-9.02104
▁ਵੱਖਰੀਆਂ	-9.02734
▁ਲੋੜ	-9.02757
▁ਟ	-9.02766
ਰੋ	-9.02803
t	-9.0289
▁ਗਿਆਨ	-9.02998
▁ਸੰਬੰਧ	-9.03074
9	-9.03117
▁ਕੋ	-9.03188
▁ਪੈ	-9.03207
▁ਖੁਦ	-9.03252
▁ਆਧਾਰ	-9.03268
▁ਮਈ	-9.03381
ਇਲੈਕਟ੍ਰੋਮੈਗਨੈਟਿਕ	-9.03435
▁ਫਿਲਮਾਂ	-9.03467
▁−	-9.0347
▁ਦਿਲ	-9.03481
7	-9.03481
▁ਵਰਤਦੇ	-9.03647
▁ਪਰਿਵਰਤਨ	-9.03662
▁ਜਿਆਦਾਤਰ	-9.03797
▁ਪਟਿਆਲਾ	-9.03813
▁ਔਰਤ	-9.03813
▁ਕੰਪਿਊਟਰ	-9.03825
▁ਫ੍ਰੀਕੁਐਂਸੀ	-9.03851
▁ਹਿਸਾਬ	-9.03898
ਬਾ	-9.04033
▁ਲਹਿਰ	-9.04416
▁ਸਤੰਬਰ	-9.04597
▁ਪ੍ਰਦਾਨ	-9.04653
▁ਕਹਾਣੀਆਂ	-9.04722
ਨੋ	-9.04793
▁–	-9.04815
▁ਪਾਸ	-9.04854
ਫੋਰਡ	-9.04915
▁ਵਸਤੂ	-9.05001
▁ਸਾਹਿਤਕ	-9.05191
▁ਤਰਕ	-9.05245
ਕਲ	-9.05267
▁ਪੇਅਰਟੀ	-9.05308
▁ਮਗਰੋਂ	-9.05378
ਕਾਰ	-9.05487
▁ਸਥਿੱਤ	-9.05554
▁ਸਾਹਮਣੇ	-9.05675
ਸਾ	-9.0572
▁ਜੂਨ	-9.05785
▁ਓ	-9.05852
r	-9.05865
▁ਸਥਾਪਿਤ	-9.05907
▁ਸੁਰੱਖਿਅਤ	-9.05966
▁ਗ੍ਰਹਿ	-9.0607
▁ਜਿਹੇ	-9.06134
▁ਮਿਲਦੇ	-9.06226
▁ਪੈਂਦੀ	-9.06322
▁ਰਿਕਾਰਡ	-9.06427
▁2012	-9.06487
▁ਖੇਡ	-9.06534
▁ਅਵਾਰਡ	-9.06662
▁ਨਿਰਮਾਣ	-9.07127
▁ਨਜ਼ਰ	-9.07133
ਥ	-9.07201
▁ਅਧਾਰਿਤ	-9.07356
▁ਘਟ	-9.07362
▁ਗਣਰਾਜ	-9.07937
▁ਪਾਰ	-9.07939
ਡਾ	-9.0813
ਰਾਜ	-9.08276
▁ਕੰਪੋਨੈਂਟ	-9.08331
▁ਲੈਂਦੇ	-9.08376
▁ਆਜ਼ਾਦੀ	-9.08521
▁ਸਰ	-9.08589
▁ਲੱਖ	-9.08663
▁ਕਾਫ਼ੀ	-9.08679
▁ਅਗਵਾਈ	-9.08748
▁ਅਯਾਮਾਂ	-9.09176
ਸਰ	-9.09311
▁ਮਤਲਬ	-9.09496
▁ਕੋਸ਼ਿਸ਼	-9.09589
▁ਕਲੱਬ	-9.09775
▁W	-9.09982
▁ਮਾਮਲੇ	-9.1007
ਮਾਨ	-9.10077
▁ਸੁਪਰ	-9.1014
▁ਇਤਿਹਾਸਕ	-9.10226
▁ਪੁਰਾਣੇ	-9.10395
▁ਵਿਲੌਸਿਟੀ	-9.10429
▁ਲੇਕਿਨ	-9.10442
▁ਪ੍ਰਬੰਧ	-9.10448
▁T	-9.10564
▁ਸੂਖਮ	-9.10632
ਖ	-9.10773
▁ਕ	-9.1095
▁ਕਿਤਾਬਾਂ	-9.11058
▁ਸਿੱਖਾਂ	-9.11093
▁ਅਰਬ	-9.1112
▁ਜਲੰਧਰ	-9.11134
▁ਸੁ	-9.11147
ਤੋਂ	-9.11264
▁ਸਾਰਾ	-9.11269
▁ਪੂਰੇ	-9.11349
ਟਰ	-9.11465
▁ਨਵਾਂ	-9.11537
▁ਸੰਸਥਾ	-9.11548
ਆਈ	-9.11643
ੰ	-9.11985
▁ਗਾਂਧੀ	-9.12066
ਰੇ	-9.12077
▁ਚਿੰਨ	-9.12146
▁ਸੱਤ	-9.12583
▁ਫੋਰਸ	-9.12609
▁ਸਿਰ	-9.12633
▁ਚੱਕਰ	-9.12654
▁ਮੁਹੰਮਦ	-9.12793
)	-9.1298
▁ਸੋਵੀਅਤ	-9.13056
ਇੱਕ	-9.1329
▁ਆਪਣੀਆਂ	-9.13337
▁N	-9.13348
▁ਖਿਡਾਰੀ	-9.13407
ਣੀ	-9.1355
▁i	-9.13589
▁ਵਿਵਰਣ	-9.13631
▁ਦੇਖਿਆ	-9.13652
▁ਅਨੁਭਵ	-9.13907
▁ਸੂਰਜ	-9.13969
▁ਜਿਸਦੀ	-9.14348
▁ਪ੍ਰਵੇਗ	-9.14514
▁ਯਤਨ	-9.14517
▁ਪਿੱਛੇ	-9.14582
▁ਤੇਜ਼	-9.14662
ਸਨ	-9.14668
▁ਲਿਖਣ	-9.14832
▁ਓਹ	-9.14962
▁ਰਾਤ	-9.14989
▁ਬਿਨਾਂ	-9.15038
▁ਵਿ	-9.15074
▁ਗੁਣ	-9.15155
▁ਹਿੱਸਿਆਂ	-9.15381
▁ਪਿਆਰ	-9.15558
▁ਵਿਭਾਗ	-9.15573
▁ਮਿਲੀ	-9.15582
▁ਮੁੜ	-9.15864
▁ਪਤਨੀ	-9.16203
▁ਵਿਧਾਨ	-9.16262
ਵਾਰ	-9.16331
b	-9.16496
▁ਆਬਾਦੀ	-9.16521
▁ਤਤਕਾਲੀਨ	-9.16587
▁ਆਗਿਆ	-9.16934
ਇ	-9.17151
▁ਵਿਓਂਤਬੰਦੀ	-9.17196
▁ਜਿੱਤ	-9.17259
▁ਚੁੰਬਕੀ	-9.17481
▁ਫ੍ਰੇਮਾਂ	-9.17535
p	-9.17552
A	-9.17573
▁ਅਲਜਬਰੇ	-9.17676
▁ਬਾਹਰੀ	-9.17702
ਵਾਦ	-9.17821
▁ਸੰਖਿਆ	-9.17831
▁ਟੀ	-9.1785
▁ਦਰਸ਼ਨ	-9.17866
▁ਅੰਦੋਲਨ	-9.17892
▁ਵਰਤ	-9.17897
▁ਫ਼ਰਾਂਸ	-9.17988
▁ਦੌਰ	-9.18002
▁ਸਿਰਫ਼	-9.18145
ਜਾ	-9.18376
▁k	-9.18378
▁ਬਾਲ	-9.18406
▁ਮੁਕਾਬਲੇ	-9.18409
▁2014	-9.18461
▁ਜਿਹੜਾ	-9.18529
▁ਪ	-9.18849
▁ਅਲੀ	-9.18858
▁ਵੱਖਰੀ	-9.1895
▁ਅੰਗ	-9.19027
`	-9.19233
▁ਸਾਗਰ	-9.19285
ਉ	-9.19469
▁ਸਪੇਨ	-9.19571
▁ਹੱਥ	-9.19776
▁ਭਾਰੀ	-9.19884
▁ਤਕਰੀਬਨ	-9.19908
▁ਇਕੱਠ	-9.19944
▁γ	-9.20067
▁U	-9.201
▁ਖ਼ਾਨ	-9.20107
▁ਜੀਵ	-9.20222
▁ਨ	-9.20242
▁ਕਿਸਮਾਂ	-9.2031
=	-9.20343
8	-9.20402
▁ਲਿਪੀ	-9.2055
▁ਥੱਲੇ	-9.20557
▁ਸਥਾਨਿਕ	-9.20753
▁ਜਦ	-9.21083
▁ਅਨੇਕ	-9.21085
▁ਵੰਡਿਆ	-9.21111
▁ਲਿਖੀਆਂ	-9.21351
▁ਕਥਾ	-9.21474
m	-9.21532
▁ਦਸ	-9.2158
▁ਛੋਟਾ	-9.2161
ਸਾਪੇਖਿਕ	-9.2166
▁ਫ਼ਿਲਮਾਂ	-9.21747
▁for	-9.21747
▁21	-9.21896
▁ਨਿਯਮਾਂ	-9.21949
▁ਲੱਗੇ	-9.22003
▁ਅਨੁਵਾਦ	-9.2201
▁ਇਨ	-9.2212
▁ਪਰਿਭਾਸ਼ਾ	-9.22144
▁ਜ਼ਮੀਨ	-9.22191
ਪਰ	-9.22541
▁ਵਕਰ	-9.22634
▁ਸਥਾਪਤ	-9.2276
▁ਬਹੁ	-9.22936
▁ਸਬ	-9.2298
▁ਨੈਸ਼ਨਲ	-9.2298
▁ਕਲਿੱ	-9.23016
▁ਮੁਢਲੇ	-9.23034
▁ਦੁਆਲੇ	-9.23123
▁ੲਿਸ	-9.23143
▁2010	-9.23368
ਯਾਨਿ	-9.23454
▁ਰਾਗ	-9.23591
▁ਤਹਿਸੀਲ	-9.23661
y	-9.23695
▁ਜ਼ਿੰਦਗੀ	-9.23959
▁ਸਥਿਤੀ	-9.24048
ਮਨ	-9.24092
▁ਰਾਸ਼ਟਰਪਤੀ	-9.24094
▁ਹਾਈ	-9.241
▁ਵਿਸ਼ਵਾਸ	-9.24154
▁ਪ੍ਰਣਾਲੀ	-9.24283
▁ਵਾਲ਼ੇ	-9.24306
▁L	-9.2436
▁ਪਣਜੋੜ	-9.24434
ਟਾ	-9.24445
▁D	-9.24692
▁ਯਾਦ	-9.2472
▁ਸੰਬੰਧਿਤ	-9.24725
▁ਚੁਣ	-9.24776
▁ਰੇਖਾਵਾਂ	-9.24797
▁ਆਲੋਚਨਾ	-9.24829
▁ਅੰਮ੍ਰਿਤਸਰ	-9.25087
▁ਵਰਤਮਾਨ	-9.25158
▁ਕਰਵੇਚਰ	-9.25266
▁ਕਰੀਬ	-9.25507
ਵਰ	-9.25512
▁ਗ	-9.25866
▁ਪਾਕਿਸਤਾਨੀ	-9.25884
▁ਲਏ	-9.25991
▁ਆਉਂਦੇ	-9.2613
▁ਬਾਣੀ	-9.2618
▁ਤਾਪਮਾਨ	-9.26258
▁ਕਾਇਮ	-9.26368
▁ਪ੍ਰਸਤਾਵ	-9.26607
▁ਸੰਕਲਪ	-9.26645
▁ਸੇਂਟ	-9.26859
▁25	-9.26862
▁ਵਰਤਾਓ	-9.26872
▁is	-9.26906
▁ਖਾਨ	-9.27048
▁ਕੁਆਟ੍ਰਨੀਔਨ	-9.27092
′	-9.27111
ਹਾ	-9.27196
▁ਮੁਸਲਮਾਨ	-9.27309
▁ਮਦਦ	-9.27472
▁ਬਗੈਰ	-9.27696
▁ਸਰੀਰ	-9.27705
ਸਿੱਧ	-9.2787
▁ਕੈਨੇਡਾ	-9.27925
ਗੀ	-9.27942
▁ਸਨਮਾਨ	-9.28096
▁ਉਥੇ	-9.28203
▁ਫ਼ੌਜ	-9.29096
▁ਦੱਸਿਆ	-9.29117
▁ਤਬਦੀਲ	-9.29249
▁ਫ਼ਾਰਸੀ	-9.29271
?	-9.29314
▁ਪ੍ਰਸਤੁਤੀਆਂ	-9.29374
▁ਸ਼੍ਰੀ	-9.29435
ਾਜ਼ਮੀ	-9.29498
▁ਨਿਊਟਨ	-9.296
▁2013	-9.29733
▁ਅਸਰ	-9.29881
▁ਰੱਖੀ	-9.29936
▁ਵਰਤੀ	-9.2994
▁ਸਦਕਾ	-9.29983
le	-9.29986
▁ਭਗਤ	-9.30047
▁ਬਰਤਾਨਵੀ	-9.30102
▁ਚੀਨੀ	-9.30102
▁ਮਾਸ	-9.30184
▁ਪਿਛਲੇ	-9.30357
▁ਦੁਬਾਰਾ	-9.30367
▁ਚੁੱਕੇ	-9.30452
▁ਸਬੰਧਿਤ	-9.30506
▁ਸਾਰਾਂਸ਼	-9.30522
▁ਲੀਗ	-9.30544
▁ਭੂ	-9.30593
▁ਹਮਲਾ	-9.30599
ਹਮੇਸ਼ਾਂ	-9.30707
▁ਸਿੰਗਲ	-9.3072
▁ਖੇਤੀਬਾੜੀ	-9.30732
▁ਜਾਣੀ	-9.30937
▁ਹਾਲ	-9.31045
▁ਦੋਵਾਂ	-9.31095
▁ਹਾਰ	-9.31114
▁ਹੌਲੀ	-9.31201
▁100	-9.31223
▁ਦਰਜ	-9.31231
▁ਪ੍ਰੋਬੇਬਿਲਿਟੀ	-9.31259
▁ਟੈਂਸਰ	-9.31346
▁ਮਹੀਨੇ	-9.31463
▁ਜ਼ਿਆਦਾਤਰ	-9.31505
▁ਸਾਨੂੰ	-9.31535
▁ਹਵਾ	-9.3179
▁ਇਨਵੇਰੀਅੰਟ	-9.31826
u	-9.31887
▁ਸੰਸਕ੍ਰਿਤ	-9.31976
i	-9.31993
▁ਕਾਂਗਰਸ	-9.32131
ਨਾਲ	-9.32195
%	-9.32265
▁ਸੱਚ	-9.32398
▁ਇੱਥੋਂ	-9.32479
▁ਨਿਭਾਈ	-9.32532
ਬਰ	-9.32751
▁ਚਾਹੀਦੀ	-9.32829
ਯੂ	-9.32841
▁ਸਿਆਸੀ	-9.32878
▁ਪਰਵਾਰ	-9.33123
▁ਖ਼ਾਸ	-9.33146
▁ਉਮੀਦ	-9.33419
▁ਸ਼ੈਲੀ	-9.33434
▁ਦੋਹਾਂ	-9.3354
▁2015	-9.33553
▁ਅਹਿਮ	-9.33763
▁ਵਿਰੁੱਧ	-9.33923
▁ਸੱਭਿਆਚਾਰ	-9.33938
▁ਸੇ	-9.33958
ਮੋਮੈਂਟਮ	-9.34128
▁ਯੂਨਿਟ	-9.34166
f	-9.34204
▁ਇਸਤੋਂ	-9.34244
▁ਅਨੰਤ	-9.34581
ਬਲ	-9.34675
▁ਵਿਰੋਧ	-9.34864
▁ਤਸਵੀਰ	-9.34924
▁ਦਿਖਾਇਆ	-9.34961
▁ਪੌਲੀ	-9.34966
▁ਸਮੱਸਿਆਵਾਂ	-9.35044
▁ਰਾਜਨੀਤਕ	-9.35161
▁ਮਰ	-9.35207
▁ਢੰਗ	-9.35216
▁ਰਾਸ਼ਟਰ	-9.35981
▁ਕਾਨੂੰਨ	-9.3599
▁ਐਸ	-9.36007
ਧ	-9.36068
▁ਪੁਰਾਤਨ	-9.36344
▁ਹਾਲਤ	-9.36379
▁ਕੁਦਰਤ	-9.3653
▁2008	-9.36558
x	-9.36574
g	-9.36777
▁ਕੈਰੀਅਰ	-9.36923
▁ਇੰਡੀਆ	-9.3694
ੈ	-9.36965
▁ਕਮੇਟੀ	-9.37004
▁ਫੌਜ	-9.37143
▁ਪਲੈਂਕ	-9.37156
ਲੋ	-9.37169
▁ਚਲਦਾ	-9.37275
▁ਐਨ	-9.37399
▁ਵਿਚਾਰਾਂ	-9.3746
▁ਲੁਧਿਆਣਾ	-9.37467
▁ਅਲੱਗ	-9.37499
▁ਲੱਗਭੱਗ	-9.37668
▁ਆਈਗਨ	-9.37721
▁ਜਿਹਾ	-9.37848
▁ਪਾਲਣਾ	-9.37866
C	-9.38092
▁ਫਰਮੀਔਨ	-9.38112
▁ਵਿਆਪਕ	-9.38115
▁ਨਿਰਦੇਸ਼ਕ	-9.38179
▁ਭਵਿੱਖ	-9.38277
▁ਸੁਧਾਰ	-9.38453
▁ਅਗਲੇ	-9.38506
▁ਕਰੋੜ	-9.38615
▁ਮੁੰਬਈ	-9.38782
▁ਵਿਗਿਆਨੀਆਂ	-9.38923
▁ਨਿਰੀਖਣ	-9.38934
▁ਚਲੇ	-9.38984
▁ਕਲੰਡਰ	-9.39009
▁ਲਗਾਤਾਰ	-9.39095
ੜੀ	-9.39252
▁ਆਰਥਿਕ	-9.3943
▁ਮੈਟ੍ਰਿਕਸਾਂ	-9.39519
▁ਸੰਦ੍ਰਭ	-9.3977
ਟੋਨੀਅਨ	-9.39825
▁ਗੋਬਿੰਦ	-9.40005
▁F	-9.40014
▁ਸਟੈਂਡਰਡ	-9.40026
▁ਸੋ	-9.40048
▁ਭੈਣ	-9.4012
▁ਰਸ	-9.40201
▁ਸੰਤ	-9.40312
▁ਦਰਸਾਉਂਦੀ	-9.40453
▁ਲਾਈ	-9.4052
▁ਯੂਰਪੀ	-9.40545
▁ਫੁੱਟਬਾਲ	-9.40626
▁ਜਗ੍ਹਾ	-9.40696
▁ਸਵੀਕਾਰ	-9.40713
▁ਜਿਥੇ	-9.40749
▁ਸਹਾਇਕ	-9.40795
ਜੇ	-9.40821
▁ਉਸਾਰੀ	-9.40831
▁ਝੀਲ	-9.40838
▁ਹੋਵੇਗੀ	-9.40872
▁ਕੁਲ	-9.40921
▁ਸੂਬੇ	-9.40944
▁ਦਿਨਾਂ	-9.40986
▁2016	-9.41235
▁ਦੇਵੀ	-9.41318
▁ਗੇਜ	-9.41369
▁ਜਾਂਚ	-9.41447
੍	-9.41468
▁ਬਾਵਜੂਦ	-9.41485
▁ਸਕਣ	-9.41492
▁ਰੇਖਾਗਣਿਤ	-9.41562
▁ਹਿੰਦ	-9.41699
▁ਫਰਕ	-9.41743
▁ਬਣਾਏ	-9.41757
▁ਲੈਂਦਾ	-9.41929
▁22	-9.42184
▁ਰੇਖਿਕ	-9.42214
▁ਸੰਗਠਨ	-9.42228
▁ਚਲਾ	-9.42244
▁ਟੈਗੋਰ	-9.42302
▁ਪੱਖ	-9.42356
▁ਇਟਲੀ	-9.42442
▁ਤੱਥ	-9.42503
▁ਵਿਸ਼ੇ	-9.42509
▁ਸਟੈੱਲਾ	-9.42552
▁ਸੀਮਾ	-9.42588
▁ਧੀ	-9.42616
▁ਤੁਲਨਾ	-9.4278
▁ਕਲਿੱਕ	-9.42982
▁ਬੰਗਾਲ	-9.43158
▁ਰਸਤੇ	-9.43166
▁ਵਾਧੂ	-9.4323
▁ਲਗਾ	-9.43285
▁ਸਮਾਨਤਾ	-9.43458
▁ਸਨਮਾਨਿਤ	-9.43588
▁ਟੈਲੀਵਿਜ਼ਨ	-9.43603
ਾਇਆ	-9.43665
v	-9.43699
▁ਮੁਢਲੀ	-9.43754
al	-9.43807
▁ਨਿਰਧਾਰਿਤ	-9.43943
▁ਹੇ	-9.44012
▁ਮਾਨ	-9.44038
ੰਗ	-9.44059
▁ਮੰਨਦੇ	-9.44065
▁ਠੀਕ	-9.44203
▁ਅਪ੍ਰੈਲ	-9.44278
▁ਨਿ	-9.4437
▁ਅਨੁਪਾਤ	-9.444
ਅਲ	-9.44558
▁ਅਦਾਕਾਰਾ	-9.44578
▁ਐਂਗੁਲਰ	-9.44736
▁ਇਸਤੇਮਾਲ	-9.44736
▁ਨਜ਼ਦੀਕ	-9.448
▁ਪ੍ਰਿੰਸੀਪਲ	-9.44862
▁ਵਿਦਿਆਰਥੀ	-9.44994
▁ਦਰਸਾਉਣ	-9.45026
▁ਘਰੇਲੂ	-9.45037
▁ਪੂਰਨ	-9.45166
▁ਫਲ	-9.45172
▁ਨੋਬਲ	-9.45177
▁ਵਿਦਵਾਨ	-9.45311
▁ਰੋਟੇਸ਼ਨ	-9.4537
▁ਇਨਸਾਨ	-9.45449
▁ਚੁੱਕੀ	-9.45485
▁ਬਣਨ	-9.45499
▁ਪਰੰਪਰਾ	-9.45506
▁ਐਲੀਮੈਂਟ	-9.45593
▁26	-9.45652
▁ਆਧਾਰਿਤ	-9.45671
▁ਮਿਲਣ	-9.45691
ਚੀ	-9.45701
▁ਸਬੂਤ	-9.45725
▁ਨਿਰੰਤਰ	-9.45835
▁ਬਾਰ	-9.45887
▁ਇਸਲਾਮ	-9.45942
▁ਜੁੜਿਆ	-9.46008
▁ਤੁਰਕੀ	-9.46069
’’	-9.46075
▁ਸਲਤਨਤ	-9.46176
▁ਸੋਚ	-9.46252
▁ਵਿਓਂਤਬੰਦ	-9.46385
▁ਭੋਜਨ	-9.46394
ਿਨ	-9.46639
▁ਵੱਖਰਾ	-9.46681
ਐਸ	-9.46749
▁ਵੈਕਟਰਾਂ	-9.46806
▁ਸਟੇਸ਼ਨ	-9.46888
ਾਰ	-9.47041
▁ਇਮਾਰਤ	-9.4707
▁SU	-9.47079
▁ਵਿਸ਼ੇਸ਼ਤਾ	-9.4729
▁ਰੇਡੀਓ	-9.47333
▁The	-9.47446
▁24	-9.47551
ਗੋ	-9.47587
▁Δ	-9.47599
▁ਵਿਭਿੰਨ	-9.47636
▁ਟਵਿਨ	-9.47643
ਘ	-9.47743
▁ਗਿਰਜਾਘਰ	-9.48098
▁ਜਲ	-9.48272
_	-9.48351
ਗਰ	-9.48419
▁ਸੰਬੰਧੀ	-9.48446
ਤਰ	-9.48473
▁ਨਤੀਜਿਆਂ	-9.48483
}}	-9.48518
ਵਾਦੀ	-9.48535
▁ਬਚਪਨ	-9.48562
▁2007	-9.48599
▁ਗਾਇਕ	-9.48825
▁ਮੁਹੱਈਆ	-9.48839
ਗੇ	-9.48864
▁28	-9.48965
▁ਮੈਚ	-9.48977
▁ਮਹਿਲਾ	-9.4909
▁ਪੇਪਰ	-9.49125
▁ਲਓ	-9.49193
–	-9.49349
ਰਸ਼ੀਅਲ	-9.4944
▁ਬੇਸਿਸ	-9.49498
▁ਸਰੋਤ	-9.49597
▁ਕਰਵਾਇਆ	-9.49625
▁ਮਹੱਤਵਪੂਰਣ	-9.49682
▁ਅਰਬੀ	-9.4969
▁ਯੁੱਗ	-9.49759
▁ਫਰਵਰੀ	-9.49813
▁ਮੀ	-9.49927
▁ਸਤਹਿ	-9.50064
▁ਸੁਰੱਖਿਅਤਾ	-9.50066
▁ਲੱਗਦਾ	-9.50071
▁ਵਰਗੀਆਂ	-9.50136
▁2009	-9.50153
▁ਜੁੜੇ	-9.50231
▁ਕਥਨ	-9.50256
▁ਇਥੇ	-9.50258
▁ਸਮਝਿਆ	-9.50265
▁75	-9.50356
▁ਕੌਮੀ	-9.50369
▁ਮਕੈਨੀਕਲ	-9.50403
▁ਵਸਤੂਆਂ	-9.50444
▁ਮਹਾਰਾਜਾ	-9.50523
▁ਵੀਂ	-9.50554
▁ਵਰਣਨ	-9.50624
▁σ	-9.50776
▁ਜਵਾਬ	-9.50922
▁ਸਥਿਰਾਂਕ	-9.51293
▁ਸੰਗ੍ਰਹਿ	-9.5133
▁ਓਲੰਪਿਕ	-9.51369
▁ਸੂਚਨਾ	-9.51421
19	-9.51533
▁ਆਖਰੀ	-9.51536
▁ਅੱਠ	-9.51589
▁ਵਾਧਾ	-9.51683
▁ਗੁਰ	-9.51891
▁ਚੁਣਿਆ	-9.51911
▁ਜ਼ੀਰੋ	-9.51975
▁ਔਸਤ	-9.52061
▁ਸਮਝਣ	-9.52175
▁ਰੀਸੀਵਰ	-9.52363
▁ਚੱਲ	-9.52437
▁ਰੈਸਟ	-9.52475
▁ਅਲਜਬਰਾ	-9.52508
▁ਲੰਡਨ	-9.52536
▁ਵਿਸ਼ਾ	-9.52554
▁R	-9.52559
▁G	-9.52657
▁ਪਲ	-9.52723
▁ਅੱਖਰ	-9.52927
▁or	-9.52993
ਸਟ	-9.53023
ਮੈਨ	-9.53059
▁ਕਵਿਤਾਵਾਂ	-9.53088
▁ਸਪੈਸ਼ੀਅਲ	-9.53117
▁ਮਿਲੀਅਨ	-9.53175
▁ਸਹਾਇਤਾ	-9.53214
▁ਅਨੁਕੂਲ	-9.53275
▁ਗੁਣਾ	-9.53328
▁ਮਿੱਟੀ	-9.53393
ta	-9.53527
▁ਯੂਨੀਅਨ	-9.53609
▁ਨੈਗਟਿਵ	-9.53633
▁ਮਾਨਤਾ	-9.5365
▁be	-9.53823
▁ਵਿਧੀ	-9.53908
▁ਲਾਤੀਨੀ	-9.53931
▁ਜਰੂਰੀ	-9.53979
▁ਰੇਡੀਏਸ਼ਨ	-9.53995
▁ਰਸਤਾ	-9.5408
▁ਆਉਂਦੀ	-9.54092
▁ਤੋੜ	-9.54107
ਹਰ	-9.54156
▁ਰੇਲਵੇ	-9.54199
▁ਬੋਸੌਨ	-9.54389
▁2001	-9.54432
ਜ਼ੀ	-9.54471
▁ਜਾਣੇ	-9.54508
▁ਅਰਸੇ	-9.54509
▁ਸੌ	-9.5451
▁ਰੋਮਨ	-9.54533
▁ਓਪਰੇਟਰਾਂ	-9.54549
▁ਫੋਟੌਨ	-9.54605
▁ਸ਼੍ਰੇਣੀ	-9.54629
▁ਜਿਹੜੇ	-9.54645
▁ਅਮੀਰ	-9.54699
▁ਸਕੇਲਰ	-9.54706
▁ਸਿੱਧੇ	-9.54729
▁ਜਾਤੀ	-9.54743
▁ਸਮੁੰਦਰੀ	-9.54766
▁ਸਿਸਟਮਾਂ	-9.54829
▁ਜਿੱਤਿਆ	-9.54847
ਕਸ	-9.54931
ਸ਼ਾ	-9.55066
ਵੈਕਟਰ	-9.55087
▁ਪਾਈ	-9.55326
▁ਮੈਕਸਵੈੱਲ	-9.55361
ਊ	-9.55395
▁ਰ	-9.55431
ਕਿ	-9.55479
▁ਸੋਮੇ	-9.55502
ਦਰ	-9.55575
▁ਲਗਾਇਆ	-9.55586
▁r	-9.55591
▁ਅਧਿਆਪਕ	-9.55636
▁23	-9.55819
▁ਆਪਸ	-9.55842
▁ਡਰ	-9.55866
▁ਕੱਪ	-9.55871
▁ਪਹਾੜ	-9.55883
in	-9.55982
▁ਨਹੀ	-9.56004
▁ਇਲਾਜ	-9.56042
▁ਅਰਸਾ	-9.56164
ਸੇ	-9.56196
▁ਗ੍ਰੈਗ	-9.56286
▁ਯੂਨਾਨੀ	-9.56346
▁ਰੋਲ	-9.56354
▁ਪ੍ਰੋ	-9.56425
ੜਾ	-9.56501
▁ਤਰੀਕਾ	-9.56502
ਪੂਰਬੀ	-9.56663
▁ਅਖੀਰ	-9.56688
▁ਹਵਾਈ	-9.56762
▁ਇਕਾਈ	-9.56769
▁ਸਬੰਧਾਂ	-9.56772
ਜੋ	-9.56783
▁ਸਿ	-9.56856
▁ਟੈਸਟ	-9.56926
▁ਗੁਰਦੁਆਰਾ	-9.56942
▁’‘	-9.57092
ਰਸ	-9.57163
▁ਐਲਾਨ	-9.57495
▁ਸ਼	-9.57572
▁ਫੇਜ਼	-9.57601
!	-9.5763
▁ਦੋਨਾਂ	-9.57678
▁ਔਫ	-9.57697
S	-9.57788
▁ਫੈਲ	-9.57894
▁27	-9.57955
▁ਪਾਤਰ	-9.5811
ਟਨ	-9.58204
▁ਕਮਿਊਨਿਸਟ	-9.58219
o	-9.58394
▁ਖੇਤੀ	-9.58414
▁ਅਕਾਦਮੀ	-9.58506
▁ਖਤਮ	-9.58517
▁ਚੰਦ	-9.58535
▁ਠੋਸ	-9.58618
▁ਸ਼ਾਇਦ	-9.5867
▁ਉਤਪਾਦਨ	-9.58678
▁ਸਾਬਕਾ	-9.58711
▁ਪ੍ਰਗਟ	-9.58798
▁ਹੋਟਲ	-9.58828
▁ਇਨ੍	-9.58841
▁ਘੱਟੋ	-9.58876
▁ਸੰਪੂਰਣ	-9.5895
▁ਧੁਰੇ	-9.59152
▁ਕਾਰ	-9.59422
▁ਜਗਹ	-9.59445
ੜੇ	-9.59507
▁ਜਨ	-9.5962
ਅਰ	-9.59809
ਪਣ	-9.59935
▁ਸੰਘਰਸ਼	-9.5994
▁ਕੁੜੀ	-9.5999
▁29	-9.60004
▁ਸ਼ਾਸਤਰ	-9.60125
▁ਮਾਧਿਅਮ	-9.60131
▁ਦਰਸਾਉਂਦਾ	-9.60159
▁ਪਤੀ	-9.60221
▁ਉਦਯੋਗ	-9.60258
▁ਡਿ	-9.60407
▁2006	-9.6067
ਆਰ	-9.60798
▁ਲੰਬੇ	-9.60805
▁ਬੋਲੀਆਂ	-9.60965
ਭ	-9.61007
▁ਪਾਰਕ	-9.61058
▁ਆਰੰਭ	-9.61142
▁ਗੋਲ	-9.61228
ਿਸ਼	-9.61314
▁ਅਦਾਕਾਰ	-9.61332
▁ਲੋਕਧਾਰਾ	-9.61342
▁ਦਲ	-9.61353
▁ਸਿਧਾਂਤਕ	-9.61369
▁ਪ੍ਰੋਗਰਾਮ	-9.61444
▁ਵਿਚਲੇ	-9.61448
▁1947	-9.61498
▁ਗਇਆ	-9.61533
ਿਸ	-9.61597
×	-9.6161
▁ਮਹਿਸੂਸ	-9.61629
▁ਪਹਾੜੀ	-9.61706
▁ਹੋਲ	-9.61787
▁ਉਪਰ	-9.61848
▁ਸਮੱਗਰੀ	-9.61848
▁ਦੇਖੋ	-9.61849
▁ਦਿ	-9.61858
▁ਗਿਆਤ	-9.6187
ੀਏ	-9.61872
▁ਖੋਜਿਆ	-9.61884
▁ਬਣਦਾ	-9.61892
▁ਅੰਤਿਮ	-9.62272
▁4-	-9.62284
▁ਜਿਹੀ	-9.62423
▁ਮੈਦਾਨ	-9.62443
▁ਲਗਾਉਣ	-9.62469
▁ਨਾਚ	-9.62478
▁ਅਤਿ	-9.62542
▁ਨੌਕਰੀ	-9.62584
▁ਰਣਜੀਤ	-9.62586
▁ਕਸ਼ਮੀਰ	-9.62593
▁ਹੋਣੀ	-9.6268
+	-9.62781
▁ਫੁੱਟ	-9.62862
▁ਜਾਵੇਗਾ	-9.62947
▁ਮੰਦਰ	-9.63005
▁ਪਦ	-9.63063
▁ਵਿਲੌਸਟੀ	-9.63228
ਪ੍ਰ	-9.63275
▁ਹਜ਼ਾਰ	-9.63378
▁ਬਰ	-9.63432
▁ਸਫਲ	-9.63518
▁ਰੱਖਦੀਆਂ	-9.63544
▁ਸਹਿ	-9.63576
▁ਦੇਖਣ	-9.63581
▁ਜ਼ੋਰ	-9.63723
▁ਸਰਦਾਰ	-9.63904
H	-9.63954
ਯਾ	-9.63971
▁ਨਾਪਣ	-9.63977
▁ਖ਼ਤਮ	-9.6399
▁ਜਿਹੜੀ	-9.64019
▁ਦਰਜਾ	-9.64027
▁ਚਾਹੀਦੇ	-9.64091
▁ਰਿ	-9.6413
ਰੂ	-9.64149
▁ਰੂਪਾਂਤ੍ਰਨ	-9.64189
▁ਵਪਾਰ	-9.64192
▁ਸ਼ਾਸਨ	-9.64238
▁ਵਾਲਿਆਂ	-9.64345
ਤੋ	-9.64393
▁ਦਿੱਤੀਆਂ	-9.64409
▁ਸਾਂਝੇ	-9.64417
ਾਈ	-9.6458
▁ਨਾਪਿਆ	-9.64586
▁ਵਿਰੋਧੀ	-9.64588
।"	-9.64618
▁ਪਾਲਣ	-9.64714
▁ਸ਼ੇਰ	-9.64719
▁ਕਲਾਕਾਰ	-9.6475
ਵਾਲ	-9.64776
▁ਅਫ਼ਰੀਕਾ	-9.64781
ਅਨ	-9.64824
▁ਰੋਗ	-9.64885
▁ਰੱਦ	-9.64902
▁ਦਿਤਾ	-9.64945
▁ਸਪਸ਼ਟ	-9.64963
▁ਵਰਤੋ	-9.65003
▁at	-9.65115
▁ਨੀ	-9.65144
▁ਅੱਗ	-9.65156
▁ਸਿਹਤ	-9.6525
▁ਜਾਨ	-9.65259
▁ਯਹੂਦੀ	-9.65278
▁ਸਾਡੀ	-9.65291
▁ਯੋਜਨਾ	-9.65333
▁ਦਾਖਲ	-9.65364
▁1980	-9.65458
▁ਐਲ	-9.65476
▁ਹਲਕਾ	-9.65516
▁ਰਿਆਸਤ	-9.65587
▁ਤਟ	-9.65778
▁ਡੈਰੀਵੇਟਿਵ	-9.65841
▁ਐਟਮ	-9.65923
▁ਕਹਿ	-9.6594
▁ਪੁਰਾਣੀ	-9.6599
▁ਜੈ	-9.6602
▁ਦੇਖ	-9.66072
▁ਸ਼ਹੀਦ	-9.66127
▁ਪ੍ਰਯੋਗਾਂ	-9.66209
▁ਲੀ	-9.66443
▁ਨਾਥ	-9.66451
▁ਸੁੰਦਰ	-9.66473
ਠ	-9.6656
▁Ψ	-9.66643
▁ਕਿਤੇ	-9.66715
▁ਮੁ	-9.66726
▁ਰਾਏ	-9.66803
ਿਵ	-9.66825
▁ਤਬਦੀਲੀਆਂ	-9.66904
B	-9.66924
ੱਕ	-9.67003
▁ਆਜ਼ਾਦ	-9.67056
ਟੋ	-9.67244
▁ਵੇ	-9.6725
▁ਨਿਰਮਾਤਾ	-9.673
▁ਇਤਿਹਾਸਿਕ	-9.67392
▁ਤੁਰੰਤ	-9.67398
▁ਈਸਵੀ	-9.67409
▁ਖੇਤਰਫਲ	-9.67534
▁ਥੀਏਟਰ	-9.67552
ੀਕਲ	-9.67556
▁ਮੌਜੂਦਾ	-9.67579
▁ਹਮੇਸ਼ਾ	-9.67916
▁ਨਿਯੁਕਤ	-9.68008
▁ਤਹਿਤ	-9.68027
▁ਬੈਂਕ	-9.68148
▁;	-9.68163
▁ਜ	-9.68177
▁ਨਾਲ਼ੋਂ	-9.68275
▁ਸੰਪਰਕ	-9.68275
▁2000	-9.6832
▁ਬਿਜਲੀ	-9.6836
▁ਚੰਡੀਗੜ੍ਹ	-9.6841
▁w	-9.68414
▁ਅਦਾ	-9.6851
▁ਗਲਤ	-9.68659
ਇਆ	-9.68678
▁ਡਾਕਟਰ	-9.68757
▁1990	-9.68758
▁ਉਪਲਬਧ	-9.68867
▁ਜ਼ਰੂਰੀ	-9.68877
▁ਦਰਜੇ	-9.68969
▁ਪਦਾਰਥਾਂ	-9.69034
▁ਫੈਕਟਰ	-9.69163
▁ਪ੍ਰਯੋਗਿਕ	-9.69174
ਖ਼	-9.69194
▁ਚੋਣਾਂ	-9.69201
▁ਗਾ	-9.69231
▁ਰਕਮਾਂ	-9.69276
▁ਜਿਲ੍ਹੇ	-9.69435
▁ਸੜਕ	-9.69451
▁ਉਦੇਸ਼	-9.69545
▁ਇਵਨ	-9.69563
ਬੇ	-9.69641
▁ਲਿਖ	-9.69785
▁ਰਾਜਖੇਤਰ	-9.69914
▁ਬੋਲ	-9.69976
w	-9.70033
ੇਸ਼ਨ	-9.7008
ਊਰਜਾ	-9.70283
▁ਥਿਊਰਮ	-9.70415
▁ਦਹਾਕਾ	-9.70585
▁ਫ	-9.70601
▁ਗੰਗਾ	-9.70675
ਹੀਣ	-9.70731
▁ਗਰਮ	-9.70768
ਝ	-9.70839
▁β	-9.70846
er	-9.70905
▁ਬਾਦਸ਼ਾਹ	-9.70927
▁ਸਾਂਝੀ	-9.70947
▁ਕਿਉਂ	-9.71
▁ਸਿਧਾਂਤਾਂ	-9.71373
▁3-	-9.714
ਕਣ	-9.71467
▁ਵਰਲਡ	-9.71558
▁ਰਾਹ	-9.71597
ਐੱਸ	-9.71606
ਸ਼ੀ	-9.71635
▁ਭੇਜ	-9.71695
▁ਕਮਜੋਰ	-9.71698
▁40	-9.71867
▁f	-9.71896
▁ਪ੍ਰਾਂਤ	-9.71984
_{	-9.72033
▁ਹੁਕਮ	-9.72055
▁1960	-9.72188
▁ਮਿਲੇ	-9.72197
▁ਕਰਣ	-9.72267
▁ਵਰਤੀਆਂ	-9.72278
▁ਸਥਾਨਕ	-9.72413
▁ਸਮ	-9.72491
▁ਕਹਿੰਦਾ	-9.72573
▁ਬੁੱਧ	-9.72579
ਉਸ	-9.72721
▁ਕਰਨੀ	-9.72736
▁ਜਦਕਿ	-9.72819
▁ਗਰੈਵੀਟੇਸ਼ਨ	-9.72932
▁ਬਾਬਤ	-9.72934
▁ਸ਼ਾਖਾ	-9.73044
੍ਰ	-9.73087
▁ਜਿੰਨੀ	-9.73131
▁ਸੰਪਾਦਕ	-9.73197
ੀਅਰ	-9.73202
▁ਮੰਦਿਰ	-9.73283
▁ਸੁਰੱਖਿਆ	-9.73283
▁ਪਰਤ	-9.73307
▁ਮੇਰੇ	-9.73331
▁ਅਸਲੀ	-9.73422
▁ਲਾਈਟ	-9.73494
ਜਾਣ	-9.73523
▁ਪਾਠ	-9.73551
ਟ੍ਰਾਂਸਫੋਰਮੇਸ਼ਨਾਂ	-9.73685
▁ਪ੍ਰੇਮ	-9.73693
▁ਵਿਗਿਆਨਕ	-9.73861
▁ਵਿਦੇਸ਼ੀ	-9.74107
▁2004	-9.74126
▁2005	-9.74134
▁ਪੁਰਾਣਾ	-9.74211
▁ਡਿਫ੍ਰੈਂਸ਼ੀਅਲ	-9.74259
▁ਕੁਮਾਰ	-9.74265
▁ਸਾਥੀ	-9.74267
▁ਅਕਾਰ	-9.74421
▁ਮਿ	-9.74498
▁ਮਿਆਰੀ	-9.74551
▁ਆਸਟਰੇਲੀਆ	-9.74614
▁ਸ਼ਿਕਾਰ	-9.7462
▁ਤੱਤਾਂ	-9.7469
▁ਰਾਜਾਂ	-9.74715
▁ਆਕਾਰ	-9.74736
▁ਆਲੇ	-9.74867
▁ਸਰਗਰਮ	-9.75
▁ਵਾਰੀ	-9.75051
▁ਆਖਿਆ	-9.7511
▁ਹੁਸ਼ਿਆਰਪੁਰ	-9.75159
▁ਰੇ	-9.7519
ਅਾਂ	-9.75206
▁ਤੀਜੀ	-9.75232
▁ਲੱਗੀ	-9.7525
▁ਅਪਣਾ	-9.75263
▁1905	-9.75265
▁31	-9.75458
▁ਡੇ	-9.75538
▁ਮਿਲਦੀਆਂ	-9.75648
▁ਪੱਥਰ	-9.75861
▁ਪ੍ਰਕਿਰਿਆ	-9.75874
▁50	-9.76002
▁ਸੰਭਾਵਨਾ	-9.76005
▁ਨੁਕਸਾਨ	-9.76051
▁ਇਲਾਕਿਆਂ	-9.76056
▁ਦਾਰਸ਼ਨਿਕ	-9.76113
▁ਆਗੂ	-9.76113
▁ਦੇਰੀ	-9.76151
ਦਿਆਂ	-9.76417
▁ਸ਼ਿਵ	-9.7657
▁ਅਕੈਡਮੀ	-9.76574
ਸੁ	-9.76637
▁ਪਾਏ	-9.76855
▁ਡਰਾਮਾ	-9.77013
▁ਕੈ	-9.77018
▁with	-9.77159
▁ਖੂਨ	-9.77193
▁ਪਿੱਛੋਂ	-9.77285
▁ਪੈਮਾਨੇ	-9.77287
▁ਰਾਜੇ	-9.77306
▁ਰਸਮੀ	-9.77326
▁ਅਜੋਕ	-9.77345
▁ਫੌਜੀ	-9.77491
▁ਲਿੰਗ	-9.77536
ਗਪਗ	-9.77539
▁ਕੁਆਰਕ	-9.77542
ੇਰੈਂਸ	-9.77674
▁ਮਿਸਰ	-9.77754
▁ਹਮਲੇ	-9.77925
▁ਪਸੰਦ	-9.78024
▁ਸ਼ਾਨਦਾਰ	-9.78031
▁ਪੁਲਿਸ	-9.78031
▁ਕੱਢ	-9.78071
′′	-9.78094
▁ਨਾਵਲਕਾਰ	-9.78161
▁ਕਰਵਾ	-9.78179
▁ਸੱਚਮੁੱਚ	-9.78277
▁ਐਂਟੀ	-9.78296
▁ਅਰਧ	-9.78411
▁ਉਨ੍ਹਾ	-9.78457
▁ਘਾਟ	-9.78494
▁ਪ੍ਰਦਰਸ਼ਨ	-9.78753
▁ਪੌਜ਼ਟਿਵ	-9.78777
▁ਇੰ	-9.78836
▁ਬੋਲਣ	-9.78862
▁ਸੰਕੇਤ	-9.78891
▁ਮਹਿਲ	-9.78916
▁ਬੋ	-9.79003
▁d	-9.79051
▁ਪ੍ਰੋਫੈਸਰ	-9.79051
ਦੋ	-9.7907
ਸਕਿੰਡ	-9.79155
▁ਬਾਦਸ਼ਾਹੀ	-9.79195
▁ਲੀਨੀਅਰ	-9.79276
▁ਹੱਕ	-9.79283
▁ਸਧਾਰਣ	-9.79284
▁ਔਰ	-9.79317
ਫਰਮਾ	-9.79348
▁ਰੋਕ	-9.79415
▁g	-9.79416
▁ਵਿਅਕਤੀਗਤ	-9.7942
▁ਪੱਤਰ	-9.79481
▁ਬੜੀ	-9.79506
▁ਰੱਬ	-9.79613
▁ਰਾਣੀ	-9.79621
▁ਪਾਉਣ	-9.79699
▁ਇਲਾਕਾ	-9.79744
▁ਲੋ	-9.79792
▁ਲਗਦਾ	-9.79813
▁ਮੰਨੀ	-9.79835
ਡਰ	-9.79957
▁ਐਕਟ	-9.7999
▁ਤ	-9.8
ਪਾਲ	-9.80019
▁ਅਨਿਰੰਤਰ	-9.80041
▁ਸ਼ਹਿਰਾਂ	-9.80057
▁ਸਿੱਧਾ	-9.80172
▁ਕਮੀ	-9.80328
▁ਪੰਛੀ	-9.80351
।”	-9.80505
ਧੁਰੇ	-9.80566
",	-9.80617
▁ਖਿੱਚ	-9.80787
ਪਾ	-9.80801
▁ਤਰੀਕਿਆਂ	-9.81071
O	-9.81118
▁ਲੱਗਾ	-9.81161
▁ਤਕਨੀਕੀ	-9.81309
▁ਅਜ਼ਾਦੀ	-9.81344
▁ਆਸ	-9.8141
▁ਮਾਮਲਿਆਂ	-9.81453
ਗੜ੍ਹ	-9.81471
▁ਰੋਡ	-9.81484
-1	-9.81486
ਰਾਮ	-9.8149
▁ਹਰੀ	-9.81525
▁ਮੈਕਸੀਕੋ	-9.81533
▁ਰੱਖੇ	-9.81577
▁ਮੌਕੇ	-9.81717
▁ਤਾਰੇ	-9.81735
▁ਬਦਲਣ	-9.81817
▁ਚੁੱਕਾ	-9.8186
▁ਖੱਬੇ	-9.81884
▁ਸਟਾਰ	-9.81889
▁2018	-9.8194
▁ਦੋਸ਼	-9.81999
▁ਮੋੜ	-9.82044
▁ਕਪੂਰ	-9.8206
▁ਸ਼ਕਤੀਸ਼ਾਲੀ	-9.82098
▁ਏਅਰ	-9.82154
▁ਵਪਾਰਕ	-9.82156
▁ਮਾਲ	-9.82174
▁ਦੇਣਾ	-9.82292
▁ਹਲਕੇ	-9.82364
▁ਸੂਫ਼ੀ	-9.82366
▁ਦਰਸ਼ਕ	-9.82381
▁ਤਾਕਤ	-9.82395
॥	-9.82406
▁ਸਿੱਧ	-9.82434
▁ੲਿੱਕ	-9.82488
ਰਾਂ	-9.82496
▁ਹੱਦਾਂ	-9.825
▁ਪਈ	-9.82561
▁ਜ਼ਿਲਾ	-9.82578
▁ਸੈਨਾ	-9.82606
▁ਪ੍ਰਸਥਿਤੀ	-9.82618
▁ਦੌੜ	-9.82683
▁ਪਿੰਡਾਂ	-9.82736
▁ਕੋਨ	-9.82737
▁ਸਰੂਪ	-9.82771
▁ਵਿਦਵਾਨਾਂ	-9.82919
▁ਚੰਗੇ	-9.82934
▁ਵਰਗੀ	-9.82951
▁ਸਮਰੱਥਾ	-9.82975
▁ਜ਼ਿਕਰ	-9.82992
▁ਟੁੱਟ	-9.83041
▁ਮਿਲਾ	-9.83047
ਿਅਾ	-9.83123
▁ਰਾਜਵੰਸ਼	-9.83155
▁ਰਕਮ	-9.83254
▁ਸਵਾਲ	-9.8327
▁ਵਾਪਿਸ	-9.83271
▁ਆਸਟ੍ਰੇਲੀਆ	-9.83347
▁ਭ	-9.83371
▁ਇਨਕਲਾਬ	-9.83376
▁ਨਰ	-9.83421
ਲੀਆਂ	-9.8346
▁was	-9.83537
▁ਟੀਵੀ	-9.83537
▁ਜੇਤੂ	-9.83546
▁ਹੁਸੈਨ	-9.83609
▁ਮਾ	-9.83614
▁′	-9.83627
▁ਵਿਵਸਥਾ	-9.8363
ੀਕਰਨ	-9.83783
q	-9.83793
▁ਨਿੱਜੀ	-9.83837
▁ਸੁਭਾਅ	-9.83852
18	-9.83872
▁ਜਨਤਾ	-9.84021
▁ਸਭਿਆਚਾਰਕ	-9.84033
▁ਦ੍ਰਿਸ਼ਟੀ	-9.84039
▁ਬਿਲਕੁ	-9.84072
▁ਉਤਪਤੀ	-9.84303
▁1970	-9.84334
▁ਤੁੱਲ	-9.84336
▁ਸਮਕਾਲੀ	-9.8444
▁ਇਸੇਤਰਾਂ	-9.84505
▁ਸੀਰੀਜ਼	-9.84524
▁ਜਪਾਨ	-9.84574
▁ਰੋਟੇਸ਼ਨਾਂ	-9.84628
▁ħ	-9.84645
▁ਤਾਕਤਵਰ	-9.84736
ਯੁਕਿਲਡਨ	-9.84914
ਜ਼ਾ	-9.84945
▁ਕ੍ਰਮ	-9.8499
▁not	-9.85323
▁ਮੀਲ	-9.85454
▁ਵਿਗਿਆਨਿਕ	-9.85527
▁ਪੁਸਤਕਾਂ	-9.85682
▁ਸਮਾਜਕ	-9.85706
▁ਸੇਵਾਵਾਂ	-9.85719
▁ਕੋਡ	-9.85745
▁ਪਏ	-9.85756
ਜੀਤ	-9.85784
▁ਪ੍ਰਮਾਣੂ	-9.85916
▁ਰਾਜਨੀਤੀ	-9.85931
▁ਸ਼ੋਅ	-9.85959
।:1	-9.85971
▁ਰਿਲੀਜ਼	-9.86072
▁ਨਿਊਯਾਰਕ	-9.86119
▁Cl	-9.86243
▁ਬਿ	-9.86288
▁ਰਾਜਸਥਾਨ	-9.86333
▁ਸ਼ਾਸਤਰੀ	-9.86524
▁ਆਵਾਜ਼	-9.86554
:-	-9.86582
ਬੋ	-9.86607
▁ਉੱਚਾ	-9.8667
▁ਡਾਇਰੈਕਟਰ	-9.86673
20	-9.86673
▁ਕਲਪਨਾ	-9.86775
▁ਵਿਦਿਆਰਥੀਆਂ	-9.86785
▁ਨਿਕਲ	-9.86836
▁ਲਾਈਨ	-9.86871
▁ਖਿਲਾਫ	-9.86903
ਪੱਛਮੀ	-9.86903
▁ਸ਼ਾਹੀ	-9.87041
▁ਪੈਰਿਸ	-9.8711
ਿਕਾ	-9.87114
▁ਉ	-9.87138
▁ਮੂੰਹ	-9.87198
▁ਰਸਾਇਣ	-9.87202
hat	-9.87284
ਉਹ	-9.8732
▁are	-9.87392
ਪੰਜਾਬ	-9.87394
ਸੋ	-9.87397
▁ਫ਼ਰਾਂਸੀਸੀ	-9.87417
▁ਕਬਜ਼ਾ	-9.87462
▁ਮਾਰਕਸ	-9.87526
M	-9.87534
ੱ	-9.87702
▁ਪ੍ਰੇਰਣਾ	-9.87703
▁ਫੰਕਸ਼ਨਾਂ	-9.87918
▁ਇਕੋ	-9.87967
▁ਸੋਮਾ	-9.8802
▁ਮਹਾਂਸਾਗਰ	-9.88044
ਲੈਂਡ	-9.88217
▁ਬਿੰਦੂਆਂ	-9.88276
▁ਮਾਰਗ	-9.88342
▁ਮੁਖੀ	-9.88384
▁ਨੀਤੀ	-9.88478
ਨਿ	-9.88597
▁ਮੀਟ੍ਰਿਕ	-9.886
▁ਮੁੱਲਾਂ	-9.88617
▁ਅਰ	-9.88714
ਟਸ	-9.88801
▁ਬਾ	-9.88815
▁ਮੰਨਦਾ	-9.88815
▁ਸੱਜੇ	-9.88834
▁ਅਸਾਨੀ	-9.88849
▁ਅੰਗਰੇਜ਼ਾਂ	-9.88857
▁ਕਿਸਾਨ	-9.88859
▁2002	-9.88874
▁ਸੰਸਥਾਵਾਂ	-9.8907
▁ਅਭਿਆਸ	-9.89084
▁ਪੂਜਾ	-9.89146
▁ਸੁਲਤਾਨ	-9.89146
▁as	-9.89149
▁ਸਥਾਨਾਂ	-9.89218
▁ਸਾਹ	-9.8936
▁ਪਵਿੱਤਰ	-9.89411
▁ਅਭਿਨੇਤਰੀ	-9.89437
▁)	-9.89512
ਵਾਨ	-9.89571
▁ਪ੍ਰਕਾਸ਼ਨ	-9.89608
▁ਜਨਤਕ	-9.89644
▁ਮੇਰੀ	-9.89747
▁ਖ	-9.89776
▁ਸ਼ਾਸਕ	-9.89834
▁ਅੰਗਰੇਜ਼	-9.89889
▁ਮਜਬੂਰ	-9.89896
ਵਿਆਂ	-9.8995
I	-9.89986
▁ਫੁੱਲ	-9.9004
ਯੁਕਤ	-9.9006
▁ਮਹੱਤਵ	-9.90206
ly	-9.9024
ਮੁੱਲ	-9.90253
▁ਬਹਾਦਰ	-9.90273
▁ਪ੍ਰਾਈਮ	-9.9033
▁ਅਨ	-9.90403
▁ਗੁੰਝਲਦਾਰ	-9.90479
▁ਆਇਰਲੈਂਡ	-9.90486
▁ਗੈਸ	-9.90507
▁ਬੋਰਡ	-9.90536
▁ਨਿਰੀਖ	-9.90547
▁ਸਫਲਤਾ	-9.90584
▁ਉਲੰਘਣਾ	-9.90591
▁ਭਾਰ	-9.90596
▁ਸਿਰਲੇਖ	-9.90689
▁ਫਰਾਂਸ	-9.90695
ਚੋਂ	-9.90783
▁ਸੂਬਾ	-9.90802
▁ਮੈ	-9.90821
T	-9.90888
▁ਭਿੰਨ	-9.90986
▁ਦਰਸਾਏ	-9.91095
▁ਪ੍ਰਾਪਤੀ	-9.91152
▁ਆਲੋਚਕ	-9.91192
▁ਹਾਸਿਲ	-9.91196
▁ਜਨਸੰਖਿਆ	-9.91337
▁ਸ਼ਾਂਤੀ	-9.91346
▁ਬੈ	-9.91356
▁ਮਰਦ	-9.91402
▁ਫਰਮਾ	-9.91435
▁ਕਲੇਇਨ	-9.91471
ਲੋਕ	-9.91472
▁ਰਵਾਇਤੀ	-9.91504
▁ਵੇਖਿਆ	-9.91609
▁ਮੈਗਨੈਟਿਕ	-9.91612
▁ਵਾਲ਼ੀ	-9.91629
▁ਰੁਪਏ	-9.91643
▁ਉਹੀ	-9.91665
▁ਘਾਟੀ	-9.91695
ਾਨ	-9.91856
▁ਨੰਬਰਾਂ	-9.9195
ੱਲ	-9.91968
▁ਪਾਲ	-9.91968
▁ਸਿਖਰ	-9.92065
ਜਨ	-9.92154
▁ਰਿਆਲ	-9.92173
▁ਅਪਰੈਲ	-9.92225
▁ਜਗਤ	-9.92264
ਾਉਣ	-9.92338
▁ਅਮਲ	-9.92388
▁ਸਾਹਮਣਾ	-9.92481
▁ਪੱਖੋਂ	-9.92521
▁ਡ	-9.92592
▁ਇੰਸਟੀਚਿਊਟ	-9.92625
▁ਫੈਸਲਾ	-9.92628
▁ਇਹੀ	-9.92653
ਂਗ	-9.9272
▁ਸੰਪੂਰਨ	-9.92771
▁ਤੂੰ	-9.92851
▁ਸੰਦਰਭ	-9.92872
▁ਇਕੱਠਾ	-9.92894
▁ਜੇਲ੍ਹ	-9.92917
▁ਅਨੇਕਾਂ	-9.9302
▁ਜਲਦੀ	-9.93055
▁ਪੜ੍ਹਨ	-9.93067
▁ਪ੍ਰਭਾਵਾਂ	-9.93085
▁ਸਮਰਥਨ	-9.93088
▁ਸਿੰਧ	-9.93104
▁ਤਲ	-9.93143
▁ਦਿਲਚਸਪੀ	-9.93146
▁ਐਂਗਲ	-9.93184
ਰੋਕਤ	-9.93204
▁ਲੇਖਕਾਂ	-9.93259
▁2017	-9.93296
▁ਅਹਿਮਦ	-9.93304
▁ਸਾਖਰਤਾ	-9.93349
▁ਗੰਭੀਰ	-9.93382
ਮੱਧ	-9.93392
▁ਭਰਪੂਰ	-9.93463
▁ਵਰ	-9.93518
▁ੲਿਹ	-9.93526
▁ਸੰਵਿਧਾਨ	-9.93533
ਪੰਜਾਬੀ	-9.9356
▁by	-9.93623
▁ਗੁਜਰਾਤ	-9.93634
▁ਨਾਟਕਕਾਰ	-9.93686
▁ਭਗਵਾਨ	-9.93721
▁ਦਿੰਦੀਆਂ	-9.93945
▁ਖਾਣ	-9.93967
or	-9.9409
▁ਮੁਕਤ	-9.94105
▁ਗਵਰਨਰ	-9.94114
▁ਡੇਵਿਡ	-9.94177
▁ਬਿਜਲਈ	-9.94231
ਚਾ	-9.94296
▁ਪ੍ਰਭਾਵਸ਼ਾਲੀ	-9.94308
▁ਚੰਗਾ	-9.94327
▁ਜੁੜ	-9.94362
▁ਫਿਕਸ	-9.9439
▁ਹੋਣੇ	-9.94449
▁ਪਾਊਂਡ	-9.94518
▁ਧਾਰਾ	-9.94579
▁ਟੌਪੌਲੌਜੀ	-9.94664
▁ਸਟੇਡੀਅਮ	-9.94664
▁ਬਜਾਏ	-9.94665
▁ਮਾਮਲਾ	-9.94744
▁b	-9.94746
▁ਨਾਪਾਂ	-9.94781
▁ਤਾਜ਼ਾ	-9.94818
▁ਸਮਝਾਉਂਦਾ	-9.94819
▁ਕਿਰਦਾਰ	-9.94841
▁ਸੁਰ	-9.94868
ਅਤੇ	-9.94931
▁ਮੰਨੇ	-9.94938
▁ਭਰਿਆ	-9.9495
▁ਦੇਰ	-9.95028
ਮੇ	-9.95032
▁ਜੀਓਮੈਟਰੀ	-9.95107
▁ਫ਼ੌਜਾਂ	-9.95135
▁ਗੀਤਾਂ	-9.95137
▁ਮੈਨ	-9.95161
ਟੇ	-9.9521
▁ਲੈਵਲ	-9.95256
▁ਦੁੱਧ	-9.95259
▁ਚੁੱਕਿਆ	-9.95413
▁ਸਟੇਟ	-9.95425
▁2003	-9.95472
▁ਕਹਿਣਾ	-9.95623
▁ਤੇਲ	-9.95625
▁ਔਬਜ਼ਰਵੇਬਲ	-9.95849
▁ਬਣਤਰਾਂ	-9.95902
▁ਪਾਵਰ	-9.96055
▁ਵਾਲ	-9.9606
▁ਕਾਲੇ	-9.96153
▁ਕੋਲੋਂ	-9.96158
▁ਵੇਖ	-9.96161
▁ਗੁਣਾਂ	-9.96253
▁ਪ੍ਰੇਰਿਤ	-9.96302
▁ਲੈਣਾ	-9.96536
▁ਵਾਪਰਦੀ	-9.96542
▁ਪੇ	-9.96575
▁ਅਰੰਭ	-9.96658
z	-9.96661
▁ਸਿਰਜਣਾ	-9.96684
▁ਪਲੇਨ	-9.96708
▁ਗਰੰਥ	-9.96842
ੇਟ	-9.96847
▁ਮਨਾਇਆ	-9.96923
▁ਕੇਸ	-9.96983
▁ਸਰਫੇਸ	-9.97144
▁ਅਕਾਲੀ	-9.97205
▁ਗੁਣਕ	-9.97215
ਹੀ	-9.9726
▁ਸਹਿਜ	-9.97321
▁ਅਫਰੀਕਾ	-9.97349
▁ਜਿੰਨਾ	-9.97377
▁ਜੁੜੀ	-9.97413
▁ਵਾਕ	-9.9746
▁ਮੌਸਮ	-9.97577
▁ਹਕੂਮਤ	-9.97593
▁ਸਿਖਲਾਈ	-9.97653
▁ਮਤ	-9.97659
▁ਤੀਜਾ	-9.97682
▁ਅਦਾਕਾਰੀ	-9.97783
ਤਮ	-9.97832
ਕੁ	-9.97874
▁ਏਸ	-9.97922
▁ਚੰਦਰ	-9.98047
▁ਰਚਣ	-9.9809
▁ਹਰਿ	-9.98095
h	-9.98104
▁ਦ੍ਰਿਸ਼	-9.98221
ਾਵਾਂ	-9.98286
▁K	-9.98305
▁ਪੱਤਰਕਾਰ	-9.9834
▁z	-9.98414
▁ਰੂਪਾਂ	-9.98645
ੌ	-9.98715
▁ਜਹਾਜ਼	-9.98734
▁ਤੀਜੇ	-9.98739
▁ਅਰਥਾਂ	-9.98842
▁ਆਲ	-9.98995
▁ਜਿਹ	-9.99084
▁1950	-9.99188
▁ਬੰਗਲਾਦੇਸ਼	-9.99498
▁ਨਿਰਦੇਸ਼	-9.9953
▁ਨਾਪੇ	-9.99533
ਡੋ	-9.99549
▁ਵਧਾਉਣ	-9.99566
▁ਪ੍ਰਤੀਕ	-9.99627
▁ਰਿਪੋਰਟ	-9.99641
▁ਮਾਣ	-9.99669
▁ਕਿਲ੍ਹੇ	-9.99798
▁ਦਾਅਵਾ	-9.99799
▁ਹਰਿਆਣਾ	-9.99867
ਜਰ	-9.99925
▁ਹਿੰਦੁਸਤਾਨ	-9.99947
▁ਮੁਗਲ	-9.99949
▁ਰਚਦ	-10.0004
▁ਕਿਰਿਆ	-10.0004
▁ਦਰਅਸਲ	-10.0011
▁ਨਵ	-10.0013
▁ਐਨਟ੍ਰੌਪੀ	-10.0016
▁ਖਾ	-10.0021
ਿਲ	-10.0033
ਚੇ	-10.0035
▁ਰੀ	-10.0038
▁ਉਪਰੰਤ	-10.0047
▁ਲਿਖਦੇ	-10.0052
▁ਸਮਝਾਉਣ	-10.007
▁ਗਾਮਾ	-10.0076
▁ਮਾਰੇ	-10.0078
▁ਮੁਕਾਬਲਾ	-10.0089
▁ਸਜ਼ਾ	-10.0091
▁ਸਿਆਸਤਦਾਨ	-10.0104
▁ਜਿਮੇਵਾਰ	-10.0104
▁ਸ਼ਤਾਬਦੀ	-10.0104
▁ਕੰਢੇ	-10.0104
▁ਲਿਖਤਾਂ	-10.0108
▁ਅੱਧ	-10.0109
▁ਨਾਗਰਿਕ	-10.0113
▁ਜੋੜੇ	-10.0119
▁ਕੋਰਸ	-10.0125
en	-10.0128
▁ਬੰਗਾਲੀ	-10.0134
▁ਅਰਜਨ	-10.0136
▁ਸਰਬ	-10.0137
▁ਟਾਵਰ	-10.0137
▁ਰੋਜ਼ਾਨਾ	-10.0138
▁ਚਿੰਤਨ	-10.0145
▁ਨਿਰ	-10.0147
▁ਰੋਸ਼ਨੀ	-10.0151
▁ਜਿੱਤਣ	-10.0151
▁ਤਾਰਾ	-10.0151
▁ਸੱਤਾ	-10.0157
▁ਗਿੱਲ	-10.0166
▁ਸੰਤੁਲਨ	-10.0169
▁ਜੋੜਨ	-10.0173
es	-10.0181
▁ਚਲੀ	-10.0181
ਖਾ	-10.0181
▁ਰਸਮ	-10.019
ੱਸ	-10.0191
▁ਡਿੱਗ	-10.0198
▁ਢਾਂਚੇ	-10.0198
ਡੇ	-10.0198
▁ਗ਼ੈਰ	-10.0199
▁ਰਸਾਇਣਕ	-10.0203
▁ਦਿਖਾਈ	-10.0206
▁1999	-10.0209
▁ਸੱਭਿਆਚਾਰਕ	-10.0212
▁ਨੇਤਾ	-10.0213
▁ਲੰਬੀ	-10.0215
▁ਮੱਛੀ	-10.0218
▁ਉੱਚੇ	-10.0218
ਇਕ	-10.0224
▁ਭੂਮੀ	-10.0227
▁ਪਾਰਟੀਕਲ	-10.0231
▁ਕ੍ਰਮਵਾਰ	-10.0232
▁ਮੁਲਕ	-10.0238
▁ਸ਼ਾ	-10.0258
10	-10.026
▁ਬਾਗ	-10.0261
▁ਬੀਜ	-10.0278
▁ਆਸਟਰੀਆ	-10.0279
▁ਪ੍ਰਚਲਿਤ	-10.028
▁ਛੋਟੀਆਂ	-10.0298
▁ਨਹਿਰੂ	-10.03
▁ਅੰਦਾਜ਼	-10.0308
▁ਰੁੱਖ	-10.031
▁ਥਾਵਾਂ	-10.0314
▁ਗਰੁੱਪਾਂ	-10.0316
l	-10.0319
ਐ	-10.0325
▁ਜ਼ਿਲੇ	-10.0327
▁ਦੱਸਦਾ	-10.033
▁ਮਹਾਂ	-10.0334
▁ਇਤਹਾਸ	-10.0334
/2	-10.0337
▁ਫੋਟੋਨ	-10.0338
ਐਨ	-10.0343
▁ਪ੍ਰਸੰਗ	-10.0345
▁60	-10.0349
ੱਟ	-10.0353
▁ਅਰਥਾਤ	-10.036
▁ਐੱਸ	-10.0366
▁ਕਲਾਂ	-10.0369
▁ਮਾਪਦੰਡ	-10.0369
▁ਪੜਾਅ	-10.0375
▁ਕਥਾਵਾਂ	-10.0385
▁ਲੇ	-10.0389
ਸਤ	-10.0396
▁ਅਕਾਲ	-10.0398
▁ਮੋਹਨ	-10.0404
▁ੳੁਸ	-10.0406
ਗਲ	-10.0406
▁ਫਰਾਂਸੀਸੀ	-10.0411
▁ਥਰਮੋਡਾਇਨਾਮਿਕਸ	-10.0414
W	-10.0421
ਜੌਰਡਨ	-10.0431
▁ਗੋ	-10.0431
▁ਦਿਖਾਉਂਦਾ	-10.044
L	-10.0441
▁1,	-10.0442
▁ਯਾ	-10.0458
▁ਅਸਾਨ	-10.0459
▁ਫੋਰ	-10.0467
▁ਮੀਡੀਆ	-10.0467
▁ਔਰਥੋਗਨਲ	-10.0472
੍ਰੀ	-10.0477
▁ਸਹਿਯੋਗ	-10.0486
▁ਲੈਂਦੀ	-10.0502
▁ਵੱਡੀਆਂ	-10.0504
▁ਇੰਟਗ੍ਰਲ	-10.0505
▁ਨੀਲ	-10.0511
▁ਵਿਰਾਸਤ	-10.0517
▁ਮੁਦਰਾ	-10.0531
▁ਸੰਭਾਲ	-10.0532
▁ਸਬੰਧੀ	-10.0535
ਲਰ	-10.0541
ਨਾਂ	-10.0542
▁ਇੱਛਾ	-10.0544
▁ਮੋ	-10.0548
▁ਹਸਪਤਾਲ	-10.0554
▁ਐਂਪਲੀਟਿਊਡ	-10.0554
▁ਸਲਾਹ	-10.0556
▁ਪੰਨਾ	-10.0567
▁ਸੁਪਰਪੁਜੀਸ਼ਨ	-10.057
▁ਏਸ਼ੀਆਈ	-10.0581
▁ਮੈਗਜ਼ੀਨ	-10.0586
▁ਕਰੰਟ	-10.0588
▁ਪੋ	-10.0595
▁e	-10.0597
▁ਧੀਮਾ	-10.0598
▁ਜੰਗਲ	-10.0611
▁ਸੰਸਦ	-10.0618
▁ਮੋਹ	-10.0621
ਮਰ	-10.0628
▁ਸੀਜ਼ਨ	-10.0636
▁ਸੰ	-10.0639
▁ਡੈਂਸਟੀ	-10.0653
▁ਪਹੁੰਚਣ	-10.0653
▁ਕੋਲੰਬੀਆ	-10.0659
▁ਚੇਤਨਾ	-10.0664
ਰਿਕ	-10.0665
▁ਬਹੁਤੇ	-10.0665
▁ਸਾਰ	-10.0665
psi	-10.0667
▁ਮਾਸਟਰ	-10.0667
▁ਸੈਂਟਰ	-10.0667
▁ਕਾਲਪਨਿਕ	-10.0669
▁ਮੁੱਢ	-10.067
▁u	-10.0673
▁ਲੱਗਿਆ	-10.0676
▁ਸ਼ਰਤ	-10.068
▁ਹਾਊਸ	-10.0692
▁ਚਾਹੁੰਦਾ	-10.0702
▁ਯਾਤਰੀ	-10.0704
▁ਬਣਾਉਂਦਾ	-10.0705
▁ਕੱਟ	-10.0712
▁ਕਰਦਿਆਂ	-10.0713
▁ਭਾਈਚਾਰੇ	-10.0719
▁ਪਸਾਰ	-10.072
ਟਰੀ	-10.072
▁ਸ਼ਰਤਾਂ	-10.0733
▁ਪ੍ਰੋਬੇਬਿਲਟੀ	-10.0737
▁ਆਦਮੀ	-10.0743
▁ਗਤਿਜ	-10.0753
▁on	-10.0757
▁ਤਰੱਕੀ	-10.0769
▁1998	-10.077
▁ਜੋਰ	-10.0773
▁ਤੋਰ	-10.0795
▁ਮਕਸਦ	-10.0803
▁ਕੁਆਂਟਾਇਜ਼ੇਸ਼ਨ	-10.0803
▁ਯੰਤਰ	-10.0808
▁ਪੋਸਟ	-10.083
ਮੋ	-10.083
▁ਉਤਰ	-10.0831
▁ਨਿਊਟ੍ਰੀਨੋ	-10.0835
▁ਬਿਮਾਰੀ	-10.0836
▁ਸਮੁੱਚ	-10.0847
P	-10.0847
▁ਮੁਸਲਿਮ	-10.0864
▁ਇਸਲਾਮੀ	-10.0869
▁ਭਾਗਾਂ	-10.0875
▁...	-10.088
▁ਜਿੰਦਗੀ	-10.0881
▁ਉਸਦੀਆਂ	-10.0881
▁ਮੈਨੂੰ	-10.0889
▁ਉੱਤਮ	-10.0889
▁ਬਣਾਉਂਦੀ	-10.0891
▁ਤਕਨੀਕ	-10.0903
▁ਨੇਂ	-10.0904
▁ਦੂਸਰੇ	-10.091
ੂੰ	-10.0915
▁ਕਤਲ	-10.0922
ਕਾਂ	-10.0931
ਾਲ	-10.0938
▁ਬਾਲੀਵੁੱਡ	-10.0938
▁ਪਰਮਾਣੂ	-10.0944
ਿਸਟ	-10.0947
▁ਸਕਿਆ	-10.0947
▁ਦਰਬਾਰ	-10.0955
▁ਸਮਰਾਟ	-10.0955
▁ਆਰਥਕ	-10.0955
▁ਨੌਜਵਾਨ	-10.0959
▁ਜਾਪਾਨ	-10.0962
▁ਵੀਰ	-10.0964
▁ਕੁੜੀਆਂ	-10.0966
▁ਪਰੰਤੂ	-10.0972
17	-10.0974
▁ਸੰਗੀਤਕਾਰ	-10.0976
ਫੀ	-10.0979
▁ਜਾਨਵਰਾਂ	-10.0981
▁ਸੰਗਰੂਰ	-10.0985
▁ਇੰਟ੍ਰਫੇ	-10.099
▁ਸਿਨੇਮਾ	-10.099
▁ਇੰਡੀਅਨ	-10.0993
▁ਕਹੀ	-10.0998
ਤਿ	-10.1001
▁ਕਰਮ	-10.1002
▁ਕਹੇ	-10.1002
▁ਬਣਦੇ	-10.1003
▁ਕਿਮੀ	-10.1003
▁ਪੁਲਾੜ	-10.1007
▁ਮਹਾਂਦੀਪ	-10.1013
▁ਨੀਦਰਲੈਂਡ	-10.1017
▁ਵਰਗਾ	-10.102
ਪਲ	-10.1021
▁ਸ਼ਾਮ	-10.1024
▁that	-10.1026
▁ਸੋਨੇ	-10.1029
▁ਰਚਿਆ	-10.1036
ਘੋਸ਼ਿਤ	-10.1041
▁ਕਿਸ	-10.1042
▁ਸਿਟੀ	-10.1047
▁ਨਜ਼ਦੀਕੀ	-10.1047
▁ਰੈ	-10.1051
▁ਬੋਲਦੇ	-10.1053
▁ਸਮਾਂਤਰ	-10.106
▁ਇਕਾਈਆਂ	-10.1061
▁ਪ੍ਰਭਾਵੀ	-10.1078
▁ਯੋਗਤਾ	-10.1081
ਵਾਲਾ	-10.1081
R	-10.1093
▁ਏਕ	-10.1094
▁ਸਾਧਨ	-10.11
ਘਰ	-10.1102
▁ਕਰੇ	-10.1116
ਕਾਲ	-10.1131
▁ਵਿਦਿਆ	-10.1133
▁ਭੇਜਿਆ	-10.1134
▁ਮਾਨਸਾ	-10.1141
▁ਫੈਲਿਆ	-10.1145
▁ਯੂਨਿਟਾਂ	-10.115
▁ਸ਼ਕਲ	-10.1156
▁ਪ੍ਰੌਪਰ	-10.1161
▁ਬੇਸ਼ੱਕ	-10.1162
▁1920	-10.1164
▁ਖੋਜੀ	-10.117
▁ਪ੍ਰਚਾਰ	-10.1174
▁ਅਫਗਾਨਿਸਤਾਨ	-10.1176
ਕਾਰੀ	-10.1176
▁ਅਕਬਰ	-10.1178
ਚਰ	-10.1189
▁ਭਾਵਨਾ	-10.1195
ਇਨ	-10.1196
▁ਹਾ	-10.12
▁ਬਣਾਉਂਦੇ	-10.12
▁ਪਦਮ	-10.1205
▁ਵਿਚਾਰਧਾਰਾ	-10.1211
▁ਇੰਨਾ	-10.1213
▁ਮੇਂ	-10.1222
▁ਵਿਲੀਅਮ	-10.1231
▁ਪਿਛੋਕੜ	-10.1232
▁ਵਿਕੀਪੀਡੀਆ	-10.1232
▁1991	-10.1233
▁ਸਿਰੇ	-10.1249
▁ਲੱਗਪਗ	-10.125
▁ਤਖ਼ਤ	-10.125
▁ਕਦਮ	-10.1254
▁ਪ੍ਰਮਾਣ	-10.1267
▁ਖਿਡਾਰੀਆਂ	-10.1269
▁ਵਰਤਣ	-10.1271
ies	-10.1271
▁ਦਰਸਾਈ	-10.1273
ੇਵ	-10.1276
▁ਹਮ	-10.1277
ਮੈਂਟ	-10.1281
ar	-10.1283
▁ਬਸ	-10.1284
▁ਅਸੰਭਵ	-10.1285
▁ਸਥਾਈ	-10.1286
▁ਹੋਣਗੇ	-10.1288
ਆਰਡੀਨੇਟ	-10.129
▁ਮੁਸਲਮਾਨਾਂ	-10.1291
▁ਅੱਖਾਂ	-10.1306
▁ਮੇਰਾ	-10.1308
▁ਉੱਪ	-10.131
ਿਡ	-10.1314
ਸ਼ਿਪ	-10.1315
ਗਤ	-10.1315
ੰਡ	-10.1316
▁ਦੋਸਤ	-10.1321
▁ਮੈਨੀਫੋਲਡ	-10.1326
ਵਲ	-10.1338
▁1930	-10.134
▁ਵੰਸ਼	-10.1345
▁ct	-10.1345
*	-10.1349
ਪੂਰਬ	-10.1349
▁ਜੋੜਿਆ	-10.1358
▁ਉਚਾਈ	-10.1358
ਸਟਰ	-10.1362
▁ਕਨੂੰਨ	-10.1381
▁ਮਾਲਕ	-10.1384
▁ਕੱਢਿਆ	-10.1396
▁ਮਾਨਸਿਕ	-10.1402
▁ਜੰਮੂ	-10.141
ਾਨਾ	-10.1413
ਪੱਛਮ	-10.142
▁ਆਤਮ	-10.1421
an	-10.1421
▁ਦਰਦ	-10.1424
ੈਂਸ	-10.1433
▁ਪੇਂਡੂ	-10.1434
▁ਮਹਾਰਾਸ਼ਟਰ	-10.1437
ਘੱਟ	-10.144
੍ਹ	-10.1444
▁ਸ਼ਾਇਰ	-10.1446
▁ਬਦਲੇ	-10.1455
▁ਪ੍ਰਸ਼ਾਂਤ	-10.1459
...	-10.1459
▁ਨਾਪਦਾ	-10.1461
ਛ	-10.1463
ਨਾਥ	-10.1467
▁ਸੋਚਿਆ	-10.149
▁ਗੋਲੀ	-10.1495
▁ਵੇਰਵਾ	-10.15
▁ਜੁ	-10.1512
30	-10.1526
▁ਹੋਲਾਂ	-10.1541
ਭਾਰਤ	-10.1542
▁ਮਿਸ	-10.1549
▁ਸਾਇੰਸ	-10.1553
▁ਅਦਾਲਤ	-10.1561
D	-10.1561
▁ਟਿਕਾਣਾ	-10.1572
▁ਦਰਸਾਉਂਦੇ	-10.1572
▁ਸਦੀਆਂ	-10.1574
▁ਵਾਲ਼ਾ	-10.1574
▁ਸਭਿਅਤਾ	-10.1577
▁ਕਾਮ	-10.1585
▁ਵਾਤਾਵਰਣ	-10.159
ਦੁ	-10.1592
▁ਬੋਹਰ	-10.1593
▁ਫ਼ੌਜੀ	-10.1596
▁Q	-10.1601
▁ਔਰਬਿਟਲ	-10.1607
▁ਮੋਗਾ	-10.1611
▁ਲੰਮੀ	-10.1613
rang	-10.1627
ਵਨ	-10.1628
ਕੇਅਰ	-10.1628
▁ਬੜਾ	-10.163
▁ਅਮਰ	-10.1632
▁ਮਰਦਾਂ	-10.1634
ਿਓ	-10.1636
ਐਮ	-10.1637
▁ਹਵਾਲੇ	-10.1637
▁ਦੇਖਦੇ	-10.1639
▁ਚੌਥੇ	-10.1647
ਹਿ	-10.1649
ਮਾਰ	-10.1652
▁⟩	-10.1655
ਗੁਰੂ	-10.1659
▁J	-10.1661
▁ਕਹਿਣ	-10.1661
▁ਲੲੀ	-10.1665
▁ਸਫ਼ਰ	-10.1666
▁ਅੰਦਰਲੀ	-10.1671
▁35	-10.1671
▁ਅਗਲੀ	-10.1672
▁ਹਾਈਡ੍ਰੋਜਨ	-10.1684
▁ਮੇਲਾ	-10.1685
▁ਸਿੱਧੀ	-10.1696
▁ਧਾਰਨ	-10.1701
▁ਕ੍ਰਾਂਤੀ	-10.1703
▁ਪ੍ਰਵਾਨਿਤ	-10.1703
▁ਤਿ	-10.1705
ਪੇ	-10.1714
ਿਅਨ	-10.1716
▁ਜੁਲਦੀ	-10.1724
▁ਦਰਸਾ	-10.1725
▁ਜੈਕ	-10.173
▁%	-10.173
▁4‐	-10.1732
▁ਸਾਡਾ	-10.1732
▁ਅਧਿਅਨ	-10.1737
▁1992	-10.1743
ਰੂਪ	-10.1744
ਗਨ	-10.1745
▁ਸਹਿਤ	-10.1748
▁ਪੈਰ	-10.1752
ਹੇ	-10.1754
▁ਪ੍ਰਵੇਸ਼	-10.1755
▁ਮੇਨ	-10.1758
▁ਗੁਪਤ	-10.1758
ਕਰਨ	-10.1759
▁ਲਿ	-10.1761
▁ਪੀਟਰ	-10.1764
▁ਮਾਨਵ	-10.177
▁ਹਾਲਤਾਂ	-10.177
▁ਸਮਿੱਟਰੀ	-10.1779
ਟਲ	-10.178
ਨਿਰਭਰ	-10.1793
▁ਉਹਨਾ	-10.1797
▁ਪੁਰਾਣ	-10.1802
▁ਉੱਚੀ	-10.1805
▁ਮੰਡਲ	-10.1814
▁ਬਣਦੀ	-10.1817
▁ਨੋ	-10.1817
▁ਟੂ	-10.1822
▁ਪੜ੍ਹਿਆ	-10.1824
▁ਕਾਨੂੰਨੀ	-10.1824
▁ਕਾਰਲ	-10.1832
▁ਆਦਰਸ਼	-10.1832
▁ਗਰਾਊਂਡ	-10.1833
▁ਨੌ	-10.1838
▁ਸਥਿਰਤਾ	-10.1838
▁ਸਕੱਤਰ	-10.1848
▁ਕਵੀਆਂ	-10.1849
▁ਹਰਾ	-10.185
▁ਫਾਰਸੀ	-10.1861
ਨਗਰ	-10.1863
▁ਨਿਸ਼ਾਨ	-10.1865
▁ਅਧਿਕਾਰੀ	-10.1869
▁80	-10.187
▁ਜਾਨਵਰ	-10.1877
▁ਸ਼ੁਰੁਆਤ	-10.1885
▁ਇੰਟਰਨੈਸ਼ਨਲ	-10.1893
▁ਦਿਵਸ	-10.1905
▁ਗਿਨੀ	-10.1909
ਪੂ	-10.1909
▁ਤਿਉਹਾਰ	-10.1913
ਫ਼ਲ	-10.1915
▁ਐਸੋਸੀਏਸ਼ਨ	-10.1923
▁ਘੋਸ਼ਣਾ	-10.1923
ਸੁਤੰਤਰ	-10.1927
ਪਾਰ	-10.1931
ਸਲ	-10.1933
▁ਮੁੱਕ	-10.1938
▁ਖੋਜਣ	-10.1947
▁ਰੋਮ	-10.1947
▁ਸਿੱਖੀ	-10.195
▁ਮਿਸਾਲ	-10.1952
▁ਕੰਟਰੋਲ	-10.1961
left	-10.1961
▁ਸਾ	-10.1962
▁ਕੋਣ	-10.1962
▁ਮਜ਼ਬੂਤ	-10.1966
▁ਜਿੱਤੇ	-10.1975
▁ਬੋਥਨੀਆ	-10.198
▁ਲਗਾਉਂਦੀ	-10.1981
▁ਕਠਿਨ	-10.1982
▁ਮਾਈ	-10.1986
▁ਧਨ	-10.1987
▁ਅਜ਼ਾਦ	-10.1992
▁ਅਜੋਕੀ	-10.1997
▁ਮੇ	-10.2003
▁ਚਿੰਨ੍ਹ	-10.2009
▁ਕਰੇਗਾ	-10.2011
▁ਕੰਮਾਂ	-10.2016
▁ਖੋ	-10.2017
▁ਬਰਤਾਨੀਆ	-10.2018
▁ਨੀਂਹ	-10.2018
▁φ	-10.2022
25	-10.2023
ਨਸ	-10.2029
ਣੇ	-10.2032
▁ਕਠਿਨਾਈ	-10.2034
▁ਪਰੇ	-10.2041
▁ਖੇਡਿਆ	-10.205
ੰਟ	-10.2056
Psi	-10.2057
ਯੋ	-10.2057
▁ਗੈਲੀਲ	-10.2063
▁ਕਮਿਸ਼ਨ	-10.2064
ਨਰ	-10.208
▁ਗਰਮੀਆਂ	-10.2085
on	-10.2088
▁ਯੂਨਾਨ	-10.2089
▁ਮਿਲਕੇ	-10.2089
▁ਜਵਾਨ	-10.2089
▁ਰੋ	-10.2089
▁ਸ਼ਹਿਰੀ	-10.2092
▁ਪਬਲਿਕ	-10.2094
16	-10.2101
▁ਪੀੜ੍ਹੀ	-10.2115
▁ੳੁਹ	-10.212
▁ਜੱਟ	-10.2134
▁ਕੋਰਟ	-10.2142
▁ਲੀਓਨਾਰਡ	-10.2142
ੋਸ	-10.2143
ਸਾਰ	-10.2146
ਸ਼ੀਲ	-10.2149
▁ਸਰੀਰਕ	-10.2151
ਰੀਆ	-10.2152
▁ਰੇਂਜ	-10.2157
▁ਹੈਦਰਾਬਾਦ	-10.2158
▁ਮੈਡੀਕਲ	-10.2159
ੀਂ	-10.2167
▁ਪੈਰਾਮੀਟਰ	-10.2171
▁ਸੰਸਕ੍ਰਿਤੀ	-10.2172
▁ਮਰਨ	-10.2177
40	-10.2178
j	-10.2186
▁ਇਥੋ	-10.2202
ਬੂ	-10.2206
▁ਰਾਜਨੀਤਿਕ	-10.2209
▁ਮੇਲੇ	-10.2219
▁ਐੱਮ	-10.2219
▁ਉਤੇ	-10.2219
▁ਟ੍ਰਾਂਸਫੋਰਮੇਸ਼ਨ	-10.2221
ਆਨ	-10.2229
▁ਵਿਸ਼ਿਆਂ	-10.2231
▁ਚੌਥੀ	-10.2232
▁ਰਹਿੰਦੀਆਂ	-10.2236
▁ਲੰਮੇ	-10.2237
▁ਪੜ੍ਹ	-10.2245
▁ਸਤ	-10.2247
▁ਲਿਆਉਣ	-10.2247
▁ਸਪੇਨੀ	-10.2254
▁ਹਾਕੀ	-10.2255
▁ਔਡ	-10.2256
ਦਾਨ	-10.2262
▁ਸੋਧ	-10.2272
▁ਰਾਇ	-10.2273
▁ਡੌ	-10.2276
▁ਗੁਣਾਂਕ	-10.2278
ੌਨ	-10.2279
▁ਮੌਕਾ	-10.2288
▁1927	-10.2288
▁ਵਸਤਾਂ	-10.2299
▁ਵਿਲੱਖਣ	-10.2302
▁ਪ੍ਰਵਾਹ	-10.2306
▁ਪੇਸੋ	-10.2308
ਮੈਂ	-10.2313
▁ਰਚ	-10.2314
▁ਸੁਤੰਤਰਤਾ	-10.2315
▁ਤਾ	-10.2325
▁ਖ਼ੁਦ	-10.2328
▁Y	-10.2332
▁ਪ੍ਰਸਿੱਧੀ	-10.2336
▁ਕਰੀਅਰ	-10.234
੦	-10.2345
▁ਖਾਲਸਾ	-10.2346
▁ਓਹਨਾਂ	-10.235
▁ਕਾਰਬਨ	-10.2354
▁ਉਦਾਹਰਣ	-10.2359
▁ਸਦਾ	-10.2364
▁ਲੰਦਨ	-10.2365
▁ਕ੍ਰੋਮੋਡਾਇਨਾਮਿਕਸ	-10.2365
▁ਮੰਤਵ	-10.2377
▁ਧ	-10.2382
▁1900	-10.2386
▁ਗ੍ਰਹਿਣ	-10.2389
▁ਮੁਖ	-10.2394
▁ਵਰਤਾਰੇ	-10.2405
▁ਖਾਂ	-10.2408
ਾਤਮਕ	-10.2409
▁j	-10.2412
▁ਅਭਿਨੇਤਾ	-10.2413
▁1940	-10.2419
▁ਲਹੌਰ	-10.2425
▁1997	-10.2425
▁ਭੂਗੋਲਿਕ	-10.2428
▁ਛੇਤੀ	-10.2431
▁ਪਰਿਵਰਤ	-10.2432
ਤਾਂ	-10.2434
▁ਲਾਗ	-10.2438
▁ਗੇਂਦ	-10.2439
▁ਗਰਮੀ	-10.2441
ਹਾਰ	-10.2444
▁de	-10.2444
▁ਯਕੀਨ	-10.2445
▁ਦੋਨੋਂ	-10.2448
▁ਅੱਧਾ	-10.2454
▁ਮਹੱਤਤਾ	-10.2465
▁ਗੁ	-10.2471
ਜ਼ਮ	-10.2474
▁ਭੀ	-10.248
▁ਪ੍ਰਦ੍ਰਸ਼	-10.248
▁ਸਰਹੱਦ	-10.2491
▁ਜੰਗਲੀ	-10.2493
ਵਿਗਿਆਨ	-10.2494
ਲਿਨ	-10.2499
ਸੰ	-10.2501
14	-10.2501
ਫ਼ਰ	-10.2519
▁ਜਿ	-10.2528
▁θ	-10.2533
▁ਮਾਡਲਾਂ	-10.2541
▁ਪੈਂਦੇ	-10.2544
▁29.	-10.2545
▁ਕਬੀਲੇ	-10.2546
Y	-10.2556
▁ਅਣ	-10.2556
ਹੋ	-10.2559
▁ਪੇਸ਼ਕਸ਼	-10.2565
▁ਇਨਕਾਰ	-10.2567
▁ਉਤਪੰਨ	-10.2572
▁∂	-10.2574
▁1984	-10.2593
▁ਔ	-10.2595
▁ਹੇਜ਼ਨਬਰਗ	-10.2604
ਦੇਵ	-10.2607
▁ਬਚਣ	-10.262
▁ਮੁਕੰਮਲ	-10.2624
ੰਤ	-10.2628
ਹੈ	-10.2631
▁ਕਣਕ	-10.2631
ਫਰ	-10.2635
}}}	-10.264
੧	-10.2654
▁ਸਮੇ	-10.2654
ਚਾਰ	-10.2654
▁ਵਿਚਲੀ	-10.2658
▁ਅੰਸ਼	-10.2659
ਵਿ	-10.2661
▁ਹਾਈਪ੍ਰਬੋਲੇ	-10.2662
ੀਨ	-10.2665
▁1962	-10.2665
▁ਦਿਸਦਾ	-10.2667
▁ਇੰਨੀ	-10.267
▁ਐਕਸ਼ਨ	-10.2675
ी	-10.2677
▁ਤੀਰ	-10.2684
▁ਤਰਲ	-10.2686
▁ਬ੍ਰੋਗਲੀ	-10.2689
ਲੈਕਟ੍ਰੋਡਾਇਨਾਮਿਕਸ	-10.2691
▁ਤਸਵੀਰਾਂ	-10.2702
▁ਕੋਰੀਆ	-10.2702
▁ਹਰਮਨ	-10.2705
ਲਿੰਗ	-10.2705
▁ਦਾਸ	-10.2705
▁ਨੇਪਾਲ	-10.2706
ਾੰ	-10.2708
▁ਰੋਕਣ	-10.271
▁ਅਸ	-10.2713
▁1.	-10.2713
▁ਕਰਵਾਈ	-10.2714
▁ਆਈਗਨਮੁੱਲ	-10.2717
frac	-10.2726
▁ਤੱ	-10.2733
▁ਨਿਰੀਖਣਾਂ	-10.2739
▁ਹਰਮਿਸ਼ਨ	-10.2739
▁ਮੌਜੂਦਗੀ	-10.2742
▁ਸ਼ਰਮਾ	-10.2745
▁ਜਿਲ੍ਹਾ	-10.2747
▁1948	-10.2747
amma	-10.2752
▁ਸਟੈਟਿਸਟ	-10.2752
▁ਲੈਕਚਰ	-10.276
▁ਸਾਮਾਜਕ	-10.2767
▁ਮਿੱਥ	-10.2767
▁ਵਿਅਕਤੀਆਂ	-10.2774
ਲੂ	-10.2779
▁ਮਨਚਾਹ	-10.2779
ੀਅਲ	-10.28
▁ਡਾਇਮੈਨਸ਼ਨਾਂ	-10.28
▁ਮਾਤਰਾਵਾਂ	-10.2802
ਨਲ	-10.2803
▁ਚਲ	-10.2803
▁ਫ਼ਰਵਰੀ	-10.2808
▁ਕਬੀਰ	-10.2812
▁70	-10.2814
▁ਹਿਮਾਚਲ	-10.2815
▁ਮੱਤ	-10.2821
▁ਖੰਡ	-10.2822
ਵਿੱਚ	-10.2824
਼ੀ	-10.2825
ਤਨ	-10.2832
▁ਅੰਧ	-10.2846
▁ਕਾਲਮ	-10.2846
▁ਜਨਗਣਨਾ	-10.2849
▁ਕਿਸਾਨਾਂ	-10.2857
▁ਕੀਮਤ	-10.2859
▁ਖਗੋਲ	-10.2862
▁ਸਾਂਝਾ	-10.2867
ਹੁ	-10.2868
▁ਸਪੇਸਲਾਈਕ	-10.2876
੨	-10.2887
ਪਲਰ	-10.2889
▁ਸਿਵਲ	-10.2891
Portal	-10.2893
▁ਪਹੇਲੀ	-10.2902
▁ਭਗਤੀ	-10.2902
us	-10.2908
▁ਸੰਗਤ	-10.2908
th	-10.291
▁1914	-10.2912
ਜਿਸ	-10.2914
ਮਈ	-10.2921
ਅੰਕ	-10.2922
▁ਗਰੀਨਲੈਂਡ	-10.2932
▁ਘੰਟੇ	-10.2938
▁ਅੱਡ	-10.2938
▁ਪਹਿਚਾਣ	-10.2944
▁ਚਾਹੁੰਦੇ	-10.2953
▁ਭੇਦ	-10.2956
▁ਤਾਰ	-10.2961
▁ਗਾਏ	-10.2965
ਰਨ	-10.297
▁ਮਾਹੌਲ	-10.2973
▁ਹੋਕੇ	-10.2975
▁ਜਾਤ	-10.2976
▁ਖੇਡਣ	-10.298
▁ਅਧਿਕਾਰਾਂ	-10.2987
ा	-10.299
ਥਾ	-10.2994
▁ਬਤੌਰ	-10.2995
▁ਨਿਮਨ	-10.2996
▁ਅੰਕਾਂ	-10.2998
▁ਗੱਲਾਂ	-10.3006
▁ਗਲੋਬਲ	-10.3008
▁ਮੁੰਡੇ	-10.3016
▁ਵਲ	-10.3016
▁ਮੈਂਬਰਾਂ	-10.302
▁ਕੌਮ	-10.3021
ੀਅਮ	-10.3024
▁ਵਧਾ	-10.3025
▁ਰਤਨ	-10.3027
▁ਯਾਨੀ	-10.3029
▁ਯੂਨਾਇਟ	-10.3032
it	-10.3033
▁ਨਜ਼ਰੀਏ	-10.3039
▁ਗਾਉਣ	-10.304
▁ਮਹਾ	-10.3041
▁ਉਦਾਹਰਨਾਂ	-10.3042
ਕੁਆਂਟਮ	-10.3044
▁ਆਨੰਦ	-10.3044
ਵੇਵ	-10.3044
▁ਸੰਧੀ	-10.3044
▁ਬੰਦਾ	-10.3046
ਧਾ	-10.3051
▁ਮਿਸ਼ਰਣ	-10.306
▁ਐਡਵਰਡ	-10.3071
ਕੂ	-10.3077
▁ਵਕੀਲ	-10.3078
ਵੈ	-10.3082
▁ਜੈਨ	-10.3086
▁ਬਾਨੀ	-10.3087
ੋਨ	-10.3089
σ	-10.309
▁ਬੋਸੋਨ	-10.3091
▁ਬਣਾਈਆਂ	-10.3092
▁ਲੰਘ	-10.3101
ਾਸ	-10.3113
▁ਸਕੂਲਾਂ	-10.3117
▁ਦਿਨਾਰ	-10.3118
▁ਬਚ	-10.3118
ਸਿ	-10.3119
▁ਵਿਕਸਤ	-10.3121
▁ਬੁਨਿਆਦ	-10.3121
▁ਏਇਥਰ	-10.3121
▁ਘਰਾਂ	-10.3125
▁ਕਮਰੇ	-10.3126
▁ਵਿਆਖਿਆਵਾਂ	-10.3127
▁ਬੜੇ	-10.3129
▁it	-10.3132
▁ਪ੍ਰਕ੍ਰਿਆ	-10.3136
▁ਕੌਮਾਂਤਰੀ	-10.3137
▁ਵਾਤਾਵਰਨ	-10.3142
▁ਕੌਂਸਲ	-10.3142
▁ਕਾਰਾ	-10.3143
▁ਖ਼ਾਨਦਾਨ	-10.3145
▁ਵਧਾਇਆ	-10.3146
▁ਵਾਰਤਕ	-10.3147
▁ਨੇੜਲ	-10.3148
▁ਚਾਹੇ	-10.3149
▁ਲੰਮਾ	-10.3158
▁ਕੋਰ	-10.3166
▁ਦੱਸਦੀ	-10.317
▁ਨਿਵਾਸ	-10.3173
▁2.	-10.3173
▁ਚਾਲ	-10.3175
▁ਖ਼ਾਲਸਾ	-10.3177
ਸਮੂਹ	-10.3195
▁॥	-10.3198
ਐਲ	-10.3199
ਦਮ	-10.32
▁ਹੱਤਿਆ	-10.3204
▁ਭਵਨ	-10.3207
▁ਪੋਲੈਂਡ	-10.3207
▁ਸੰਕਟ	-10.3209
▁ਇਮਾਰਤਾਂ	-10.321
ਾਏ	-10.3216
▁ਮੈਕ	-10.3216
▁ਤੁਸੀਂ	-10.3222
ੈਂਟ	-10.3227
▁ਬੈਂਡ	-10.3228
▁ਦੀਵਾਨ	-10.3233
▁ਐਟਮਾਂ	-10.3234
▁੧	-10.3236
▁ਸੀਨੀਅਰ	-10.3238
ਹੱਦ	-10.324
▁ਸੈਰ	-10.3242
▁an	-10.3249
▁ਮੈਕਸ	-10.3256
▁ਕੈਦ	-10.3256
▁ਗਲਤੀ	-10.3262
▁ਇਤਿਹਾਸਕਾਰ	-10.3263
ਗਣਿਤ	-10.3264
▁ਪੀਰ	-10.3267
▁ਅਨੁਮਾਨਾਂ	-10.3268
▁32	-10.3268
▁ਰਲ	-10.3269
▁ਸਕੇਲ	-10.3271
▁ਕੋਚ	-10.3276
▁ਅਪ	-10.3285
▁ਨਵਾਬ	-10.3285
▁ਹਿ	-10.3287
▁ਫਾਰਮੂਲੇ	-10.3293
▁ਉਦਾਸੀ	-10.3299
▁ਫੋਨ	-10.3308
▁ਖੇਤਰੀ	-10.3312
▁ਵਿਆਖਿਅ	-10.3326
▁ਮਸ਼ੀਨ	-10.3334
▁ਨਾਮਜ਼ਦ	-10.3334
▁ਪੋਆਇਨ	-10.3336
▁ਕਾਰਵਾਈ	-10.3337
ਤਮਿਕ	-10.334
▁ਨਦੀਆਂ	-10.3344
▁ਭੱਜ	-10.3356
▁ਕਰਵਾਉਂਦੀ	-10.3359
▁ਪ੍ਰਤਿਭਾ	-10.3371
12	-10.3376
▁ਸ਼ੇਖ	-10.3378
▁ਨਿਕਾਸ	-10.3378
▁ਕੰਜੂਗੇਟ	-10.3379
▁1925	-10.338
▁ਅੱਖ	-10.3381
▁ਆਖ਼ਰੀ	-10.3385
▁ਫਿਜਿਕਸ	-10.3392
▁ਕੱਪੜੇ	-10.3402
{	-10.3405
re	-10.3411
ਣਯੋਗ	-10.3418
▁y	-10.3419
▁ਗੁਲਾਮ	-10.3421
▁ਢਾਂਚਾ	-10.3422
▁ਵਰਜ਼ਨ	-10.3423
▁ਬੱਚਾ	-10.3428
▁ਲਿਖਤ	-10.343
▁ਸਹਿਮਤ	-10.3431
▁ਜਾਰਜੀਆ	-10.344
▁ਦੰਦ	-10.3441
▁ਸੰਸਥਾਪਕ	-10.3444
ਦੀਪ	-10.3452
▁ਪੁਰਖ	-10.3455
11	-10.3456
▁ਨਾਇਕ	-10.346
▁ਵੱਖੋ	-10.3461
▁ਕਿਨਾਰੇ	-10.3466
▁ਮਸਲਿਆਂ	-10.3466
▁1993	-10.3467
ਠਾ	-10.3472
▁ਮਾਦਾ	-10.3472
▁ਮਿੰਟ	-10.3478
▁ਲਾਭ	-10.349
▁ਖਾਲੀ	-10.3492
▁ਚਾਰਜਾਂ	-10.3499
▁ਲਿਖਣਾ	-10.3507
▁ਇਤਾਲਵੀ	-10.351
ਾਇ	-10.351
ਰੈਂਸ	-10.3511
▁ਮਹਾਤਮਾ	-10.3512
▁ਦਫ਼ਤਰ	-10.3514
ਨਾਮ	-10.3522
▁ਸੁਣ	-10.3528
26	-10.353
▁ਹੈਨਰੀ	-10.3536
▁ਇਰਾਕ	-10.3544
▁ਇਹਦਾ	-10.3547
ਸਪੇਸ	-10.3553
▁ਆਪਸੀ	-10.3553
▁ਕੁਆਂਟਾਇਜ਼	-10.3554
▁ਡੇਵਿਸ	-10.3555
▁ਨਾਭਾ	-10.3559
▁ਵੀਡੀਓ	-10.3561
▁ਪੂ	-10.3565
▁ਸ਼੍ਰੇਣੀਆਂ	-10.3569
▁ਫਾਰ	-10.3574
ੁਸ	-10.3574
▁ਵਿਵਾਦ	-10.3574
▁ਸੀਨਾਰੀਓ	-10.3576
▁ਓਪਰੇਸ਼ਨ	-10.3577
ਪਨ	-10.3578
▁ਕਲ	-10.358
▁ਲਿਖਦਾ	-10.3587
▁ਮੰਚ	-10.359
▁ਖ਼	-10.3605
ਦੇਸ਼	-10.361
▁ਪ੍ਰੋਜੈਕਸ਼ਨ	-10.3612
▁ਰੱਖਣਾ	-10.3622
▁ਲੰਬਾ	-10.3623
▁ਸਮਝਾਇਆ	-10.3626
▁ਡੈ	-10.3637
▁ਡੈੱਨਮਾਰਕ	-10.3643
▁ਤਰਜੀਹ	-10.3643
▁ਕੋਲਕਾਤਾ	-10.3649
▁ਦਿਸਦੀ	-10.3653
ਮਾਂ	-10.3653
▁ਆਇ	-10.3656
▁ਨਾਂਅ	-10.3661
▁ਨੂ	-10.3668
▁ਕਿਰਨਾਂ	-10.367
▁ਪਹਾੜਾਂ	-10.3683
▁ਫਰੀਦਕੋਟ	-10.3688
▁ਉੱਚਾਈ	-10.3691
▁ਅਨੁਪਾਤੀ	-10.3695
▁ਦੇਖੇ	-10.3698
▁ਸਾਥੀਆਂ	-10.3709
▁ਬ੍ਰਿਟੇਨ	-10.3711
▁line	-10.3711
▁ਚੁੱਕ	-10.372
ਕੋਟ	-10.3729
ਢ	-10.3729
ਤੂ	-10.3734
▁ਲਾਇਬ੍ਰੇਰੀ	-10.3742
▁ਨਵੀਆਂ	-10.375
90	-10.375
ਦੀਨ	-10.3753
▁ਅੰਸ਼ਿਕ	-10.3766
▁ਤਕਨਾਲੋਜੀ	-10.377
ਮਿਲ	-10.3775
▁ਤੈਅ	-10.3779
▁ਕਬਜਾ	-10.3779
▁ਆਉਂਦੀਆਂ	-10.378
▁ਗਰ	-10.3782
▁ਪ੍ਰਭੂ	-10.3782
▁ਖਾਣਾ	-10.3787
45	-10.3789
el	-10.379
▁ਤਿਆਗ	-10.3794
ਸੂ	-10.3798
▁ਅੱਖਰਾਂ	-10.3799
▁ਗਰੀਬ	-10.3799
▁ਜਪਾਨੀ	-10.3804
▁ਵਾਰਾਂ	-10.3811
▁ਨਿਰਧਾਰਤ	-10.3816
ਮੀਟਰ	-10.3816
▁ਕਰਵਾਉਣ	-10.3821
▁ਰਿਸਰਚ	-10.3822
▁ਕੋਸ਼	-10.3823
▁ਅਧਾਰਤ	-10.3828
▁ਸਾਫ਼	-10.383
▁ਕੰਪਨੀਆਂ	-10.383
▁ਫ਼ਰੀਦ	-10.383
▁ਈਸਾ	-10.3831
▁ਬਣਾਉਣਾ	-10.3832
▁ਲੂਪ	-10.3837
ਵੋ	-10.3846
partial	-10.3846
▁ਮਿਸ਼ਰਤ	-10.385
▁ਪਦਾਰਥਕ	-10.3851
▁ਫ਼ੀਸਦੀ	-10.3854
▁ਪ੍ਰਕਿਰਤੀ	-10.3859
15	-10.3859
▁ਬਿਲ	-10.3861
▁ਸੁਖ	-10.3869
੬	-10.3869
▁1967	-10.3871
▁ਮਾਰਿਆ	-10.3873
▁ਲੱਗਦੀਆਂ	-10.3873
▁ਪ੍ਰਾਇਮਰੀ	-10.3876
▁ਸ਼ੁੱਧਤਾ	-10.3876
▁ਭੰਡਾਰ	-10.3887
▁ਭਰਾਵਾਂ	-10.389
▁ਵਿਧਾਇਕ	-10.3892
ਬਾਰ	-10.3912
▁ਬਠਿੰਡ	-10.3913
ੂਰ	-10.3914
▁ਬਰਨਾਲਾ	-10.3933
▁ਅਖ਼ਬਾਰ	-10.3937
▁ਨਿਊਜ਼ੀਲੈਂਡ	-10.3938
▁ਚੈਨਲ	-10.3939
▁ਘਣਤਾ	-10.3941
▁ਪਸ਼ੂ	-10.3941
^{2}}	-10.3948
▁ਕਲਰ	-10.3952
▁ਰੁ	-10.3953
ਲਾਲ	-10.3956
▁ਪੇਸ਼ੇਵਰ	-10.3962
▁ਨਾਟਕਾਂ	-10.3963
▁ਮਸਜਿਦ	-10.398
▁ਫਰੀ	-10.3981
28	-10.3982
▁ਮਰਦਮਸ਼ੁਮਾਰੀ	-10.3984
▁1995	-10.3985
24	-10.4004
▁ਮੁਲਕਾਂ	-10.4007
▁ਡਾਇਗ੍ਰਾਮ	-10.4007
▁ਪਰਿਕਲਪਨਾ	-10.4007
▁ਬੇਦੀ	-10.4009
▁ਨੂਰ	-10.4013
ੰਝ	-10.4015
XE	-10.4021
67	-10.4024
▁ਘੁੰਮ	-10.4027
▁ਡਿਲੇਸ਼ਨ	-10.4031
&	-10.4034
ਿਅ	-10.4041
▁ਭਰੇ	-10.4045
▁No	-10.405
▁ਸਾਥ	-10.4054
▁ਕਿਰਨ	-10.4055
▁ਵਿਖਾਈ	-10.4056
ਿਜ਼	-10.4057
ਰਿਆ	-10.4059
▁ਸ਼ੋ	-10.4063
▁ਚਮਕ	-10.4063
▁ਚੱਕ	-10.4067
-2	-10.4067
ਜ਼ਰ	-10.4074
▁ਰਚਦੀ	-10.4077
▁ਗੀਤਕਾਰ	-10.4084
▁ਕਿਲੇ	-10.4088
ਿਲਬਰਟ	-10.4091
▁ਕੱਢਣ	-10.4105
▁ਚਿਲੀ	-10.4105
▁1996	-10.4108
ਥਿਊਰੀ	-10.4108
▁ਦਿਖਾ	-10.4108
▁ਭਰੀ	-10.4118
▁ਸਿਆਸਤ	-10.4124
Location	-10.4124
▁→	-10.4125
▁ਬਠਿੰਡਾ	-10.4125
▁ਚੌਥਾ	-10.413
ਪਤ	-10.4131
ਜੂ	-10.4133
▁ਅੱਤ	-10.4139
▁ਅਸਫਲ	-10.414
▁ਊ	-10.4141
▁ਚੀਰ	-10.4145
▁ਕਾਰਕੁਨ	-10.4148
ir	-10.4151
ਮਿ	-10.4158
▁ਮੰਡੀ	-10.4159
▁ਸਾਹਿਤਕਾਰ	-10.4166
▁1971	-10.4167
▁ਦਿਓ	-10.4168
▁ਬਿਰਤਾਂਤ	-10.4168
▁ਅਚਾਨਕ	-10.4171
▁ਵਜ੍ਹਾ	-10.4171
▁ਅਵਾਜ਼	-10.4173
▁ਪੰਥ	-10.4177
▁ਪੁੰਜਹੀਣ	-10.4178
ਵੰਡ	-10.4184
▁ਛੰਦ	-10.4184
ਲਾਈਕ	-10.4192
▁from	-10.4195
▁ਖਿਲਾਫ਼	-10.4199
▁ਘੋੜੇ	-10.42
▁ਸ਼੍ਰੋਮ	-10.422
▁ਪਰਖ	-10.4226
▁ਹਲਕਿ	-10.4226
▁ਸ਼ਬਦਾਵਲੀ	-10.4232
▁ਜਾਤੀਆਂ	-10.4236
▁ਹੇਠਲੇ	-10.4241
▁ਨਮੂਨੇ	-10.4242
▁ਅਨਾਜ	-10.4245
▁ਚਾਂਦੀ	-10.4248
▁ਉਸਤਾਦ	-10.4259
▁ਨਿਰੀਖਕ	-10.4265
▁ਅਸਥਿਰਾਂਕ	-10.4266
▁1975	-10.4267
▁ਯੂਰੋ	-10.4267
▁ਵਾਪਰ	-10.427
▁ਲੱਗਦੀ	-10.427
ਟਿਵ	-10.4274
▁ਗਾਇਕਾ	-10.4275
▁ਗਲ	-10.4276
▁ਵਸਿਆ	-10.4277
ਮਾਲ	-10.4278
ਮਲ	-10.4279
▁ਇੰਨ	-10.4281
8%	-10.4282
▁ਜਾਰਜ	-10.4283
ਪੁ	-10.4286
map	-10.4286
▁ਜਰਾ	-10.4286
▁ਨਿਊਟ੍ਰੌਨ	-10.429
▁ਅਨੁ	-10.4293
▁ਯਥਾਰਥ	-10.4293
ੌਂ	-10.4299
▁ਵਿੱਦਿਆ	-10.4305
▁ਆਰਟਸ	-10.4305
▁ਮਿੱਤਰ	-10.431
▁ਮੋਬਾਈਲ	-10.4313
▁ਕੈਲੀਫ਼ੋਰਨੀਆ	-10.4313
▁ਦੂਸਰੀ	-10.4313
▁ਵੇਰਵੇ	-10.4314
▁ਆਯੋਜਿਤ	-10.4314
▁ਧਾਰ	-10.4315
▁ਰੁਪਈਆ	-10.4315
▁ਨਿਰਦੇਸ਼ਨ	-10.4334
▁ਮੁੱ	-10.4335
▁ਗੁਰਮੁਖੀ	-10.4337
▁ਫਸਲ	-10.4338
▁_{	-10.4338
▁ਐਲਬਮ	-10.4339
42	-10.4341
ਿਕਸ	-10.4342
▁ਐਕਸ	-10.4346
ਰਜ਼	-10.435
▁ਮਲ	-10.4353
▁ਨਵੀਨ	-10.4358
▁ਕਵਰ	-10.4369
▁ਗਿਅਾ	-10.437
ਧੀ	-10.437
▁ਹਵਾਲਾ	-10.4371
▁ਬਦਲਿਆ	-10.4373
▁ਚਾਹ	-10.4373
▁ਇਸ਼ਕ	-10.4375
▁ਨੌਂ	-10.4379
▁ਵਿਅੰਜਨ	-10.4381
▁ਚੈਂਪੀਅਨਸ਼ਿਪ	-10.4386
▁ਮਿਆਦ	-10.4387
▁ਸ਼ਾਇਰੀ	-10.4387
▁ਜਾਵੇਗੀ	-10.4393
▁ਕਿੱਸਾ	-10.44
▁ਦਿਸ਼ਾਵਾਂ	-10.4403
ਾਗਨ	-10.4406
▁ਲਵ	-10.4406
▁ਰੇਲ	-10.4407
ਗੁ	-10.4408
ਲੈਕਟ੍ਰੋਮੈਗਨਟਿਜ਼ਮ	-10.4413
ਪਿਤਾ	-10.4415
▁ਫਰ	-10.4417
▁ਫਾਈਨਲ	-10.443
▁ਸਟੇਜ	-10.4436
▁ਪੈਸੇ	-10.4436
▁ਉਪਯੋਗ	-10.444
▁ਪਹਿਲੂ	-10.444
ਪਤੀ	-10.4441
ਿਊ	-10.4445
ਵੀਆਂ	-10.4461
am	-10.4462
▁ਮੁਹਿੰਮ	-10.4464
27	-10.447
▁ਟਿੱਕ	-10.4471
▁ਜਾਪਾਨੀ	-10.4472
▁ਸ਼ਕਤੀਆਂ	-10.4479
▁ਪ੍ਰਬੰਧਕ	-10.4479
▁ਖੇਡਦਾ	-10.448
▁ਗ੍ਰੈਂਡ	-10.4482
▁ਹਜਾਰ	-10.4482
▁1926	-10.4487
ਸਤਾਨ	-10.4487
▁ਗਰਭ	-10.4489
▁ਸੰਖੇਪਤਾ	-10.4489
▁ਹਥਿਆਰ	-10.4492
▁ਫਰੀਦ	-10.4502
▁ਟੂਰਨਾਮੈਂਟ	-10.4506
▁ਚਿੱਤਰਕਾਰ	-10.4507
▁ਕੌਸਮ	-10.451
▁ਕਿਊਬਾ	-10.4513
▁ਅਮਰੀਕਨ	-10.452
$	-10.4523
▁ਮੁਕਤਸਰ	-10.4524
▁1988	-10.4532
ੱਪ	-10.4537
▁ਗਤੀਵਿਧੀਆਂ	-10.4539
▁ਪੀਣ	-10.4543
ੱਗ	-10.4549
▁ਫੋਟੌਨਾਂ	-10.455
▁ਰਾਹੀ	-10.4551
▁ਇੰਨਬਿੰਨ	-10.4555
ਰਿ	-10.4556
ro	-10.4564
▁ਜੇਮਜ਼	-10.4567
▁ਅਹੁਦੇ	-10.4568
▁ਇਰਾਨ	-10.4569
▁ਰਾਸ	-10.4575
▁ਦਹਾਕਿਆਂ	-10.458
▁ਨਿਊਨਤਮ	-10.458
▁science	-10.458
▁1994	-10.458
▁ਮਾਰਕਸਵਾਦੀ	-10.4588
▁ਐਚ	-10.459
ol	-10.4596
▁ਹਿਗਜ਼	-10.46
▁ਸ਼ਿ	-10.46
▁ਨਮੂਨਾ	-10.4604
▁ਭਵਿੱਖਬਾਣੀ	-10.4604
▁ਸਖ਼ਤ	-10.4605
▁ਡਰਾਮੇ	-10.4606
▁ਪਾਉਂਦੇ	-10.4606
▁ਹੂ	-10.4607
▁ਛ	-10.4609
▁ਜਾਇਦਾਦ	-10.4609
▁ਧਾਰਨਾਵਾਂ	-10.462
▁ਉਲਟਾ	-10.4621
▁1965	-10.463
▁ਜਮੀਨ	-10.4631
▁ਕਪਤਾਨ	-10.4639
▁ਮੂਰਤੀ	-10.4641
ਙ	-10.4642
▁ਦਲਿਤ	-10.465
▁ਕਿੰਗ	-10.465
▁ਮਿਰਜ਼ਾ	-10.465
੪	-10.4651
▁ਮੋਰ	-10.4651
▁ਮਨੋਰੰਜਨ	-10.4655
▁ਆਖਦੇ	-10.4657
ੰਮ	-10.4662
ੀਆਈ	-10.4666
ا	-10.4672
▁ਜਾਣਦੇ	-10.4673
ਗੜ	-10.4673
▁ਲਹੂ	-10.4673
ਰੁ	-10.4675
▁ਅਮਨ	-10.4676
Select	-10.4678
▁ਬਿੱਗ	-10.4679
▁ਦੁ	-10.4679
▁ਰੀਲੇਟੀਵਿ	-10.4683
▁ਧੁਨੀ	-10.4686
▁ਪ੍ਰੋਜੈਕਟ	-10.4689
▁ਬਿਹਾਰ	-10.4691
▁1913	-10.4693
▁ਬੰਨ	-10.47
▁ਇੰਚ	-10.4702
▁ਮਰਾਠੀ	-10.4703
▁ਤਿਮੋਰ	-10.4703
▁ਕੈਥੋਲਿਕ	-10.4704
▁1966	-10.4704
▁ਮੰਗਲ	-10.4721
▁ਕਾਰੋਬਾਰ	-10.4727
▁1945	-10.473
▁ਰੋਜ਼	-10.4736
▁ਪ੍ਰਜਾਤੀਆਂ	-10.4739
▁ਜਿਉਂ	-10.4747
▁ਨਤੀਜ	-10.475
▁value	-10.4753
੫	-10.4754
▁ਮਾਸਕੋ	-10.4754
▁ਕ੍ਰਿਸ਼ਨ	-10.4756
ਜ਼ੀਰੋ	-10.4756
▁ਬੈਠਣ	-10.476
▁ਸਮਾਜਵਾਦੀ	-10.4767
▁ਪੁ	-10.4768
▁ਬਸੰਤ	-10.4768
▁ਟੀਮਾਂ	-10.4773
▁ਜਾਲ	-10.4773
ੋਰ	-10.4773
▁ਬੋਧੀ	-10.4774
▁ਫਿਤਰਤ	-10.4778
▁1957	-10.4778
▁1907	-10.4779
▁ਸਿਗਨਲ	-10.4779
▁1915	-10.4779
▁ਇਨਕਲਾਬੀ	-10.478
▁ਮੁਗ਼ਲ	-10.478
▁ਗਲੂਔਨ	-10.4781
▁ਜਾਵਾ	-10.4787
▁300	-10.4788
▁ਈਸਾਈ	-10.4791
▁ਰਹਿਣਾ	-10.4794
▁ਕਰਵਾਏ	-10.4795
▁ਢੁਕਵੇ	-10.4798
▁error	-10.4803
▁ਤਾਪ	-10.4805
▁ਜਮਾਤ	-10.4807
▁200	-10.4813
▁ਕਾਲਾ	-10.4814
▁ਰੁਚੀ	-10.4823
▁ਪੈਰਾਡੌਕਸ	-10.4828
▁ਰਾਮਾਨੁਜਨ	-10.4828
▁ਮੱਦਦ	-10.4828
▁ਮਹੀਨਿਆਂ	-10.4828
▁λ	-10.4834
▁1989	-10.4842
▁ਕਲਾਸ	-10.4843
▁ਚੱਲਣ	-10.4851
▁ਕੈਲਕੁਲੇਟ	-10.4853
Lua	-10.4853
▁ਦਬਾਅ	-10.4855
▁ਚਲਾਇਆ	-10.4856
▁1919	-10.4857
▁ਥਰ	-10.4858
ਇਰ	-10.4859
ਭੌਤਿਕ	-10.4866
र	-10.4867
History	-10.4878
23	-10.4879
▁1972	-10.4879
▁ਬਦਲਦਾ	-10.4879
▁ਇੰਜੀਨੀਅਰਿੰਗ	-10.4881
▁ਦੂਸਰਾ	-10.4886
▁ਬ੍ਰਾਹਮਣ	-10.4886
▁ਹਜ਼ਾਰਾਂ	-10.4889
▁ਮੀਰ	-10.4894
▁ਨਿਰੰਤਰਤਾ	-10.4898
ਪਿ	-10.4903
▁ਸਮਾਰੋਹ	-10.4904
▁ਹੋਰਨਾਂ	-10.4905
▁ਸੀਟਾਂ	-10.4907
ਪਸ	-10.4911
ਾਤ	-10.4914
▁500	-10.4922
▁ਬੈਠ	-10.4928
▁ਫਲੈਟ	-10.493
ਥੀ	-10.493
▁ਵਿਧੀਆਂ	-10.4932
80	-10.4936
▁ਅਫ਼ਰੀਕੀ	-10.4939
▁ਫੜ	-10.4941
ਦਾਸ	-10.4943
▁ਸਕੀ	-10.4945
ਵਿਕ	-10.495
um	-10.4952
▁ਕਹਾਣੀਕਾਰ	-10.4955
ਅੰਤ	-10.4955
▁ਅੰਤਮ	-10.4974
▁ਕਲਕੱਤਾ	-10.498
▁ਗ੍ਰਿਫਤਾਰ	-10.498
▁ਗਿਣਿਆ	-10.4987
▁ਵਾਸਤ	-10.4992
▁ਬੰਨ੍ਹ	-10.5006
▁ਮੰਨਣ	-10.5009
▁ਫ਼	-10.5014
ਾਬਾਦ	-10.5014
▁ਰਿਚਰਡ	-10.5015
▁Modul	-10.5015
ਡਨ	-10.5015
▁ਪ੍ਰਮਾਣਿਤ	-10.5018
ਦਾਇਕ	-10.5019
▁ਐਫ	-10.5031
▁ਰਾਮਦਾਸ	-10.5031
▁ਦੇਖੀ	-10.5031
ਫ਼ਤਹਿਗੜ੍ਹ	-10.5036
▁ਰਿੰਗ	-10.504
▁ਲਾਸ	-10.5044
▁ਲੋਕਲ	-10.505
▁ਸੁਰਜੀਤ	-10.5055
ੰਦ	-10.5056
▁ਲੰਕਾ	-10.5058
▁ਟਾਪੂਆਂ	-10.5067
▁ਬੈਕ	-10.5071
▁ਇਹਦੀ	-10.5074
▁ਅਬਦੁਲ	-10.5075
▁ਪੈਦਾਵਾਰ	-10.5079
F	-10.5079
ਾਕ	-10.508
▁ਚਮੜੀ	-10.5083
ਜਾਂ	-10.5094
▁ਛੱਡਣ	-10.5096
ਮੁ	-10.5099
▁ਮੁਲਾਕਾਤ	-10.5109
▁ਕੈਂਸਰ	-10.5111
▁ਬਲਕਿ	-10.5112
▁ਸਪੈਕਟ੍ਰਮ	-10.5113
▁ਅੰ	-10.5114
▁ਦੌਰਾ	-10.5115
0%	-10.5117
▁ਕਰਨਾਟਕ	-10.5117
▁ਵਾਸਤਵਿਕਤਾ	-10.5117
▁ਭਰਨ	-10.5118
▁ਅਜਾਦੀ	-10.5124
▁ਹੈਮਿਲਟਨ	-10.5125
ic	-10.5126
▁ਰਖ	-10.5134
▁ਖੁਸ਼ੀ	-10.5134
13	-10.5135
▁ਅਪਣਾਇਆ	-10.5136
▁ਆਤਮਾ	-10.5138
▁ਪੁਲ	-10.5138
▁ਗਾਇਆ	-10.5139
▁ਜੱਜ	-10.514
▁ਕਾਰਟੀ	-10.5149
▁ਪਾਠਕ	-10.5153
▁ਪੁਰਸ਼	-10.5157
▁ਗਤੀਆਂ	-10.516
▁ਫਿਜ਼ਿਕਸ	-10.5161
▁ਥਾਈਲੈਂਡ	-10.5161
▁ਚਿੰਤਾ	-10.5161
▁ਸਮਰੱਥ	-10.5166
▁ਚਿਰ	-10.5168
▁ਰੈੱਡ	-10.5169
▁ਪੈਣ	-10.5173
▁ਈਰਾਨ	-10.5174
▁ਚੋਟੀ	-10.5177
▁ਨੈ	-10.5179
▁ਦਿਸਣ	-10.5183
▁ਭਰਤੀ	-10.5185
▁ਓਦੋਂ	-10.5187
▁ਕੰਨੜ	-10.519
▁ਸੂਚਕ	-10.5191
—	-10.5192
▁ਗੱਲਬਾਤ	-10.5194
▁ਰਚੀ	-10.5198
▁ਲੁ	-10.5201
▁ਐਟੌਮਿਕ	-10.5206
▁ਪੰਜਾਬੀਆਂ	-10.5213
com	-10.5213
▁1979	-10.5213
▁ਵਰਣ	-10.5215
▁੨	-10.5216
▁ਦਫਤਰ	-10.5217
▁ਕਿਲਾ	-10.5222
▁ਢੁਕਵ	-10.5227
▁ਮੱਲ	-10.5228
ਲਸ	-10.524
▁ਕਮਾਈ	-10.5242
▁ਵੌਨ	-10.5243
▁3.	-10.525
▁ਰਾਜਕੁਮਾਰ	-10.5251
▁ਸੰਬੰਧਤ	-10.5257
▁ਕੈਲੀਫੋਰਨੀਆ	-10.5265
▁ਜਮੁਨਾ	-10.5265
▁ਰਿਸ਼ਤਾ	-10.5265
▁ਕਿੱਸੇ	-10.5265
▁ਸੀਮਿਤ	-10.5266
▁ਮਿਸਲ	-10.5269
▁ਮਗਰ	-10.5271
▁ਮੁਢਲ	-10.5272
▁ਮੈਡਲ	-10.5278
▁ਦਵਾਈਆਂ	-10.5279
▁ਦਰਸ਼ਕਾਂ	-10.5282
▁ਈਸਟ	-10.5287
ਜਾਨ	-10.5287
▁ਖੇਡੇ	-10.5291
▁ਲਖਨਊ	-10.5292
▁ਗੋਤ	-10.5292
▁1964	-10.5293
ਟਿਕ	-10.5308
▁—	-10.5312
▁1928	-10.532
▁ਹੀਰ	-10.5322
▁ਰੋਸ	-10.5327
}}}|	-10.5327
▁ਅਪਰਾਧ	-10.5329
ਧਰ	-10.5329
▁ਤਾਲ	-10.533
▁ਸਵਰ	-10.5337
▁ਰਿਸ਼ਤੇ	-10.5338
▁ਹੌਰਿਜ਼ਨ	-10.5344
ਕਨ	-10.5345
▁ਨਕਲ	-10.5346
ੇਰ	-10.5346
ੀਟ	-10.5347
▁ਪੜਾਈ	-10.5349
▁ਵਾਸ਼ਿੰਗਟਨ	-10.5351
▁ਖਾਦ	-10.5353
•	-10.5353
▁ਰੁੱਤ	-10.5355
ਰਾਤ	-10.5355
▁ਚਿੱਟਾ	-10.5359
st	-10.536
▁ਏਅਰਲਾਈਨ	-10.5364
ਰਤ	-10.5366
is	-10.5368
▁ਵੇਖਣ	-10.5369
G	-10.5371
▁ਦਾਖਲਾ	-10.5372
▁ਪੌਲ	-10.5373
▁ਵਰ੍ਹੇ	-10.5373
▁ਜਿਲਾ	-10.5374
▁ਪੱਟੀ	-10.5378
▁ਜੌਨ	-10.5383
▁ਮੁੱਢਲੀ	-10.5388
▁μ	-10.5389
▁ਪ੍ਰੇਰਨਾ	-10.5398
▁ਸੰਰਚਨਾ	-10.5402
ਹੋਰ	-10.5405
▁ਲਗ	-10.5406
▁ਭੈਣਾਂ	-10.5412
▁ਪੇਸ਼ਕਾਰੀ	-10.5413
▁ਯ	-10.5417
▁ਜਗ	-10.5421
▁ਮਾਪ	-10.5421
▁ਰਾ	-10.5425
▁1952	-10.5425
▁ਇਸਤਰੀ	-10.5429
▁ਗਹਿਰੀ	-10.543
ਿਨੀ	-10.5436
▁ਵਧਣ	-10.5436
▁ਅਸਥਾਨ	-10.544
ਾਵਲੀ	-10.5445
▁ਸਮਰਪਿਤ	-10.5451
▁`	-10.5451
▁ਚਾਰੇ	-10.5453
▁ਭਾਸ਼ਣ	-10.5453
▁ਬਚੇ	-10.5455
▁ਵਪਾਰੀ	-10.5466
▁ਲੱਗਦੇ	-10.5466
▁ਬਾਗ਼	-10.5473
▁ਅਬ	-10.5478
▁45	-10.5478
▁ਨਸ਼ਟ	-10.5479
▁ਸੂ	-10.5489
▁੫	-10.549
▁ਦੀਆ	-10.549
ਸ਼ਾਹ	-10.5493
ੌਰ	-10.5504
▁1982	-10.5505
ਦਿ	-10.5518
▁ਖੁੱਲੇ	-10.5519
ਹਈਆ	-10.552
▁ਛਪਿਆ	-10.5527
▁ਫ਼ਿਨਲੈਂਡ	-10.5531
▁ਵਿਲ	-10.5535
▁ਹਾਜ਼ਰੀ	-10.5536
▁ਲਾਇਆ	-10.5537
▁ਫੋਟੋ	-10.5537
▁ਲੜੀਵਾਰ	-10.5537
▁ਮਿਸ਼ਨ	-10.5541
▁ਵਿਚਲਾ	-10.5542
ੇਲ	-10.5548
▁ਬ੍ਰ	-10.5558
▁ਪ੍	-10.5558
▁ਉਪਲੱਬਧ	-10.5558
▁ਸੋਸਾਇਟੀ	-10.5558
▁ਮਾਲੀ	-10.556
▁ਪੋਲ	-10.5564
▁ਬਰੇਨ	-10.5566
▁419	-10.5566
▁ਮੈਟ੍ਰਿਕ	-10.5575
▁ਸੀਮਾਵਾਂ	-10.5577
▁ਕੁਆਰਕਾਂ	-10.5581
▁ਅਲਜਬਰਿ	-10.5582
▁ਫ਼ੈਸਲਾ	-10.5585
▁ਐਵਾਰਡ	-10.5586
▁ਕਿਲ੍ਹਾ	-10.5586
▁1987	-10.5587
▁ਪੜ	-10.5597
▁ਚਰਚਿਤ	-10.5605
ਲੰਬਾਈ	-10.5606
ਸਾਲ	-10.5606
▁ਪੁਰ	-10.5606
▁name	-10.5609
05	-10.5615
▁ਪ੍ਰਤੱਖ	-10.5617
▁ਸਾਂ	-10.5618
▁ਕੰਧ	-10.5619
59	-10.562
▁ਬਾਰਾਂ	-10.5623
▁ਸਪਰਸ਼	-10.5631
▁ਗੱਡੀ	-10.5632
▁ਦੁੱਖ	-10.5636
▁ਇੰਟਰ	-10.5638
▁ਚਾਰਲਸ	-10.5639
▁ਕਾਇਨੈਟਿਕ	-10.564
▁provided	-10.564
▁ਬੁ	-10.5655
▁ਫਾਲ	-10.5657
▁੩	-10.566
ਫਾ	-10.5667
▁1916	-10.5669
▁ਵਿਕੀ	-10.567
▁ਮਾਪਿਆਂ	-10.5673
nu	-10.5675
▁੪	-10.5675
▁ਲਗਦੀ	-10.5678
▁ਰੀਅਲ	-10.5682
▁37	-10.5684
▁ਯੇ	-10.5684
ਹੌਲੀ	-10.5685
ਆੰ	-10.5687
ਅਯਾਮਾਂ	-10.569
▁ਹਟਾ	-10.5692
▁anniversar	-10.5695
▁longitude	-10.5695
ਲੀਪ	-10.5704
ੇਸ਼	-10.5705
▁ਫੁੱਲਾਂ	-10.5705
▁ਉਮੀਦਵਾਰ	-10.5706
ਸੂਖਮ	-10.5712
▁ਕਿਰਤ	-10.5717
▁ਜਿਨ	-10.5723
▁ਸਬਸਪੇਸ	-10.5724
ਦੂ	-10.5725
▁ੲਿਕ	-10.5726
▁]	-10.5726
▁ਛਾਪੀ	-10.5734
▁ਫਾ	-10.5747
▁ਫਿ	-10.5748
▁ਸ਼ਾਖਾਵਾਂ	-10.5748
▁ਉਜ਼ਬੇਕਿਸਤਾਨ	-10.575
▁ਕਿਹੜੇ	-10.575
▁ਤਾਮਿਲ	-10.5751
▁ਟੈਂਸਰਾਂ	-10.5751
▁ਹਾਇਪ੍ਰਬੋਲ	-10.5752
▁ਬਾਈ	-10.5754
▁ਹਾਈਪ੍ਰਬੋਲ	-10.5754
▁ਸਿਖਿਆ	-10.5759
ੇਂ	-10.5762
▁ਪਿਛਲੀ	-10.5762
▁ਮਾਈਕਲ	-10.5779
▁ਡਾਇਮੈਨਸ਼ਨ	-10.5781
▁ਸਮਾ	-10.5785
▁ਪਾਉਂਦੀ	-10.579
▁ਦੱਸ	-10.5795
▁ਸਵੀਡਨ	-10.5796
▁ਰਫ਼ਤਾਰ	-10.5805
▁ਘੰਟਿਆਂ	-10.5805
▁ਵੈਕੱਮ	-10.5805
▁ਅਹਿਸਾਸ	-10.5805
▁1968	-10.5806
▁ਲੱਗਣ	-10.5807
▁ਸਿਖ	-10.581
▁ਡਾਇਨਾਮਿਕਸ	-10.5812
ਗਾਰ	-10.5816
ਧਾਰਾ	-10.582
▁ਸਰਦੀਆਂ	-10.5823
▁ਪੁੱਤ	-10.5825
▁ਤੰਗ	-10.5829
ਭਾਗ	-10.5829
▁੬	-10.5832
▁ਮੋਢੀ	-10.5833
▁ਇੰਜੀਨੀਅਰ	-10.5835
▁ਮੋਹਰੀ	-10.5837
ਉਂ	-10.5837
▁ਤੱਟ	-10.5844
ਕਲਾ	-10.5848
▁ਮਿਹਨਤ	-10.5849
▁ਮਾਤ	-10.5853
▁ਦਿਲਚਸਪ	-10.5872
▁ਬੇਰ	-10.5877
▁ਭੱਟ	-10.5878
▁ਚੈਂਪੀਅਨ	-10.5887
▁ਮਲੇਸ਼ੀਆ	-10.5889
▁ਅਮਰਦਾਸ	-10.5889
▁1986	-10.589
Del	-10.5891
ਕੰਪੋਨੈਂਟ	-10.5892
▁ਪੌਦੇ	-10.5893
▁ਮਾਰਨ	-10.5907
▁ਆਰਟ	-10.5907
▁ਚੱਲੀ	-10.5907
ਾਮ	-10.591
▁SO	-10.5911
▁ਰਕਬਾ	-10.5917
ur	-10.5921
▁ਟੁੱਟਣ	-10.5921
▁ਤਾਰਿਆਂ	-10.5923
▁ਬਰਫ਼	-10.5924
ਾਵ	-10.5924
29	-10.5924
▁ਮੁਸ਼ਕਲ	-10.5925
▁ਛਪੀ	-10.5932
▁ਚੱਲਦਾ	-10.5933
▁ਵਿਓਂਤਬੰਦੀਆਂ	-10.5935
▁ਅਯਾਮੀ	-10.5937
ਵੀਰ	-10.594
ਹਵੀਂ	-10.5943
▁ਕਾਰਜਕਾਰੀ	-10.595
▁ਖ਼ਿਲਾਫ਼	-10.5953
ੰਸ	-10.5955
ਜੈ	-10.5964
▁ਸਾਂਝ	-10.5967
▁ਸਾਲਾਨਾ	-10.5967
▁In	-10.5968
▁ਜਾਣਗੇ	-10.597
▁ਨਾਵਲਾਂ	-10.598
▁ਚਰਚ	-10.5981
ਬਾਲ	-10.5987
▁ਭੂਤਕਾਲ	-10.5989
▁ਇਹਨਾ	-10.5992
▁ਕਰਵ	-10.5993
▁ਕੰਨ	-10.5993
▁ਬਦਲਦੇ	-10.5995
▁ਘੇਰਾ	-10.6001
▁ਸੁਸਾਇਟੀ	-10.6001
▁1961	-10.6002
▁ਪਾਉਂਦਾ	-10.6003
▁ਜਿਬਰਾਲਟਰ	-10.6006
ੲੀ	-10.6008
▁ਬੀਬੀ	-10.6018
▁ਬਾਜ਼ਾਰ	-10.6027
▁ਅੱਜਕੱਲ	-10.603
ਬਰਗ	-10.6031
▁ਰੋਟੀ	-10.6032
▁ਅਵ	-10.6035
▁ν	-10.6036
▁ਨਾਂਮ	-10.6037
ਕਰਤਾ	-10.6039
▁ਨਾਮਕਰਨ	-10.6043
▁ਚੰਨ	-10.605
▁ਉਹਦੀ	-10.605
▁ਹੱਕਾਂ	-10.6051
▁ਮਹਿ	-10.6056
▁ਵਿਕਲਪ	-10.6059
ent	-10.6059
▁1956	-10.6059
▁ਕੀਮਤਾਂ	-10.6065
▁ਸੱਭਿਅਤਾ	-10.6067
▁ਰਾਓ	-10.6068
▁ਖੋਜੀਆਂ	-10.6069
▁ਨਿਭਾ	-10.608
ਭਾ	-10.6081
▁ਯੂਰੋਪ	-10.6083
il	-10.6084
ਃ	-10.6086
▁ਸ਼ਰਧਾ	-10.6086
▁ਐਮੰਡਸ	-10.6087
▁ਫਰੇਮ	-10.609
ਸ਼ਰ	-10.6099
▁ਮੈਟਰ	-10.61
▁ਨਾਟ	-10.61
▁ਯਾਰਕ	-10.6102
▁ਸਰਲਤਾ	-10.6106
▁ਤਕਨੀਕਾਂ	-10.6109
▁ਪਹਿਲੂਆਂ	-10.611
ਬਨ	-10.6111
ਸਪਿੱਨ	-10.6112
▁ਬ੍ਰਾਜ਼ੀਲ	-10.6113
▁ਮੱਕੀ	-10.6116
▁ਇੰਦਰ	-10.6117
▁ਮੰਨਣਾ	-10.6122
▁ਲਾਭਕਾਰੀ	-10.6125
▁ਵਿਹਾਰ	-10.6126
▁ਘਿਰਿਆ	-10.6126
ਸਕ	-10.6127
ਭਾਰਤੀ	-10.6129
▁ਸੱਸੀ	-10.6133
▁ਕਾਢ	-10.6135
▁ਗੇਟ	-10.6136
▁α	-10.6137
▁ਹੋਰਾਂ	-10.6139
70	-10.6141
▁ਸੈਲਾਨੀ	-10.6144
▁ਏਲ	-10.6155
▁ਸਿੱਧਾਂਤ	-10.6158
▁ਜੈਵਿਕ	-10.6162
▁ਅਕਾਦਮਿਕ	-10.6172
▁1985	-10.6174
ਾਓ	-10.6175
▁ਖੁਰਦ	-10.6178
ਕੋਲੈਪਸ	-10.6178
ੱਦ	-10.6179
▁ਕੁਸ਼ਤੀ	-10.618
▁ਪੱਕੇ	-10.618
▁ਬੋਧ	-10.6182
▁ਬਾਤ	-10.6184
▁ਵਾਰਿਸ	-10.6187
▁ਕਾਮਯਾਬ	-10.6193
ਭਾਵ	-10.6193
▁$	-10.62
▁ਹੀਟ	-10.6201
▁ਕੌਪਨਹ	-10.6201
▁ਵੇਇਲ	-10.6202
ਹਮ	-10.6202
▁ਨਿਯਮਿਤ	-10.6204
▁ਵਾਧੇ	-10.6204
▁ਰੂਪਾਂਤ੍ਰ	-10.6205
▁ਚਲਾਉਣ	-10.6209
ਡੋਰ	-10.6209
▁ਰਾਜਪੂਤ	-10.6212
▁ਸੈਨ	-10.6213
▁ਪ੍ਰੋਡਕਟ	-10.6217
▁ਮੁਕਤੀ	-10.6217
▁used	-10.6232
੮	-10.6237
ਫ਼ੀ	-10.6245
▁ਕਪੂਰਥਲਾ	-10.6246
▁ਟਰੇਸ	-10.6255
▁ਨੌਰਮ	-10.6256
▁ਜਲਵਾਯੂ	-10.6259
▁ਸਾਈਪ੍ਰਸ	-10.6259
▁ਖਿਤਾਬ	-10.6259
▁1974	-10.626
▁ਏਕੜ	-10.6265
▁ਸਿੱਟੇ	-10.6268
ਰਾਈ	-10.6272
▁ਪਾਈਪ	-10.6273
▁ਪੋਰਟ	-10.6275
▁ਮਨੁੱਖਾਂ	-10.6276
ਫ਼ਾ	-10.6286
ਜ਼ੀਅਨ	-10.6287
▁ਤੁਰਕ	-10.6289
▁1969	-10.6289
▁1954	-10.6289
ਿਉ	-10.6291
ਕੁਲ	-10.6295
▁ਬੈੱਲ	-10.6296
▁ਟਵੰਟੀ	-10.6298
▁ਕਮਜ਼ੋਰ	-10.6307
▁ਸਰਬੀਆ	-10.6315
▁ਕਬਜ਼ੇ	-10.6319
▁ਬਿਲੀਅਨ	-10.632
▁ਉਪਜ	-10.632
▁ਕਾਰਨਾਂ	-10.6329
ਲਿ	-10.6329
▁ਬੇਟੇ	-10.633
ੈਨ	-10.634
ੇਨ	-10.6342
▁ਵੈਨੇਜ਼ੁਏਲਾ	-10.6347
://	-10.6347
ਭਜਨ	-10.6349
▁1978	-10.6351
▁ਹਿਲ	-10.6353
▁ਪਿ	-10.6356
▁ਬੰਦਰਗਾਹ	-10.6357
ਨਿਆ	-10.6362
▁ਰਾਜਿਆਂ	-10.6362
▁ਅੰਮ੍ਰਿਤ	-10.6363
ं	-10.6364
ਕ੍ਰਿਤ	-10.6368
mu	-10.6371
ਵੈਕਟਰਾਂ	-10.6372
ਸਿਸ	-10.6373
▁ਫਸਲਾਂ	-10.6375
▁ਪ੍ਰਾਈਵੇਟ	-10.6376
▁ਸਰੋਤਾਂ	-10.6377
▁ਪੂਰਵੀ	-10.6378
▁ਪੱਤੇ	-10.6381
ਸਟਰਿੰਗ	-10.6383
▁ਪਰਾ	-10.6385
▁ਮਨੋਵਿਗਿਆਨ	-10.6389
ਬਾਈ	-10.6397
▁ਥਾ	-10.6404
▁ਬਿਹਤਰ	-10.6405
▁ਅਗਿਆਤ	-10.6405
▁ਖੇਤ	-10.6405
▁1983	-10.6407
▁ਬੇਨਤੀ	-10.6407
86	-10.6409
ਗਣ	-10.641
ਟਾਈਮ	-10.6414
▁ਕਾਲੀ	-10.6418
▁ਸਾਧੂ	-10.642
ary	-10.6421
▁ਸੰਗ੍ਰਿਹ	-10.6424
▁ਮਹਾਂਨਗਰ	-10.6428
▁ਸੂਰ	-10.6434
▁ਟਰਾਂਸਫੋਰਮੇਸ਼ਨ	-10.6435
▁ਬਰਲਿਨ	-10.6436
▁ਇੰਦਰਾ	-10.6437
ਦੁਆਲੇ	-10.6438
▁ਜ਼ਮਾਨੇ	-10.6439
▁ਬਿਨ	-10.6441
33	-10.6442
▁ਅਫ਼ਗ਼ਾਨਿਸਤਾਨ	-10.6445
37	-10.6446
▁*	-10.6447
ਬੁ	-10.6448
▁ਨਾਪੀ	-10.6463
▁ਗਿਆਨੀ	-10.6464
▁ਕਾਰਡ	-10.6465
▁1977	-10.6465
▁ਸੰਧੂ	-10.6466
▁ਕਾਬੂ	-10.6467
▁ਜਰਸੀ	-10.6467
▁ਸੰਗ	-10.647
▁ਜਰਨੈਲ	-10.6471
▁ਲੜਨ	-10.6472
▁ਸਪੇਸਾਂ	-10.6473
▁ਮਾਰਕ	-10.6476
▁ρ	-10.6476
ਦਾਰੀ	-10.6477
▁ਪੂਰਤੀ	-10.648
ਭਾਸ਼ਾ	-10.6481
ਿਤਾ	-10.6481
▁ਵਿੱਤੀ	-10.6484
ਾਲੀ	-10.6485
ਬੀਰ	-10.6486
▁ਵਰਤੋਂਕਾਰਾਂ	-10.6487
▁ਆਨ	-10.6492
▁ਅਲਾਸਕਾ	-10.6494
▁ਸੁਣਨ	-10.6495
▁ਮੈਰੀ	-10.6496
▁ਕੁਆਂਟਾ	-10.6501
▁ਲੱਕੜ	-10.6505
▁ਬੰਬ	-10.6505
▁ਤੇਰੇ	-10.6505
▁1942	-10.6526
▁ਲਿਆਂਦਾ	-10.6529
ਪੋ	-10.6532
▁ਆਸਟਰੇਲੀਆਈ	-10.6539
▁ਕਰਾਉਣ	-10.654
▁ਵਧਦੀ	-10.6544
▁ਸਰੋਵਰ	-10.6545
▁ਤਰ	-10.6547
▁ਪਛਾਣਿਆ	-10.6552
▁ਯੂਨੀਫਾਈਡ	-10.6554
▁ਦਿਖਾਉਂਦੇ	-10.6554
▁ਸੋਨ	-10.6555
▁ਸੰਬੰਧਾਂ	-10.6555
▁ਬੀਤਿਆ	-10.6559
▁ਛਾਪਿਆ	-10.6563
▁ਹੰਗਰੀ	-10.6564
▁34	-10.6564
ਵਤ	-10.6571
▁ਬਣੀਆਂ	-10.6576
▁use	-10.6578
▁ਆਵਾਜਾਈ	-10.6584
▁ਕੋਟ	-10.6591
▁ਨੰ	-10.6592
▁ਮੋਟਰ	-10.6594
▁ਆਰਕਟਿਕ	-10.6594
▁l	-10.6596
ਪਿੰਡ	-10.6597
56	-10.6598
▁ਬਿਨਾ	-10.6599
▁ਪਹਾੜੀਆਂ	-10.6599
▁ਕੈਨ	-10.66
ਵਾਲੀ	-10.6608
ra	-10.6609
▁ਬੀਤ	-10.6611
▁ਰੰਗਾਂ	-10.6612
▁ਸੰਗਠਿਤ	-10.6614
▁1936	-10.6615
ਵਰਤੀ	-10.6622
22	-10.6622
75	-10.6626
46	-10.6629
ਆਪ	-10.6629
ri	-10.6632
▁ਕੰ	-10.6642
▁ਘਾਹ	-10.6644
ਾਨੀ	-10.6651
▁ਪ੍ਰਵਿਰਤੀ	-10.6654
▁90	-10.6654
▁ਪ੍ਰਤੀਨਿਧ	-10.6655
▁ਧਾਤ	-10.6665
▁ਸਹਿਮਤੀ	-10.6665
ਿਟ	-10.667
▁ਸਟੇਸ਼ਨਰ	-10.6675
▁ਸੈਕੰਡਰੀ	-10.6675
μ	-10.6681
▁ਪਰਬਤ	-10.6683
ਕ੍ਰਿਆਸ਼ੀਲ	-10.6686
▁ਸਮਰੂਪ	-10.6691
▁ਗਠਨ	-10.6694
▁ਜੁੜੀਆਂ	-10.6697
▁ਜਿਵੇ	-10.67
▁ਦਿਤੀ	-10.6701
▁ਟੋ	-10.6705
▁1973	-10.6705
▁ਸੈੱਲ	-10.6709
▁ਬਚਾਉਣ	-10.6711
▁ਖੋਜੇ	-10.6728
▁ਕਾਨਫਰੰਸ	-10.6735
▁ਹਫ਼ਤੇ	-10.6735
▁1976	-10.6736
▁ਤੁ	-10.6738
▁ਅਸੀ	-10.6738
▁ਪੁਸ਼ਟੀ	-10.674
▁ਥੀ	-10.6744
▁ਤਾਜ	-10.6746
ੜ੍ਹ	-10.6747
▁ਅੱਧੇ	-10.675
ਟਿੰਗ	-10.6753
▁ਕਬੂਲ	-10.6754
ਾਹ	-10.6762
▁ਪ੍ਰਤੀਸ਼ਤ	-10.6766
▁1921	-10.6766
▁ਹਜ਼ਰ	-10.6768
▁ਗਿ	-10.677
ਭਰ	-10.6771
▁ਪੰਡਤ	-10.6773
ਤ੍ਰ	-10.6775
ਮਰਾ	-10.6777
▁ਫਾਰਮ	-10.6778
▁ਰਾਇਲ	-10.6784
ਪੂਰਣ	-10.6785
▁ਕਿੱਤਾ	-10.6786
▁ਨਿੱਕੀ	-10.6793
▁ਕਿੰਗਡਮ	-10.6796
▁ਰੂਬਲ	-10.6796
▁1949	-10.6797
▁ਚਲਦੇ	-10.6807
▁ਗ਼ਜ਼ਲ	-10.681
▁ਸੰਗਮ	-10.681
ੱਧ	-10.6817
▁ਜੋੜੀ	-10.6825
▁ਵਿਆਸ	-10.6827
▁ਵਿਕ	-10.6831
▁ਪੰਜਵੀਂ	-10.6831
▁ਛੱਤ	-10.6837
▁ਕਰਾਰ	-10.6844
▁ਬੋਸ	-10.6853
▁ਮੋਟੇ	-10.6855
▁ਵਰਤਾਰਿਆਂ	-10.6855
48	-10.6856
ਸਕੀ	-10.6858
▁ਸਾਊਥ	-10.6861
▁ਪ੍ਰਚੱਲਤ	-10.6862
▁ਪਰਿ	-10.6868
▁ਸਮੂਹਾਂ	-10.6875
▁ਰਾਸ਼ੀ	-10.6879
▁ਹੱਥਾਂ	-10.6882
▁ਓਸੇ	-10.6884
▁ਸੂਬਿਆਂ	-10.6888
▁ਵੇਲ	-10.6889
▁ਵਰਤਾਰਾ	-10.6889
ਸ਼ਾਹੀ	-10.6893
▁ਵੋਟਰ	-10.6898
▁ਕ੍ਰਾਂਤੀਕਾਰੀ	-10.6898
▁ਨਸਲ	-10.6903
▁ਬਲਾਂ	-10.6905
ਿਰ	-10.6907
▁ਜਾਦਾ	-10.691
▁ਪ੍ਰਣਾਲੀਆਂ	-10.6913
▁ਪੌਦਿਆਂ	-10.6919
▁ਸ਼ੇਅਰ	-10.6923
▁ਵਿਧਾ	-10.6928
▁ਫ਼ਰਕ	-10.6933
ਾੲੀ	-10.6941
ਲਾਂ	-10.6945
▁ਹਸਨ	-10.6945
▁ਵੈਦਿਕ	-10.695
▁ਪ੍ਰੀਮੀਅਰ	-10.695
▁ਕਰਵਾਉਂਦਾ	-10.695
ੱਮ	-10.6951
▁ਖੂਹ	-10.6957
▁ਲੇਖਾਂ	-10.6958
▁ਨਿਉ	-10.696
▁ਫ਼ਤਿਹ	-10.6962
▁ਕਲਾਕਾਰਾਂ	-10.6962
1⁄2	-10.6965
▁ਲਾਈਨਾਂ	-10.6968
▁ਬਹੁਤਾ	-10.6968
ਵਾਈ	-10.697
▁ਸ਼ਰਾਬ	-10.6971
▁ਏਕਤਾ	-10.6972
▁ਇੰਡੋਨੇਸ਼ੀਆ	-10.6975
▁ਮੁਲਤਾਨ	-10.6975
▁ਉਤਪਾਦ	-10.6977
▁ਡੱਚ	-10.6983
▁ਨਹਿਰ	-10.6986
▁ਗ੍ਰੈਜੂਏਸ਼ਨ	-10.6988
▁ਉਤਸ਼ਾਹਿਤ	-10.6989
▁ਜੀਨ	-10.6991
▁ਦੱਸੇ	-10.6991
▁ਨਿਵਾਸੀ	-10.6993
▁ਜਵਾਹਰ	-10.6995
▁ਨੈਤਿਕ	-10.6998
01	-10.6998
▁ਵਿਵਹਾਰ	-10.7003
▁but	-10.7004
▁ਆਸਪਾਸ	-10.7013
ਰਿਸ	-10.7019
▁ਸਹਿਯੋਗੀ	-10.7022
ਨਿਊਕਲੀਅਰ	-10.7027
▁ਬੈਂਗ	-10.7028
39	-10.7043
▁ਯੂਨਾਈਟਿਡ	-10.7044
▁ਸੰਦੇਸ਼	-10.7045
▁ਯੂਨੀਵਰਸਿਟੀਆਂ	-10.7047
▁ਚੀ	-10.7048
▁ਵਿੱਖੇ	-10.7049
▁ਸਕੁਏਅਰ	-10.7051
▁ਹਾਲੇ	-10.7052
▁ਸੋਮ	-10.7052
▁ਸਿਕੰਦਰ	-10.7054
▁ਕਰੇਗੀ	-10.7055
▁ਟੈਕਸ	-10.7058
▁ਵਰਗਮੂਲ	-10.7059
ਸ਼ਾਂ	-10.7062
▁ਗੇਮ	-10.7069
▁ਧੁਨੀਆਂ	-10.7071
▁ਪੁਰਤਗਾਲ	-10.7074
▁ਐਕਪੋਨੈਂਸ਼	-10.7075
▁ਮੀਡੀਅਮ	-10.7075
▁ਸ਼ਿਖਰ	-10.7075
▁ਤੇਲਗੂ	-10.7076
▁ਤਲਾਕ	-10.7077
▁ਦਰਿਆਵਾਂ	-10.708
▁ਪੁਰਾਣੀਆਂ	-10.708
▁1000	-10.7083
ਅਵਸਥਾਵਾਂ	-10.7084
▁ਨਾਤੇ	-10.7091
▁ਸ਼ੈ	-10.7098
’,	-10.71
▁ਵਿਦੇਸ਼	-10.7103
▁ਮਕੈਨਿਜ਼ਮ	-10.7107
▁ਪ੍ਰੀਖਿਆ	-10.7107
▁ਕਸਬੇ	-10.7107
▁ਚੈੱਕ	-10.7107
▁1955	-10.7108
▁ਘਟਨਾਕ੍ਰਮ	-10.7108
▁ਜ਼ਰੂਰਤ	-10.7109
ਫਲ	-10.7109
▁ਸ਼੍ਰੇਣੀਬੱਧ	-10.7111
▁ਸ਼ਿਫਟ	-10.7113
▁ਪਿਆਰਾ	-10.7114
▁ਔਲਾਦ	-10.7118
▁ਸਖਤ	-10.7118
▁ਜਿੰਨ	-10.7119
▁ਦੇਖਦਾ	-10.7123
ਪੁਰਾ	-10.7126
▁ਉਲ	-10.7127
▁ਰਸਮਾਂ	-10.7127
▁ਸੁੰਦਰਤਾ	-10.7127
▁ਗਲਪ	-10.7128
▁ਪਲੇਟ	-10.7132
▁ਰੇਅ	-10.7135
ਪੇਰਾਨਤੋ	-10.7138
▁ਕਬੀਲਿਆਂ	-10.7139
▁ਕਰਾਚੀ	-10.7139
▁ਟਿੱਪਣੀ	-10.7139
▁ਨਿਗਰਾਨੀ	-10.7143
▁ਘ	-10.7143
▁ਆਲੋਚਕਾਂ	-10.7149
▁ਡਿਜ਼ਾਇਨ	-10.7149
▁ਚਿੱਟੇ	-10.7149
ਪੱਖੀ	-10.7154
▁ਦੀਪ	-10.7154
ਮਿਕ	-10.7158
▁ਵੇਚ	-10.716
’’’’’	-10.717
‘‘‘	-10.717
▁ਜੌਹਨ	-10.717
▁ਆਈਸਲੈਂਡ	-10.717
▁ਹਿੰਸਾ	-10.717
at	-10.7171
▁ਪੈਮਾਨਿ	-10.7171
ਮੰਡਲ	-10.7172
ਕੋਨ	-10.7173
▁1917	-10.7173
ਤਰੀ	-10.7178
ਲਡ	-10.7183
▁ਬਦਲਦੀ	-10.7188
▁ਨੀਲੇ	-10.7196
ਵਿਚ	-10.7197
▁ਆਈਆਂ	-10.7198
U	-10.72
▁ਰੈਂਕ	-10.7205
▁ਸਮੀਖਿਆ	-10.7211
▁ਕਾਂਸੀ	-10.7222
▁ਵਸ	-10.7224
ੂਨ	-10.7224
▁ਅਜਾਇਬ	-10.7234
▁ਸੈਟੇਲਾਈਟ	-10.7234
ਲਮ	-10.7235
▁ਤਹਿ	-10.7237
▁ਬਨਾਮ	-10.724
▁ਆਦੇਸ਼	-10.7241
▁ਵਾਪਰਦਾ	-10.7241
ਖੇ	-10.7243
▁ਗਾਣੇ	-10.7244
ਬੰਦ	-10.7244
'}	-10.7247
▁ਪ੍ਰੋਗਰਾਮਾਂ	-10.7249
▁ਲੱਖਾਂ	-10.7253
ਸ਼ੇ	-10.7259
▁ਭੂਮਿਕਾਵਾਂ	-10.726
ਤਾਵਾਂ	-10.7262
▁ਵੀਹ	-10.7266
▁ਸਾਨ	-10.7268
ਵਿਨ	-10.7272
▁ਚੌ	-10.7272
▁ਡਿਗਰੀਆਂ	-10.7276
▁h	-10.7279
▁ਵਿਆਕਰਨ	-10.7279
▁ਝੀਲਾਂ	-10.7282
▁ਪ੍ਰਸ਼ਨ	-10.7284
▁ਦਿਮਾਗ	-10.7284
ੋਵ	-10.7295
▁ਰਸਤਿਆਂ	-10.7299
▁1935	-10.73
▁ਉਦਯੋਗਿਕ	-10.73
ਿਜ਼ਮ	-10.7303
▁ਪਹੁੰਚਿਆ	-10.7305
35	-10.7305
▁ਕੋਰੀਆਈ	-10.7309
▁ਐਕਟਰ	-10.7309
▁ਮੋਮੈਂਟ	-10.7315
▁ਟਾਈਮਲਾਈ	-10.7315
ਪੈਕਟ	-10.7316
▁re	-10.7318
31	-10.7318
ਮਾੱਨ	-10.7319
▁ਖਾਣੇ	-10.7319
▁ਦਾਦਾ	-10.7321
▁ਗੋਦ	-10.7324
▁ਗੲੀ	-10.7332
▁ਲੈਂਦੀਆਂ	-10.7338
ੱਖ	-10.7339
▁ਲਗਦੇ	-10.734
ਹਨ	-10.7343
▁ਭਾ	-10.7344
▁ਜੀਵਾਂ	-10.7345
▁ਚਿੰਤਕ	-10.7348
li	-10.7351
ੀਕ	-10.7354
▁ਬੇਟੀ	-10.7355
▁ਉਹਦੇ	-10.7356
▁ਵਸੇ	-10.736
▁ਫ਼ਲਸਫ਼ੇ	-10.7363
▁ਰਿਸ਼ਤਿਆਂ	-10.7363
▁ਪੇਟ	-10.7365
▁ਪ੍ਰਾ	-10.7367
▁ਵੈਸਟ	-10.7377
▁ਨਿਰਦੇਸ਼ਿਤ	-10.738
ਵਿਲ	-10.7381
▁ਸਲੋਕ	-10.7385
ਸਮ	-10.7388
78	-10.7394
▁ਹਿਟਲਰ	-10.7395
▁ਫੈਸ਼ਨ	-10.7397
▁ਹਰਾਇਆ	-10.7397
▁ਸਲਾਹਕਾਰ	-10.7408
36	-10.7411
▁ਬਾਪ	-10.7413
ਜਿ	-10.7416
▁ਸੁਹਜ	-10.7417
▁ਆਂਧਰਾ	-10.7417
ੇਜ	-10.7418
ਸੀਆ	-10.742
▁ਸ਼ਾਦੀ	-10.7432
▁ਉਨਾਂ	-10.7436
ਨਜ਼	-10.7436
ਖੰਡ	-10.7438
▁ਗੁਆ	-10.7439
▁ਰੌਸ਼ਨੀ	-10.7439
▁ਚੱਲਿਆ	-10.7443
▁ਅਣੂ	-10.7445
▁ਮੋਮੈਂਟਾਂ	-10.7448
▁ਲੜ	-10.7448
]	-10.7451
▁ਯੂਰੋਪੀ	-10.7455
▁ਕੌ	-10.7456
▁ਜਰਨਲ	-10.746
▁ਪੈਨ	-10.7461
ੰਨ	-10.7463
▁ਮਦਰਾਸ	-10.7471
▁ਮਿਥਿਹਾਸ	-10.7471
ਸ਼ਾਸਤਰ	-10.7471
▁ਭਾਵਨਾਵਾਂ	-10.7471
▁ਕਸ਼ਮੀਰੀ	-10.7473
ਬਰਾ	-10.7483
▁±	-10.7483
▁ਸਟੋਰ	-10.749
▁ਨਾਰਵੇ	-10.7491
▁ਕਜ਼ਾਖ਼ਸਤਾਨ	-10.7493
▁ਪੰਚਾਇਤ	-10.7493
▁ਰਸਾਲੇ	-10.7494
▁1981	-10.7494
▁1939	-10.7495
▁1922	-10.7495
▁ਭਾਸ਼ਾਈ	-10.7498
ਲਿਸ	-10.75
▁ਸੈ	-10.7501
ਸਾਨ	-10.7503
▁ਸਮਿ	-10.7503
▁36	-10.7507
▁ਡਾਂਸ	-10.7507
▁ਡਿੱਫਰੈਂਸ਼ੀ	-10.7508
▁ਅਲੰਕਾਰ	-10.7512
ਟੂ	-10.7514
▁ਅਨਿਸ਼ਚਿਤ	-10.7514
ਬਰੇਨ	-10.7516
ψ	-10.7521
▁ਗੱਦੀ	-10.7521
▁ਰੁਕ	-10.7521
▁ਮੱਧਕਾਲੀ	-10.7528
ate	-10.7528
ਔ	-10.7536
▁ਖੁਸ਼	-10.7537
▁ਜਟਿਲ	-10.7544
ਉਣ	-10.7547
mathb	-10.7547
▁ਲੋਕੇਸ਼ਨ	-10.7548
▁ਗੁਆਂਢੀ	-10.7551
▁ਸਕ	-10.7555
▁ਥ	-10.7556
▁ਮੁਸ਼ਕਿਲ	-10.7559
▁ਰੁਝਾਨ	-10.756
੍ਹਾ	-10.756
▁ਗ੍ਰਾਮ	-10.7561
▁ਕੋਵੇਰੀਅੰ	-10.7561
▁ਦਿਖਾਏ	-10.7567
▁ਔਰਬਿਟ	-10.7568
▁ਚੋ	-10.7577
▁ਸਰਕਾਰਾਂ	-10.7579
21	-10.7584
ਅਾ	-10.7585
▁ਪ੍ਰਸਾਦ	-10.7585
▁ਗੁਰਦਾਸ	-10.7588
▁ਰੂਹਾਨੀ	-10.7592
▁ਗੁਰਬਾਣੀ	-10.7593
ਵੰਤ	-10.7595
▁ਡੈਮ	-10.7597
88	-10.7598
▁ਲੱਭਣ	-10.7599
▁ਚਲਦੀ	-10.7604
ੱਬ	-10.7609
▁ਪਾਤਰਾਂ	-10.7614
▁ਥਰਮੋਡਾਇਨਾਮਿਕ	-10.7619
ਮਹਾਂਦੀਪ	-10.762
▁ਜੂ	-10.7625
▁ਪ੍ਰਸਿਧ	-10.7626
▁1946	-10.7627
▁ਬੌਧਿਕ	-10.7629
▁ੳੁਸਨੇ	-10.7629
▁ਵੱਸ	-10.7632
ਾਬ	-10.7633
▁ਕੀੜੇ	-10.7636
ਤਵ	-10.7638
ਲਿਆ	-10.7646
▁ਪੀੜੀ	-10.7656
66	-10.7658
▁ਇਨਵੇਰੀਅੰਸ	-10.7659
▁ਰੇਲਗੱਡੀ	-10.7659
▁ਪ੍ਰਸ਼ੰਸਾ	-10.7659
▁ਡੇਰਾ	-10.7659
▁ਸੁੱਟ	-10.766
▁ਸਟ੍ਰਿੰਗ	-10.766
▁ਯਾਰ	-10.7661
ਤੇਜ਼ੀ	-10.7666
▁ਦੋਹਰੇ	-10.7666
▁ਬੁੱਧੀ	-10.7668
▁ਘਟਾਉਣ	-10.767
▁ਘੋਲ	-10.768
ਲੈ	-10.7686
ਫਿਕ	-10.769
ਜਾਤ	-10.7692
{\	-10.7692
▁ਇੰਡੈਕਸ	-10.7692
▁ਵਿਦਿਅਕ	-10.7692
▁ਸੁਝਾਅ	-10.7693
▁°	-10.7694
−	-10.7697
▁ਮਨੋ	-10.7702
▁ਤੀਰਥ	-10.7703
ੋਲ	-10.7707
ੀਅਤ	-10.7708
▁1⁄2	-10.771
▁ਪੰਛੀਆਂ	-10.7712
▁”	-10.7715
▁ਇੱਕਸਾਰ	-10.7725
▁ਅਲਬਾਨੀਆ	-10.7726
▁ਗਰੀਕ	-10.7727
▁ਤੀਬਰਤਾ	-10.7727
ੁਰਾ	-10.7734
▁ਵਰਜਿਨ	-10.7736
ਸਤਾ	-10.7743
ਾਈਡ	-10.7745
▁ਉਪਨਿਸ਼ਦ	-10.7745
▁ਘੜੀਆਂ	-10.7748
▁ਮੀਟਿੰਗ	-10.7749
▁?	-10.775
me	-10.7751
49	-10.7752
ct	-10.7756
▁ਕੁਰਾਨ	-10.7757
▁ਘੜੀ	-10.7757
▁ਵਿਅੰਗ	-10.7759
▁ਅਰਮੀਨੀਆ	-10.776
▁ਘਰਾਣੇ	-10.776
▁ਫਾਰਮੂਲਿ	-10.776
ਤਾਰ	-10.776
▁1937	-10.7761
▁1933	-10.7761
▁1929	-10.7761
▁ਨਾਰੀਵਾਦੀ	-10.7762
▁ਓਪ	-10.7772
ਐਫ	-10.7777
▁ਐਡ	-10.7779
▁ਇੰਜਣ	-10.7784
▁ਜੇਮਸ	-10.7787
▁-1	-10.7792
ਕੈ	-10.7792
▁ਈਵੈਂਟ	-10.7794
▁ਮਹ	-10.7797
▁ਮੁੱਢਲੇ	-10.78
▁ਜੈਪੁਰ	-10.7801
▁ਚਲਿਆ	-10.7804
▁ਥੋੜ੍ਹੀ	-10.7805
▁ਕੋਸ਼ਿਸ਼ਾਂ	-10.7811
▁ਕੁਛ	-10.7813
▁ਤਲਵੰਡੀ	-10.7815
▁ਅਾ	-10.7816
ਡਲ	-10.7817
ੱਠ	-10.7821
▁can	-10.7822
▁ਪਾਪ	-10.7822
ੁਮ	-10.7827
▁ਐਕਸਪ੍ਰੈਸ	-10.7827
▁ਸੂਫੀ	-10.7828
▁1951	-10.7828
▁1904	-10.7829
▁1931	-10.7829
ਦੂਜੇ	-10.7829
▁ਇਨਸਾਨੀ	-10.7831
}}\	-10.7832
▁400	-10.7834
ਬਿ	-10.7835
▁ਤਮਗਾ	-10.7836
▁ਉਥੋ	-10.7845
▁ਬਲੀ	-10.7845
▁ਅਵਤਾਰ	-10.7846
ਸ਼ਕਤੀ	-10.7848
ਕਮ	-10.7848
as	-10.7852
▁ਬੱਸ	-10.7853
▁ਖਗੋਲੀ	-10.7854
ਾਉ	-10.7855
▁ਸਤਿਕਾਰ	-10.7862
▁ਸਤ੍ਹਾ	-10.7862
▁ਬਹਿਸ	-10.7862
64	-10.7868
ੈਡ	-10.7869
55	-10.7873
ਕਟ	-10.7874
▁ਬੌ	-10.7876
▁ਪਲਾਂਟ	-10.7876
▁ਪ੍ਰੋਟੌਨ	-10.7882
▁ਕਾਰਜਾਂ	-10.7882
▁ਅੰਗਾਂ	-10.7891
▁ਰਹੱਸ	-10.7893
ੇਸ	-10.7894
▁ਤਮਿਲ	-10.7894
੦੦੦	-10.7895
▁should	-10.7895
▁ਪਰੋਗਰਾਮ	-10.7895
▁ਗੁਰੁਤਾਕਰਸ਼ਣ	-10.7895
ਮੇਨ	-10.7896
▁ਜੀਓਡੈਸਿਕ	-10.7896
ਨੂ	-10.7897
ਤੁ	-10.7898
ਬੰਦੀ	-10.7901
▁ਬੇਗਮ	-10.7902
▁ਮਜ਼ਦੂਰ	-10.7902
▁ਰੌਡ	-10.7903
▁ਫਤਹਿ	-10.7903
▁ਐਂ	-10.7904
ਮੇਲ	-10.7905
▁ਵੈ	-10.7906
ਸਾਹਿਤ	-10.7908
▁ਨਿਕਲਦਾ	-10.7909
}\	-10.792
▁ਉਤਸ਼ਾਹ	-10.7927
▁ਜੰਗਲਾਂ	-10.7927
▁ਤੌਂ	-10.7929
▁ਡੂੰਘੀ	-10.793
ੇਗਾ	-10.7931
▁ਪਰੰਪਰਾਗਤ	-10.7931
#	-10.7932
▁ਕੰਪਨ	-10.7933
▁ਪ੍ਰਕ੍ਰਿਆਵਾਂ	-10.7939
▁ਸਫਰ	-10.7946
▁ਚੁੱਕੀਆਂ	-10.7947
▁ਸਹਾਰਾ	-10.7956
▁ਚੀਜਾਂ	-10.7957
▁ਡਬਲ	-10.796
▁ਬੰਦੇ	-10.7962
▁ਖੋਜਾਂ	-10.7964
▁ਟੈਲੀਪੋਰਟੇਸ਼ਨ	-10.7964
▁ਪਾਈਔਨ	-10.7964
▁ਵਰਖਾ	-10.7966
▁ਦਿਨਾ	-10.7968
▁ਹਾਜ਼ਰ	-10.7979
96	-10.798
▁ਆਰਥਿਕਤਾ	-10.7981
ਕ੍ਰਮ	-10.7982
54	-10.7986
▁ਵੈਨ	-10.7998
▁ਸਵਿਟਜ਼ਰਲੈਂਡ	-10.7998
▁ਅਜ	-10.7999
▁ਅੰਗ੍ਰੇਜ਼ੀ	-10.8004
▁ਆਕਰਸ਼	-10.8006
▁ਇਹੋ	-10.8012
▁ਰੀਤੀ	-10.8013
ਕਿਸੇ	-10.8016
ੜੀਆਂ	-10.8022
ਰਜ	-10.8022
▁ਖਿਆਲ	-10.8024
▁ਬੁੱਕ	-10.8024
▁ਪਾਲੀ	-10.8024
▁ਬਾਲਗ	-10.8027
▁ਗਾਇਕੀ	-10.8032
▁ਪਿਸ਼ਾਬ	-10.8033
▁ਬਗ਼ਾਵਤ	-10.8033
▁ਸਮੂਹਿਕ	-10.8034
▁4.	-10.8037
▁ਅੱਪ	-10.8046
ਧਰਮ	-10.8048
ਾਣ	-10.8048
ੌਲ	-10.8049
K	-10.8053
ਵਿਰੋਧੀ	-10.8055
XK	-10.8059
▁ਬ੍ਰਹਮ	-10.8063
▁ਕੈਲ	-10.8063
ੱਤ	-10.8066
▁ਅਨਸਰਟਨਟੀ	-10.8068
▁ਆਸ਼ਰਮ	-10.8069
▁1908	-10.8069
03	-10.8069
▁ਸਪ	-10.8072
▁ਚੋਂ	-10.8074
▁ਦੋਹਰਾ	-10.8076
ੰਤੂ	-10.808
▁ਸੰਵਾਦ	-10.8083
ਕੰਪੋਨੈਂਟਾਂ	-10.8085
▁ਦਾਖ਼ਲ	-10.8087
▁ਪ੍ਰਸ਼ਾਸਨ	-10.8094
▁ਲੂ	-10.8095
XA	-10.8095
▁ਮਾਰਸ਼ਲ	-10.8103
▁ਬਸਤੀ	-10.8104
▁ਅੰਤਰਗਤ	-10.8105
ਗ਼	-10.8108
▁ਨਿਕਲਣ	-10.8109
▁ਧਰਮਾਂ	-10.811
▁ਵਾਸੀ	-10.811
▁ਚੁ	-10.8111
ਜ਼ਨ	-10.8119
▁no	-10.8122
▁ਘਟਾ	-10.8123
▁ਕਾਬਲ	-10.8124
▁1918	-10.8125
97	-10.8129
ਿਜ	-10.8129
ਰੰਗ	-10.8137
▁ਯਾਦਗਾਰ	-10.8137
▁ਕੈਲਕੁਲਸ	-10.8138
▁ਕੱਚ	-10.814
▁ਲੈਕੇ	-10.8142
▁ਅਕਾਸ਼	-10.8143
▁ਮਸਲੇ	-10.8143
ch	-10.8144
▁ਨਿਸ਼ਾਨਾ	-10.8146
ਾਮਿਲ	-10.8147
▁ਸਿੱਖਣ	-10.8148
▁ਪ੍ਰਮਾਣਿਕ	-10.8148
▁ਟੇਕ	-10.8156
se	-10.8158
ਭਾਈ	-10.8159
▁ਸਲ	-10.8167
▁ਜਾਦੂ	-10.8169
▁ਸੰਤੁਸ਼ਟ	-10.8171
▁ਸ਼ਰੀਰ	-10.8172
ਵਾਸ	-10.8173
ਰਾਸ਼ਟਰੀ	-10.8175
▁ਖਰੀਦ	-10.8182
▁44	-10.8193
▁ਪਤਨ	-10.8193
▁ਮਸੀਹ	-10.8198
▁ਜੋਤੀ	-10.8198
▁ਮੰਗਦੀ	-10.8198
▁ਝਲਕ	-10.8201
▁ਨਿਕਲਿਆ	-10.8204
▁ਉਤਪੱਤੀ	-10.8208
▁ਫ਼ੋਨ	-10.8209
▁ਅੱਗੋਂ	-10.8216
▁ਤਬਾਹ	-10.8219
▁ਜ਼ਰੂਰ	-10.8221
▁ਨੁੰ	-10.8223
▁ਹਾਕਮ	-10.8229
▁ਫੋਕ	-10.823
▁ਦਬਾ	-10.8233
ਬਾਦ	-10.8233
ਿਮ	-10.8234
▁which	-10.8243
▁ਪ੍ਰਵਾਨਗੀ	-10.8244
▁ਮਾਨਵੀ	-10.8247
▁ਕਨ	-10.825
▁ਹਿੰਦੂਆਂ	-10.8251
43	-10.8252
ha	-10.8254
▁ੳੁ	-10.8261
▁ਘੇਰੇ	-10.8264
▁ਉਦ	-10.827
▁ਕੰਡੇ	-10.8272
▁ਐਨਸੈਂਬਲ	-10.8279
▁ਸ਼ਖਸੀਅਤ	-10.8279
▁ਵਾਕੰਸ਼	-10.8279
▁150	-10.8279
▁ਬਾਹੂ	-10.828
▁ਅਨੰਦ	-10.8282
▁ਇਰਾਨੀ	-10.8284
text	-10.8289
▁ਸੇਨ	-10.8292
▁ਤੇਜ	-10.8292
ਰੈ	-10.8298
▁ਗੋਲਡ	-10.8299
▁ਡਿਜ਼ਾਈਨ	-10.831
J	-10.8312
▁ਸਾਈਟ	-10.8313
▁ਭਿਆਨਕ	-10.8314
▁ਪ੍ਰਯੋਗਸ਼ਾਲਾ	-10.8315
▁ਮਾਰਟਿਨ	-10.8315
▁ਰਿਸ਼ੀ	-10.8319
▁ਪੰਡਿਤ	-10.832
▁ਮਿਊਜ਼ੀਅਮ	-10.8327
▁ਲਿੰਕਨ	-10.8327
▁ਨਸਲੀ	-10.8328
▁ਕਾਮੇਡੀ	-10.8329
▁ਸਿਪਾਹੀ	-10.833
▁ਬਾਡੀ	-10.833
▁ਅਸ਼ੋਕ	-10.833
ff	-10.8331
▁ਯੂਨਾਇਟਰੀ	-10.8331
▁ਸੱਪ	-10.8331
▁ਦਸਵੀਂ	-10.8332
▁ਕੱਲ	-10.8335
▁ਅਫ਼ਸਰ	-10.8339
▁ਪਾਬੰਦੀ	-10.8339
▁ਵਾ	-10.8341
▁ਫ਼ਰ	-10.8345
▁ਹੈਕਟੇਅਰ	-10.8346
▁ਕੌਂਸਟੈਂਟ	-10.835
▁ਨੁਮਾਇੰਦਗੀ	-10.835
▁ਬੈਲਜੀਅਮ	-10.835
▁ਹਰਗੋਬਿੰਦ	-10.8351
▁ਬਾਬਰ	-10.8351
▁ਆਕਾਸ਼	-10.8352
ਲੋਨ	-10.8354
▁ਚਰਨ	-10.8357
▁ਪਹਿਲ	-10.8358
ੈਂਡ	-10.8359
▁33	-10.836
▁ਦੱਸੀ	-10.8366
▁ਮੌ	-10.8367
▁ਵਰਤਦੀ	-10.8368
ਤਿਆ	-10.837
▁ਅਫਸਰ	-10.8375
ੱਜ	-10.8375
▁ਦੱਸਣ	-10.8378
▁ਮੌਲਿਕ	-10.8381
▁ਯੂਰਪੀਅਨ	-10.8383
▁ਲੜਕੀ	-10.8384
▁ਉਜਾਗਰ	-10.8386
▁1958	-10.8387
‘	-10.8387
▁ਇਕੱਤਰ	-10.8389
न	-10.8389
β	-10.8397
ਰਮ	-10.8399
▁ਕਰਤਾ	-10.8404
ਉਦ	-10.8409
▁ਰੁਪ	-10.8414
▁ਸੋਸ਼ਲ	-10.8421
▁ਗਰੈਵ	-10.8422
ਤਰਾ	-10.8423
▁ਸਮੋਆ	-10.8424
▁ਸਫ਼ਲ	-10.8426
▁ਉਚਿਤ	-10.8429
▁ਬੁਰੀ	-10.843
▁ਹੌ	-10.8432
▁ਦਸ਼ਾ	-10.8433
▁ਵਜੇ	-10.8435
▁ਬੇਲਾ	-10.8437
▁ਐਂਗਲੋ	-10.8437
-19	-10.8441
▁ਮਹਲ	-10.8441
▁ਲਾਉਣ	-10.8441
▁}}	-10.8444
ਾਲਾ	-10.8448
ੱਛ	-10.8451
▁ਜਿੰਨ੍ਹ	-10.8453
▁ਵਾਨ	-10.8454
▁ਫ਼ਕੀਰ	-10.8458
▁Z	-10.8462
▁ਸੂਰਤ	-10.8464
▁ਚੌਧਰੀ	-10.8465
▁ਸੰਘਣੇ	-10.8465
▁ਚੇਅਰਮੈਨ	-10.8467
▁ਸ਼ੇ	-10.8473
▁ਆਂਕੜ	-10.8475
▁An	-10.8479
to	-10.8479
▁ਰਾਬਰਟ	-10.8483
ਦਿਨ	-10.8486
▁ਲਿਖਤੀ	-10.8489
ੀਓ	-10.8492
▁ਕਹਿੰਦੀ	-10.8495
▁1953	-10.8495
▁ਵੋਟ	-10.8496
▁ਭਾਲ	-10.8497
▁ਪਰਵਾਸੀ	-10.8502
▁ਬੋਸਨੀਆ	-10.8509
▁ਨੀਤੀਆਂ	-10.8512
▁ਖ਼ਿਤਾਬ	-10.853
▁ਕੈਰੋਲੀਨਾ	-10.8532
▁ਓਮਾਨ	-10.8532
▁ਲੋੜਾਂ	-10.8533
▁ਜੂਨੀਅਰ	-10.8534
▁ਚੜ੍ਹਦੇ	-10.8537
▁ਜਵਾਨੀ	-10.8543
▁ਅਫ਼ਗ਼ਾਨ	-10.8545
▁ਵਿਯੋਜਨ	-10.8546
▁ਰਾਜਸੀ	-10.8547
ਜਿਵੇਂ	-10.8548
ਪੈ	-10.8552
▁ਪ੍ਰਬੰਧਕੀ	-10.8559
ਮੀਨ	-10.856
▁ਫ਼ਿਲਪੀਨ	-10.856
▁ਸਮਾਪਤ	-10.8564
34	-10.8566
▁MeV	-10.8567
▁ਮਰਕਰੀ	-10.8569
ਉੱਦੀਨ	-10.8569
85	-10.8569
ਪੂਰਨ	-10.857
47	-10.8571
▁ਹਰਿਮੰਦ	-10.8576
▁ਛਪਣ	-10.858
▁ਫੈਲਾ	-10.8581
▁ਅਣੂਆਂ	-10.859
▁ਹੈਰਾਨੀ	-10.8597
▁ਡਿਸੇਅ	-10.8604
▁ਸਕਾਟਲੈਂਡ	-10.8604
▁ਸਾਂਭ	-10.8616
▁ਰੇਤ	-10.8617
▁ਕਟ	-10.8619
▁ਨੈੱਟਵਰਕ	-10.862
▁3‐	-10.8623
▁ਸਵ	-10.8623
▁ਓਰ	-10.8625
▁ਸ਼ੁ	-10.8631
ਰਾਹ	-10.8633
▁ਤੁਰ	-10.8633
63	-10.8636
ਤਮਕ	-10.8639
▁ਇੰਟਰਵਿਊ	-10.864
▁ਸਪਲਾਈ	-10.8641
▁ਕੱਛ	-10.8641
ਖੀ	-10.8641
▁ਔਰਡਰ	-10.8642
▁ਪ੍ਰਸਾਰਿਤ	-10.8647
ਡ਼	-10.8649
▁ਬਿਮਾਰੀਆਂ	-10.865
▁ਸ਼ਰ	-10.8651
▁ਆਮਦਨ	-10.8652
▁ਫੇਨਮੈਨ	-10.8653
ੀਦ	-10.866
ਨਾਮਾ	-10.8674
▁ਬਣਵਾਇਆ	-10.868
et	-10.8682
▁ਫੁਟਬਾਲ	-10.8683
▁ਟ੍ਰਾਂਸਫੌਰਮ	-10.8685
ੰਜ	-10.8685
ਗਰੁੱਪ	-10.8686
▁ਸੁਆਦ	-10.8689
ਰਾਏ	-10.869
▁ਸਵਾਦ	-10.8695
ਸ਼ਟ	-10.8698
▁42	-10.8699
▁ਗ਼ੁਲਾਮ	-10.8703
▁ਮੂੰਗਾ	-10.8703
▁ਸਾਮਾਨ	-10.8703
ਮੈ	-10.8704
▁ਇਕਬਾਲ	-10.8711
▁ਭੀੜ	-10.8714
▁ਸਾਈਬੇਰੀਆ	-10.8714
▁ਖੁਰਾਕ	-10.8715
▁ਵਸਨੀਕ	-10.8715
▁ਬਣਾਵਟ	-10.8715
▁ਸ਼ੌਕ	-10.8717
▁ਬੰਬਈ	-10.8722
▁ਰਿਆਸਤਾਂ	-10.8726
87	-10.8726
▁http	-10.8731
ਸਮਝ	-10.8735
▁ਸਵਾਲਾਂ	-10.8737
▁ਵਾਈਟ	-10.874
▁ਸੱਯਦ	-10.8743
▁ਟਕਰਾ	-10.8747
ਐਚ	-10.8749
▁ਡਿਸਟੈਂਸ	-10.8752
▁ਪਰਚਰਬੇਸ਼ਨ	-10.8752
▁ਜ਼ਬਾਨ	-10.8752
▁ਲਾਭਦਾਇਕ	-10.8752
▁ਦੌਲਤ	-10.8753
44	-10.8753
▁ਸੁਮੇਲ	-10.8753
▁ਵੱਜੋਂ	-10.8753
ਾਰਾ	-10.8755
▁ਸੋਲੋਮ	-10.8758
▁ਸੂਤਰ	-10.8768
▁ਉਤ	-10.8772
ਸਟ੍ਰਿੰਗ	-10.8774
ਿਕਲਪਿਤ	-10.8776
▁ਬੈਸਟ	-10.878
▁ਬਾਲਕਨ	-10.8781
▁ਪੁੰਨੂੰ	-10.8789
▁ਚੱਕਰਪਥ	-10.8789
▁ਅੰਡੇਮਾਨ	-10.879
ਧਾਰੀ	-10.879
▁ਦਿੱਖ	-10.8792
▁ਡੁੱਬ	-10.8794
▁ਕਾਂ	-10.8796
ਕੇਂਦਰ	-10.8796
▁ਥੋੜੀ	-10.8799
▁ਡਿਸਕ	-10.88
▁ਜਸ	-10.8807
▁ਢ	-10.8817
▁ਇੰਟਰਨੈੱਟ	-10.8826
▁ਬੌਰਨ	-10.8827
▁ਲਘੂ	-10.8827
▁ਮੋਰਚੇ	-10.8827
▁ਬੋਹਮ	-10.8842
ਵਿੰਦਰ	-10.8842
▁ਜੋੜਦਾ	-10.8844
ਰੇਸ	-10.8844
▁ਦੁਸ਼ਮਣ	-10.8844
▁ਲਗਾਉਂਦਾ	-10.8847
▁ਦੇਵਤਾ	-10.8852
▁ਆਓ	-10.8854
਼ਾ	-10.8862
▁ਪ੍ਰੋਫੈੱਸ	-10.8864
▁ਹੁ	-10.8864
▁ਅੰਤਰਾਲ	-10.8867
ਉਲ	-10.8869
▁ਲੂਣ	-10.8877
ਥੇ	-10.8882
▁ਪ੍ਰਤੀਤ	-10.8882
▁ਗਰੀਬੀ	-10.8888
▁ਲੇਖਿਕਾ	-10.8888
ਹਾਊਸ	-10.8888
▁ਦੋਸਤਾਂ	-10.8889
▁ਖਰਚ	-10.8902
▁ਦੇਹਾਂਤ	-10.8902
▁ਧੁਰਾ	-10.8902
▁ਮਾਤ੍ਰਾਵਾਂ	-10.8903
la	-10.8903
▁ਛਾ	-10.8905
▁ਪਹਿਲਵਾਨ	-10.8906
▁ਬਦਲਾ	-10.8907
▁ਅੰਡਰ	-10.8909
▁ਅਜ਼ਰਬਾਈਜਾਨ	-10.891
▁ਤੇਗ	-10.891
▁ਜੋਸ਼ੀ	-10.8911
▁ਡਾਕਟਰੀ	-10.8912
▁ਖੋਲ	-10.8914
▁ਪੂਰਕ	-10.8919
ਹੜ	-10.892
▁For	-10.892
▁ਕਾਰਕ	-10.8933
▁ਅਬਖ਼ਾਜ਼ੀ	-10.8939
▁ਮਾਹਿਰ	-10.894
੩	-10.8943
ਫਾਈ	-10.8947
▁ਦਸਤਾਰ	-10.8952
▁ਵਿਸ਼ਲੇਸ਼	-10.8958
(	-10.896
ੰਬ	-10.8971
▁ਟਨ	-10.8974
▁ਬੋਰ	-10.8976
ਪਾਸ	-10.8977
▁ਸ਼ਵਾਰਜ਼	-10.8977
▁ਸਵਾਮੀ	-10.8981
▁ਨਾਜ਼ੀ	-10.8981
▁ਚੰਦਰਮਾ	-10.8983
▁ਨਾਰੀ	-10.8983
▁ਹੋੲਿਅਾ	-10.8983
ਡਿ	-10.8986
▁ਉੱਘ	-10.8988
▁ਸਮੁੱਚੀ	-10.8989
▁ਬਹਾਦੁਰ	-10.8991
▁ਪਹੁੰਚੇ	-10.8995
ਹਲ	-10.8997
ਗੁਰ	-10.8998
▁ਡੂ	-10.9001
▁ਮਾਰੀਆ	-10.9003
ation	-10.9006
▁ਪ੍ਰੀ	-10.9006
▁ਮੀਟ	-10.9008
ਕੋਰ	-10.9009
▁ਸਾਜ਼	-10.901
▁ਪਾਠਕਾਂ	-10.901
ਬ੍ਰ	-10.9011
▁ਅੰਗਰੇਜੀ	-10.9014
sqrt	-10.9016
▁ਬਾਇਨਰੀ	-10.9016
▁ਵਿਨਾਸ਼	-10.9017
ਕਾਨੋਨੀਕਲ	-10.9017
▁1923	-10.9018
▁ਵਾਹ	-10.9019
▁ਸੈਂਕੜੇ	-10.902
ਮਾਤਰ	-10.9024
phi	-10.9024
▁ਗੁਲ	-10.9026
▁ਗੌਤਮ	-10.9028
▁ਧਰ	-10.903
▁ਮੂ	-10.9033
ad	-10.9034
▁ਜ਼ੀ	-10.9035
ਾਇਨ	-10.9037
▁ਵਰਮਾ	-10.9038
▁ਤਾਕਤਾਂ	-10.904
▁ਗੁਲਾਬੀ	-10.9042
ਅਮਰੀਕੀ	-10.9043
▁text	-10.9044
ਜ਼ੇ	-10.9052
ਕੋਵ	-10.9053
▁ਦੁਰ	-10.9053
▁ਅਜੀਬ	-10.9054
ਪਿੱਛਾ	-10.9056
▁ਲਿਜਾਂਦਾ	-10.9061
▁ਛਾਤੀ	-10.9061
98	-10.9066
▁ਵਾਪਸੀ	-10.9068
▁ਪੈਸਾ	-10.9071
▁ਪੁੱਜੇ	-10.9074
▁ਤੰਤਰ	-10.9074
73	-10.9079
07	-10.908
▁ਜੀਵਨੀ	-10.9081
ਬਰੀ	-10.9085
ਕਾਰਾਂ	-10.9086
50	-10.9087
ਸਿਨ	-10.9088
▁ਅਰਜਨਟੀਨੀ	-10.9092
▁ਸਿੰਗੁਲਰਟੀ	-10.9092
▁ਸ੍ਰੀਲੰਕਾ	-10.9092
▁ਹਾਂਗਕਾਂਗ	-10.9092
▁ਮਾਈਕਲਸਨ	-10.9094
▁ਮਾਰੂਥਲ	-10.9095
▁ਕਾਲ਼ਾ	-10.9095
▁ਅਤੀਤ	-10.9096
ੈਟ	-10.9096
▁ਸਪੋਰਟਸ	-10.9097
▁ਸੜਕਾਂ	-10.9098
▁ਸਕੋਰ	-10.9099
▁ਦੂਜੀਆਂ	-10.9102
ਪਟ	-10.9106
▁ਅੰਗਰੇਜ	-10.9106
▁ਪਹੁੰਚਦੀ	-10.9109
▁ਸ਼ਾਂਤ	-10.9114
▁ਮਧ	-10.9115
▁ਖੇਤਾਂ	-10.9116
▁ਕੈਨੇਡੀਅਨ	-10.9123
▁38	-10.9124
▁ਮਾਰੀ	-10.9125
▁ਵੇਦ	-10.9126
▁^{2}}	-10.9128
▁ਗੁਰਦੁਆਰੇ	-10.9131
▁ਸੁਚਾਲਕ	-10.9131
▁ਫ਼ਰੀਦਕੋਟ	-10.9132
▁ਪੈਲੇਸ	-10.9132
▁ਫਿੱਟ	-10.9132
▁ਵਿਸ਼ਨੂੰ	-10.9132
▁ਬਾਲਟਿਕ	-10.9133
▁ਮਾਤਰ	-10.9135
▁ਸ਼ਾਨ	-10.9135
▁ਪੀੜਤ	-10.914
੍ਵ	-10.9142
ਲਾਈਨ	-10.9142
▁ਬੁਰਜ	-10.9143
▁ਸਿੱਧੂ	-10.9144
▁ਕੇਂਦ੍ਰਿ	-10.9148
▁ਚੁਣੀ	-10.9157
▁ਸੈਨਿਕਾਂ	-10.9167
▁ਪਠਾਰ	-10.917
▁ਕੈਲਕੁਲੇਸ਼ਨ	-10.917
▁ਵਧਿਆ	-10.917
▁ਸੋਮੋ	-10.9172
▁ਦਰਸਾਓ	-10.9175
▁ਸਹੂਲਤਾਂ	-10.9177
▁ਲੈਨਿਨ	-10.9179
V	-10.918
▁ਕਰਨਗੇ	-10.9181
▁ਪ੍ਰਬੰਧਨ	-10.9183
▁ਫੈ	-10.9184
▁article	-10.9191
▁ਝੰਡਾ	-10.9194
▁ਮੰਗੋਲ	-10.92
lo	-10.9202
▁ਪਰਮ	-10.9205
ਕਾਮ	-10.9208
▁ਤਿੱਬਤ	-10.9209
▁ਸਿੱਕੇ	-10.921
▁ਪੁਰਜੇ	-10.921
▁ਸੁੱਖ	-10.9215
▁ਬਾਲੀ	-10.9216
▁ਡਬਲਿਊ	-10.9217
`,	-10.9217
▁ਵਧਦਾ	-10.9219
ਨਿਕ	-10.9222
▁ਖੇਡੀ	-10.9224
▁ਸੈਂਟ	-10.923
▁ਜਾਣੂ	-10.9235
▁ਰਖਿਆ	-10.9235
ω	-10.924
▁ਰੋਮਾਨੀਆ	-10.924
੯	-10.9241
▁ਪ੍ਰੰਪਰਾ	-10.9243
▁ਕਰਾ	-10.9247
▁ਪਰਖਾਂ	-10.9253
▁ਭਗਤਾਂ	-10.9255
▁ਦੱਤ	-10.9257
▁ਰਚੇ	-10.9258
▁ਕਿਸ਼ੋਰ	-10.926
▁ਚੇ	-10.9261
੍ਹੇ	-10.9262
▁ਸੁਧਾਰਾਂ	-10.9273
▁ਪੱਧਰੀ	-10.9274
ਿਗ	-10.9279
▁ਟੈ	-10.9279
▁ਅਲਾ	-10.9281
ੰਦਾ	-10.9282
ਰੇਨ	-10.9284
▁ਸੰਚਾਲਨ	-10.9287
▁ਉੱਤਰਾਖੰਡ	-10.9287
▁ਅਮੂਰਤ	-10.9287
▁ਕੇਂਦਰਿਤ	-10.9288
▁ਸਾਊਦੀ	-10.9288
▁ਝ	-10.9295
68	-10.9297
▁ਮਲਵਈ	-10.9305
▁ਬਖ਼ਸ਼	-10.9308
▁ਸਵੇਰੇ	-10.931
▁ਦਵਾਈ	-10.9313
▁ਗੋਲਡਨ	-10.9317
▁ਫੈਲੇ	-10.9319
▁ਅੱਧੀ	-10.9321
▁ਫ਼ਿਰ	-10.9323
▁ਸੁੱਪਰ	-10.9324
▁ਅਗਰ	-10.9324
▁ਹਸਤਾਖਰ	-10.9326
▁ਬੀਰ	-10.9328
ਕਥਾ	-10.9329
▁ਰਹੇਗਾ	-10.933
▁ਨਾਰਵੇਈ	-10.9334
▁ਸੱਦਾ	-10.9334
ਮਸ	-10.9339
▁ਘੁੰਮਣ	-10.9342
▁ਕੈਂਪ	-10.9345
▁ਸਾਮ	-10.9346
▁ਉਤਪਾਦਾਂ	-10.9347
ਮਾਰਕ	-10.9351
000	-10.9354
▁ਸੋਲ	-10.9358
▁ਵਿਅਕਤ	-10.9359
▁other	-10.936
▁ਦੋਨੋ	-10.9364
▁ਵੰਡੇ	-10.9365
▁ਅਧਿਆਪਨ	-10.9366
▁ਵਜ਼ੀਰ	-10.9366
▁ਨੰਦ	-10.9366
▁ਸੰਖਿਅਕ	-10.9366
▁ਫ਼ੋਕਸ	-10.9366
▁ਪ੍ਰਧਾਨਮੰਤਰੀ	-10.9366
▁ਨਾਰ	-10.9367
▁ਹੁਨਰ	-10.9367
▁ਧੁਰਿ	-10.9373
▁ਵੂ	-10.9374
▁ਵੇਖਦੇ	-10.9386
▁ਸਤਲੁਜ	-10.9392
ਲੁ	-10.9395
▁ਤਾਰਾਂ	-10.9398
▁ਪਸ਼ੂਆਂ	-10.9401
▁ਹਿੰਦੁਸਤਾਨੀ	-10.9402
if	-10.9403
▁ਵਿਸਤਾਰ	-10.9407
▁ਕੈਸਪ	-10.9407
ਰੇਖਿਕ	-10.9408
▁ਦਰਸਾਈਆਂ	-10.9412
ion	-10.9414
▁ਵਿਕਰੀ	-10.9414
▁ਮੋਤੀ	-10.9415
ੀਕਨ	-10.9415
▁ਚਲਾਈ	-10.9426
▁ਜਹਾਜ	-10.9431
▁ਸਮਾਗਮ	-10.9438
▁ਹੰਸ	-10.9438
▁ਸਾਧਨਾਂ	-10.944
▁ਖੰਭਾ	-10.9441
>	-10.9441
95	-10.9445
▁ਮੀਂਹ	-10.9446
▁ਆਕਸੀਜਨ	-10.9446
▁1943	-10.9447
▁ਯਮਨ	-10.9449
▁ਸਿਲ	-10.945
ਘਾ	-10.9459
ਅਸ	-10.9461
▁ਲਕੀਰ	-10.9461
math	-10.9462
▁ਵਟਾਂਦਰਾ	-10.9463
▁ਗੁਰਦਾਸਪੁਰ	-10.947
▁ਕੁਰ	-10.9473
▁ਬੀਚ	-10.9478
▁2-	-10.9479
▁ਬੌਬ	-10.9481
▁ਉੱ	-10.9482
▁ਮਨਮਰਜ	-10.9486
▁ਪੇਸ਼ਾਵਰ	-10.9489
▁ਮੁੰਡਾ	-10.9491
▁55	-10.9495
ਕਦੇ	-10.9495
▁ਹੋਇਆਂ	-10.9502
▁ਥੋੜ੍ਹੇ	-10.9503
▁ਲਾਇਨ	-10.9504
▁ਸਵਾਰ	-10.9508
▁ਭੰਗ	-10.9509
▁ਫੰਡ	-10.9509
▁ਟਿਕੀ	-10.951
▁ਕਾਨ	-10.9515
▁ਫ਼ਿਲਮੀ	-10.9517
▁ਕੂ	-10.9519
▁ਚਰਿੱਤਰ	-10.9526
▁ਮਲੇਰਕੋਟਲਾ	-10.9526
▁ਝੁਕਾਓ	-10.9526
▁ਲਾਂਘ	-10.9527
▁ਆਗਰਾ	-10.953
▁ਲਈਆਂ	-10.9533
▁ਦਮ	-10.9534
ਅਵਸਥਾ	-10.9538
▁ਫਿਲਾਸਫੀ	-10.9541
04	-10.9541
ਜਲ	-10.9548
▁ਇਵੇਂ	-10.955
ਠੇ	-10.9561
▁ਜ਼ਰੀਏ	-10.9563
▁ਲਹਿਰਾਂ	-10.9563
▁ਬਹੁਤੀ	-10.9565
[	-10.9566
▁ਸੈਂਟੀਮੀਟਰ	-10.9566
▁ਸਰਵੇਖਣ	-10.9566
ਚਲ	-10.9566
▁ਹਾਇਕੂ	-10.9566
▁ਸਟੈਂਡਿੰਗ	-10.9567
▁ਰੈਫ	-10.9567
▁ਸਹੂਲਤ	-10.9568
▁ਪ੍ਰੀਤਮ	-10.9576
ੋਪ	-10.9578
ੱਥੇ	-10.9578
▁ਸੂਚਕਾਂਕ	-10.9582
ਦਰੀ	-10.9582
▁ਅਲਬਰਟ	-10.9583
▁ਸੰਗਠਨਾਂ	-10.9584
▁ਬੇਲ	-10.9587
▁ਸਿੱਧੀਆਂ	-10.9589
▁ਤਦ	-10.959
ਸ਼ਿ	-10.9592
and	-10.9599
▁ਸਪੈਕਟ੍ਰ	-10.96
▁ਕਲਾਵਾਂ	-10.9602
▁ਅਭਿਨੈ	-10.9607
▁ਰੰਗਮੰਚ	-10.9607
ਯੂਰਪੀ	-10.961
▁ਫੈਲਦੀ	-10.9612
▁ਇਕੱਲੇ	-10.9613
▁ਜੱਦੀ	-10.9621
▁ਡਾਕ	-10.9621
▁ਸਿਰਜਣ	-10.9625
▁ਕਮਾਲ	-10.9629
▁ਲਗਾਏ	-10.9633
ੈੱਟ	-10.9639
▁ਸੰਖਿਆਵਾਂ	-10.9641
▁ਫੈਲੀ	-10.9645
▁(	-10.9647
▁ਬੁਲਾਇਆ	-10.9648
ਫੀਲਡ	-10.9648
▁ਏਂਗਲਜ਼	-10.9648
▁2‐	-10.9649
mi	-10.965
▁ਮਾਲਵੇ	-10.9657
▁ਸਮਝਦੇ	-10.966
▁ਵਿਚੋ	-10.9663
▁ਨਿਵੇਸ਼	-10.9663
ਕੋਸ	-10.9666
▁ਚਾਲਕ	-10.9667
rm	-10.9672
53	-10.9679
▁SI	-10.9679
Xb	-10.9681
▁ਤਾਲਸਤਾਏ	-10.9688
▁ਸ਼ਮੂਲੀਅਤ	-10.9688
▁ਔਖਾ	-10.9689
▁ਏਕੀਕਰਨ	-10.9689
▁1963	-10.9689
▁1912	-10.969
▁ਸਾਈ	-10.9703
▁ਚਿਕਿਤਸਾ	-10.9704
▁ਗਿਆਰਾਂ	-10.9705
ਰੋਨ	-10.971
▁ਕਰਮਚਾਰੀ	-10.9711
▁ਪ੍ਰਦਰਸ਼	-10.9712
▁ਫੂਲ	-10.9714
▁ਹਾਥੀ	-10.9716
ੀਮ	-10.9717
▁ਕੋਰੋ	-10.9727
▁ਨੈਟਵਰਕ	-10.9729
▁ਇਜਾਜ਼ਤ	-10.9729
ਸ਼ਕ	-10.9729
▁ਕਦੋਂ	-10.973
▁ਮੁੱਦਿਆਂ	-10.973
▁ਆਰੀਆ	-10.973
▁ਉਤਾਰ	-10.9735
ਖੇਤਰ	-10.9741
▁ਵੋਟਾਂ	-10.9742
▁ਭੋਗ	-10.9746
▁1911	-10.9752
▁ਸੰਮਤ	-10.9756
ll	-10.9756
▁ਸੈਲ	-10.976
▁ਟੇ	-10.9762
ru	-10.9765
ਰਾਨ	-10.9769
▁ਮਾਜੋਰਾਨਾ	-10.977
▁ਪ੍ਰੋਫ਼ੈਸਰ	-10.977
▁ਪਰਮਾਤਮਾ	-10.977
▁ਭੂਟਾਨ	-10.977
▁ਲਿੰਕ	-10.9772
▁ਤ੍ਰਿ	-10.9772
▁ਫੈਲਣ	-10.9775
▁‘‘	-10.9778
▁ਸੂਚੀਬੱਧ	-10.978
▁ਜੋੜਦੇ	-10.9783
ੈਟਿਕ	-10.9786
▁ਲੋਹੇ	-10.9791
▁ਚਿੱਤਰਾਂ	-10.9794
▁ਪੜ੍ਹੇ	-10.9795
ਸਮੇਂ	-10.9802
▁ਖੁਦਾਈ	-10.9808
ਗੂ	-10.9808
▁ਉਦਘਾਟਨ	-10.9811
▁ਮੋਜ਼ੈਂਬੀਕ	-10.9811
▁ਰੌਬਰਟ	-10.9811
ਚਿਲਡ	-10.9812
▁ਪ੍ਰੋਟੀਨ	-10.9812
▁ਜ਼ਿਲ੍ਹਿਆਂ	-10.9812
▁ਨਾਗਰਿਕਾਂ	-10.9812
▁ਗਲੀ	-10.9812
ੱਥ	-10.9812
▁ਨਿਆਂ	-10.9816
▁ਫ਼ਰਾ	-10.9819
▁ਰਹਿਤ	-10.9819
ਗਾਨ	-10.982
ੇਸ਼ਵਰ	-10.9823
▁ਐਪਲੀਕੇਸ਼ਨਾਂ	-10.9826
▁ਸੂਡੋ	-10.9831
▁ਰੌ	-10.9839
▁ਡਾਟਾ	-10.9841
▁ਦਲੀਲ	-10.9849
▁ਯੁਗ	-10.9853
▁ਸਮਕੋਣ	-10.9853
▁ਆਧਿਕਾਰਿਕ	-10.9854
ਹਰਾ	-10.9857
ਨੁਮਾ	-10.9862
▁ਹੱਥੋਂ	-10.9867
ਤੀਆਂ	-10.9879
▁ਮਾਰੂ	-10.988
ਸਵ	-10.9885
▁ਸੰਭਾਲਣ	-10.9886
co	-10.9888
▁ਇਤਿਹਾਸਕਾਰੀ	-10.9889
▁ਹਾਲਾਤ	-10.9891
ਹਿਰ	-10.9893
▁ਫੈਸਟੀਵਲ	-10.9894
▁ਬੱਦਲ	-10.9895
▁ਉੱਥੋਂ	-10.9895
ਕਿਨ	-10.9897
▁ਦਿਸਣਯੋਗ	-10.9897
▁ਸੈਕਟਰ	-10.9898
▁ਦਿਸਦੇ	-10.99
ਯੁ	-10.9901
ੰਭ	-10.9901
▁ਬਾਕਸ	-10.9908
▁ਕੈਂਪਸ	-10.9909
ਮਤ	-10.9917
ਸ਼ੀਟ	-10.9917
▁ਸਮਝੀ	-10.9919
▁ਫਰੇਮਾਂ	-10.9922
ਸ਼ੀਆ	-10.9924
00	-10.9925
▁ਜਰ	-10.9925
▁ਜੋਸ਼	-10.9926
▁ਦੋਹੇ	-10.9926
▁ਪੁਰਸ਼ਾਂ	-10.9929
▁ਤਾਰਾਮੰਡਲ	-10.9937
▁ਚਾਹੁੰਦੀ	-10.9937
▁ਕੇਰਲ	-10.994
▁ਠ	-10.9941
ਡਸ	-10.9942
▁ਆਰਟੀਕਲ	-10.9943
▁ਗਹਿਰਾ	-10.9943
ੱਲੀ	-10.9943
▁ਓਪਨ	-10.9943
▁ਜਹਾਂਗੀਰ	-10.9944
58	-10.9946
▁ਵਰ੍ਹਿਆਂ	-10.9947
▁ਜਿਲੇ	-10.9951
▁ਤੁਲਨਾਤਮਕ	-10.9951
▁ਖਾਂਦੇ	-10.9953
▁ਰਚਿਤ	-10.9954
▁ਸ਼ੱਕ	-10.996
▁ਉਤਪਾਦਕ	-10.9966
▁ਨਿਖੇੜ	-10.9966
▁ਪੈਰਾਂ	-10.9971
▁ਸ਼ੀ	-10.9973
ੂਆ	-10.9974
क	-10.9974
▁group	-10.9978
▁ਸੈਮੀਨਾਰ	-10.9978
▁ਆਧੁਨਿਕਤਾ	-10.998
▁ਵੋ	-10.9981
▁ਤਰਫ	-10.9982
▁ਮੁਰਦਾ	-10.9984
▁ਉੱਚਤਮ	-10.9984
▁ਸਿੰਧੀ	-10.9985
▁ਦੱਸਦੇ	-10.999
▁ਦੇਵੇ	-10.9991
▁ਰੋਗਾਂ	-10.9993
▁ਸੰਭਾਵਨਾਵਾਂ	-10.9998
▁ਗੁਜਰਾਤੀ	-11.0001
ma	-11.0002
ੲੇ	-11.0006
▁ਸੇਲ	-11.0006
▁ਇੰਜ	-11.0009
▁ਲੋੜੀਂਦੀ	-11.0011
▁ਹੈਦਰ	-11.0012
▁ਵੈਬ	-11.0014
▁tag	-11.0016
▁ਪੰਜਵਾਂ	-11.0016
▁ਮੁਕਾਮ	-11.0019
▁ਬੱਜ	-11.002
▁ਗਰੈਵੀਟੋਨ	-11.0021
▁ਮਹਾਸਾਗਰ	-11.0021
▁ਹਾਫ਼ਿਜ਼	-11.0021
▁ਲਿਪੀਆਂ	-11.0021
▁ਤਲਵਾਰ	-11.0023
ਾਉਂਦਾ	-11.0024
▁ਨੇਤਾਵਾਂ	-11.0029
▁ਕਰਤਾਰ	-11.0031
▁ਗ੍ਰੇਡੀਅੰਟ	-11.0034
ਿਆਈ	-11.0035
▁ਵਾਸਤਵ	-11.0041
ਸ਼ਮ	-11.0042
▁ਬੈਠਾ	-11.0042
▁ਆਗੂਆਂ	-11.0049
▁ਜਿਨਸੀ	-11.0051
▁ਪਰਿਭਾਸ਼ਾਵਾਂ	-11.0053
▁ਪੀਲੇ	-11.0057
ਰਟ	-11.006
▁ਬੰਗਲੌਰ	-11.0063
▁ਕੁਵੈਤ	-11.0063
▁ਅਸਥਾਈ	-11.0063
▁ਥੋੜਾ	-11.0063
▁ਸ਼ੌਰਟ	-11.0064
▁ਜ਼ਾਹਰ	-11.0066
ਯਾਨ	-11.0067
▁ਪਿੰਨ	-11.0067
▁ਟ੍ਰੇਨ	-11.0067
▁ਲੜਾਈਆਂ	-11.0068
▁ਤਰਨਤਾਰਨ	-11.0072
▁ਜਾਗ	-11.0075
▁ਬੂ	-11.0076
▁ਗਹਿਰਾਈ	-11.0077
ਹਾਂ	-11.0079
▁ਪੰਚ	-11.008
▁ਰੌਕ	-11.0081
▁ਦੌਰੇ	-11.0084
77	-11.0084
▁ਪੱਕੀ	-11.0089
▁ਖੜਾ	-11.009
▁ਪਰੰਪਰਾਵਾਂ	-11.009
▁ਬ੍ਰਹਮਾ	-11.0096
▁ਅਖਬਾਰ	-11.0101
▁ਹਲ	-11.0102
▁picture	-11.0105
▁ਲਗ੍ਰਾਂਜੀਅਨ	-11.0105
▁ਦੁਆਲ਼	-11.0106
▁ਵਰਣਮਾਲਾ	-11.0106
▁{{	-11.0106
▁ਮਹਾਂਭਾਰਤ	-11.0106
▁ਸਟੇਟਮੈਂਟ	-11.0107
▁ਸ਼ਾਬਦ	-11.0107
▁ਮਕਾਨ	-11.0108
▁ਬੋਲੀਵੀਆ	-11.0108
ਕਿੰਗ	-11.011
ਹੂ	-11.0114
▁6.	-11.0114
▁ਪ੍ਰਮਾਣਿਕਤਾ	-11.0114
ਪਾਕਿਸਤਾਨ	-11.0117
▁ਫੁਲ	-11.0118
▁ਫ਼ਲ	-11.0119
▁ਲਾਅ	-11.0123
▁ਗਲੇ	-11.0124
▁ਬਿੰਬ	-11.0127
▁ਚਿੱਠੀ	-11.0128
▁ਘੇਰ	-11.0128
▁ਵੇਚਣ	-11.0129
ਖਿਆ	-11.0129
▁ਕਬਰ	-11.0133
ਰੇਟਿੰਗ	-11.0135
▁ਜੜ੍ਹਾਂ	-11.0137
ਬਾਇ	-11.0145
▁ਪਰਖਣ	-11.0147
▁ਬੰਨੇ	-11.0148
▁ਹਸਤੀ	-11.0148
▁ਮਲਿਆਲਮ	-11.0148
▁have	-11.0148
▁ਸਮਾਰਕ	-11.0149
▁1938	-11.015
▁1959	-11.0151
▁ਚਾ	-11.0155
▁ਰੀਤ	-11.0159
▁ਕਾਪੀਆਂ	-11.0159
▁ਵਿਚਾਲੇ	-11.0162
▁ਨਕਸ਼ੇ	-11.0162
▁ਬੁਝਾਰਤ	-11.0162
▁ਲਾਰਡ	-11.0163
▁ਥੀਮ	-11.0165
▁ਨਾਗ	-11.0165
▁ਤਿਕੋਣ	-11.0166
▁ਡਿਵੀਜ਼ਨ	-11.0168
▁ਲੜਕੀਆਂ	-11.0172
▁ਨਿੱਕੀਆਂ	-11.0178
▁ਸੰਪਰਦਾ	-11.018
76	-11.0181
▁ਮਹੀਨਾ	-11.0183
ੁਰ	-11.0184
▁ਸ਼ਖ਼ਸੀਅਤ	-11.0186
▁ਤਰੰਗਲੰਬਾਈ	-11.0188
▁ਉਪਾਧੀ	-11.0191
▁ਵਿਕਟੋਰੀਆ	-11.0191
▁ਪਾਬੰਧੀ	-11.0191
▁ਹਡਸਨ	-11.0191
▁ਹਥਿਆਰਬੰਦ	-11.0192
ਬੈਕ	-11.0193
▁ਮੈਚਾਂ	-11.0195
ਫੋ	-11.0195
ਜੁ	-11.0195
▁ਗਿਰਜਾ	-11.0197
▁ਦੰਦਾਂ	-11.0198
38	-11.0205
▁ਆਚਾਰੀਆ	-11.0207
▁ਸੇਵਕ	-11.021
ਪ੍ਰੋ	-11.0211
ੱਤੀ	-11.0215
▁ਮੰਨਦੀ	-11.0218
▁ਤੇਰਾ	-11.0219
▁ਅੰਕਿਤ	-11.022
▁ਵਰਜਿਨੀਆ	-11.0222
ਕਾਵਿ	-11.0226
▁ਫ਼ਲੋਰ	-11.0227
89	-11.023
▁ਡਕੋਟਾ	-11.0234
▁ਰਾਵਲਪਿੰਡੀ	-11.0234
▁ਸਿਗਨੇਚਰ	-11.0234
▁ਪ੍ਰੋਫੈਸ਼ਨਲ	-11.0234
▁ਸਕਾਈਵੇਵ	-11.0234
▁ਵਿਸ	-11.024
▁ਕਮਲ	-11.024
▁ਲਾਇਬਰੇਰੀ	-11.0243
▁ਰੂ	-11.0244
▁ਸਟੀਫਨ	-11.0245
▁ਸਫ਼ਲਤਾ	-11.0245
ਐਨਰਜੀ	-11.0248
ਰਣ	-11.0248
ੂਕ	-11.0252
▁ਪਲਸ	-11.0259
▁ਸਿੰਘਾਂ	-11.0263
▁ਅਖ਼	-11.0263
▁ਲਾਪਤ	-11.0267
▁ਪਾਥ	-11.0274
▁ਭੁੱਲ	-11.0276
ਮੰਦ	-11.0276
ਮੁਖ	-11.0276
▁ਐਤਵਾਰ	-11.0278
▁ਭਲਵਾਨ	-11.0278
▁ਅਨਿਸ਼ਚਿਤਿਤਾ	-11.0278
▁ਕਲਾਸਿਕ	-11.028
▁ਮੁਹਾਰਤ	-11.0281
▁ਕਲਾਤਮਕ	-11.0281
▁ਤੁਕ	-11.0281
ਿਏ	-11.0283
ਅਪ	-11.0284
▁ਕ੍ਰ	-11.0285
▁ਪ੍ਰਸਾਰ	-11.0286
▁ω	-11.0286
ਭੂਮੀ	-11.0293
ਪਾਰਟੀਕਲ	-11.0296
▁ਦਿਖਾਉਣ	-11.0297
▁ਓਹਨਾ	-11.0297
▁ਜੜ	-11.0299
ਨੀਆ	-11.0303
▁ਆਇਨ	-11.0305
ਡਿੰਗ	-11.0306
▁ਸਾਵਧਾਨੀ	-11.0307
੭	-11.0309
▁ਪ੍ਰਿੰਸ	-11.031
▁ਦੀਅਾਂ	-11.031
▁ਕੋਰਲ	-11.0311
▁ਵੇਗ	-11.0316
▁ਬੈਠੇ	-11.0319
▁ਹਥਿਆਰਾਂ	-11.0319
▁ਮੈਟ੍ਰੀਸੀਜ਼	-11.0321
▁this	-11.0321
▁ਸ਼ਨੀਵਾਰ	-11.0321
▁ਵਾਸ	-11.0324
ਿਟੀ	-11.0331
▁ਡੋ	-11.0331
▁ਕਾਗਜ਼	-11.0332
▁ਤੁਹਾਨੂੰ	-11.0335
60	-11.0336
mc	-11.0339
ੁਲ	-11.0343
69	-11.0346
▁ਓਵਰ	-11.0346
▁ਮਨਾ	-11.0347
▁ਅਰੰਭਿਕ	-11.0347
▁ਸੀਰੀਅਲ	-11.0352
ਲਜ਼	-11.0356
▁ਸੈਕਸ	-11.0356
▁ਮਨੀ	-11.0357
ੱਰ	-11.0358
ਸੇਨ	-11.0358
▁ਦਸਤਾਵੇਜ਼	-11.0358
▁ਬ੍ਰੋਗਲਿ	-11.0362
▁ਜੀਓਮੈਟ੍ਰ	-11.0362
▁ਔਪਟਿਕਸ	-11.0365
▁ਥਿਏਟਰ	-11.0365
▁ਨਿਰਮਿਤ	-11.0365
▁ਫਲੇਵਰ	-11.0365
▁ਗਣਤੰਤਰ	-11.0365
▁ਲਾਰੰਸ	-11.0365
▁ਕਪਾਹ	-11.0365
▁ਪ੍ਰਤਾਪ	-11.0365
ਫ਼ਿਨ	-11.0366
▁ਵਸਾਇਆ	-11.0366
▁ਮੋਸ਼ਨ	-11.0368
▁ਪ੍ਰਾਪਤੀਆਂ	-11.0369
▁ਅਮ	-11.0369
▁ਬਰਾੜ	-11.0369
▁ਨਿਜੀ	-11.037
▁ਪਰਵੇਸ਼	-11.037
▁ਅਧਿਕਾਰੀਆਂ	-11.0371
ਸ਼ਾਸਤਰੀ	-11.0375
▁ਸਿੱਟਾ	-11.0379
ਕਰੀ	-11.0381
▁ਆਇਰਿਸ਼	-11.0383
▁ਵਿਦ	-11.0384
ਵਰਗੀਆਂ	-11.0392
▁ਘਿਰ	-11.0394
▁ਸੰਘਣੀ	-11.0402
ਵੇਜ਼	-11.0405
▁ਮਕਬੂਲ	-11.0408
▁ਸ਼ਿਮਲਾ	-11.0409
▁ਉਪਜਾਊ	-11.0409
ਮੂ	-11.0409
▁ਵਜ਼ਨ	-11.0411
▁ਸ਼ਲੋਕ	-11.0411
▁ਇਕਾਂਗੀ	-11.0411
▁ਕਸੂਰ	-11.0411
▁ਸ਼ਗਨ	-11.0414
ੱਡ	-11.0416
▁ਸਥਿਤੀਆਂ	-11.0418
▁ਵਸਦੇ	-11.0419
▁ਪਾਰਸ਼	-11.0421
ਲਨ	-11.0423
ਵਸ	-11.0423
ਂਦਾ	-11.0423
ਪ੍ਰੋਜੈਕਟਿਵ	-11.0423
▁has	-11.0425
▁ਪੁਰਤਗਾਲੀ	-11.0426
ਪਰਸਪਰ	-11.0426
ਮੁੱਖ	-11.0426
_{\	-11.0429
▁ਖਾਸਕਰ	-11.0433
म	-11.0433
▁ਪ੍ਰਗਟਾ	-11.0434
▁all	-11.0435
▁ਥਾਮਸ	-11.0439
ਵਰੀ	-11.0442
▁ਨਿਕਲਦੀ	-11.0443
ਪਾਤ	-11.0444
ੋਨੀ	-11.0444
▁ਕਰਨਲ	-11.0449
▁ਪਕਵਾਨ	-11.045
▁ਭੀਮ	-11.045
▁ਉਪਯੋਗਾਂ	-11.0451
▁ਪ੍ਰਜਾਤੀ	-11.0451
▁ਇਕਲੌਤੇ	-11.0453
▁ਡੂੰਘੇ	-11.0453
▁ਪਿਸ਼ਾਵਰ	-11.0453
▁ਬ੍ਰਾਂਡ	-11.0454
▁ਨਰਮ	-11.0454
▁ਜਿੰਦਾ	-11.0455
ਾਉਂਦੇ	-11.0457
▁ਹਾਸ	-11.0459
ਬਾਜ਼ੀ	-11.046
▁ਬੂਸਟ	-11.0461
ਰਫ	-11.0463
▁ਤਰਤੀਬ	-11.0464
▁ਆਬਾਦ	-11.0467
ੁੱਦੀਨ	-11.0467
▁ਟਾਈਮਜ਼	-11.047
▁ਮਿਡਲ	-11.0475
ਸਟ੍ਰ	-11.0476
▁ਗੰਢ	-11.048
▁ਨਾਈਟ	-11.048
▁ਗੋਰਖ	-11.0488
▁ਬਤੀ	-11.0489
▁ਹਾਨ	-11.049
del	-11.049
▁39	-11.049
51	-11.0491
▁ਰਹਿਮਾਨ	-11.0493
▁ਵਕਾਲਤ	-11.0497
▁ਆਇਓਨੋਸਫ	-11.0497
▁ਅਨੁਸੂਚਿਤ	-11.0497
▁ਇਲੈਕਟ੍ਰੋ	-11.0497
▁ਕੁਲਤੂਰ	-11.0498
▁ਅਗਲਾ	-11.0498
▁exist	-11.0501
▁ਮਸਲਾ	-11.0502
▁ਪਰਤਣ	-11.0511
▁ਪੋਕੀਮੌਨ	-11.0512
▁ਬਾਵਾ	-11.0514
▁ਪੂੰਜੀ	-11.0519
▁ਇਲ	-11.0523
▁ਡਾਰਕ	-11.0524
ਸਾਰਿਆਂ	-11.0524
▁ਸੋਹਣੀ	-11.0525
ਰਵਿਨ	-11.0525
▁ਬਰਮਾ	-11.0527
ੀਸ	-11.0528
▁ਮੋਮੈਂਟਾ	-11.0528
▁ਟਾ	-11.053
▁ਵਰਗਾਂ	-11.0534
ਬਸ	-11.0534
ਈਆਂ	-11.0535
▁ਐਕਸਕਲੂਜ਼	-11.0541
▁ਲਾਬਰਾਡੋਰ	-11.0541
▁ਲਫ਼ਜ਼	-11.0541
▁may	-11.0542
▁ਦਖਲ	-11.0542
ਟਿਸ	-11.0543
▁2‐3	-11.0543
▁ਪਾਦਰੀ	-11.0543
▁>	-11.0546
▁ਸਤਰ	-11.0546
▁ਉੱਪਰੰਤ	-11.055
▁ਰਹਿਣਗੇ	-11.055
ਿੰਦਰ	-11.0552
▁1909	-11.0554
▁ਲਾਗਤ	-11.0555
94	-11.0557
▁ਗ੍ਰੈਜੂਏਟ	-11.0557
▁ਨਾਮੀ	-11.0559
▁ਕਲਮ	-11.0569
▁ਛੱਡਕੇ	-11.0569
▁ਨਕਸ਼ਾ	-11.0574
ਰਿਆਂ	-11.0575
▁ਤਜਰਬੇ	-11.0579
▁ਔਸਤਨ	-11.0584
Feature	-11.0586
▁ਧਾਲੀਵਾਲ	-11.0586
▁ਬੈਕਗ੍ਰਾਊਂਡ	-11.0586
ਚਿ	-11.0586
▁ਕਾਲੀਦਾਸ	-11.0586
▁1932	-11.0587
ਥੋਂ	-11.0588
▁ਵਜਾਏ	-11.0589
▁ਅਧਿਆਤਮਕ	-11.0589
▁ਈਪੂ	-11.0594
▁ਆਜਾਦ	-11.0595
▁ਗੇ	-11.0602
▁ਗੈ	-11.0603
▁ਉਪਦੇਸ਼	-11.0604
ੂਲ	-11.0605
right	-11.0606
ੋਲਾ	-11.0606
▁51	-11.061
▁ਬਨਣ	-11.0613
65	-11.0615
▁ਮਹਿੰਦਰ	-11.0616
ਮਾਸ	-11.0622
▁ਵਿਸ਼	-11.0625
▁ਉਚ	-11.0625
ि	-11.0628
▁ਪ੍ਰਾਜੈਕਟ	-11.0631
▁ਪਾਉਂਡ	-11.0631
▁ਸ਼ੰਕਰ	-11.0633
▁ਟੇਬਲ	-11.0633
▁ਬੁਝਾਰਤਾਂ	-11.0636
▁ਚਾਵਲ	-11.0636
▁ਸੰਵੇਦਨਸ਼ੀਲ	-11.0637
▁ਪ੍ਰਾਣੀ	-11.064
▁ਤਿੰਨੇ	-11.0642
▁ਸੇਖੋਂ	-11.0642
ਨੇਟ	-11.0644
▁ਨਿਯੰਤ੍ਰਿਤ	-11.0648
ਤਲ	-11.065
ਆਪਣੇ	-11.0653
▁ਸਵੇਰ	-11.0655
▁ਛਾਲ	-11.066
ਹੁਣ	-11.0674
▁ਕਾਰਪੋਰੇਸ਼ਨ	-11.0676
▁ਬਿਊਰੋ	-11.0676
▁ਹਰਜ਼ੇਗੋਵੀਨਾ	-11.0676
▁ਪਲੇਟਫਾਰਮ	-11.0676
▁CPT	-11.0676
▁ਸਮੁਦਾਏ	-11.0676
▁ਸਮਝੌਤੇ	-11.068
▁ਬੂਟੇ	-11.0684
▁ਅੱਡਾ	-11.0686
▁ਮਹਾਰਾਣੀ	-11.069
ਸ਼ੂ	-11.0691
▁ਢੇਰ	-11.0692
▁ਬਰਕਰ	-11.0695
ਫਿਰ	-11.0708
ਣੀਆਂ	-11.0708
▁ਛਾਪ	-11.0711
▁5.	-11.0711
▁ਸੰਸਥਾਨ	-11.0713
32	-11.0719
ਾਣਾ	-11.0721
▁ਸਾਫ਼ਟਵੇਅਰ	-11.0721
ਤਕ	-11.0726
▁ਪ੍ਰਸਾਰਣ	-11.0727
▁ਸੋਮਿਆਂ	-11.0728
▁ਪਾਸਾ	-11.073
ਿਅਮ	-11.0732
▁ਵਧਾਈ	-11.0733
▁ਪਬਲੀਕੇਸ਼ਨ	-11.0733
▁ਮਾੜੀ	-11.0737
▁ਗੁਰਮਤਿ	-11.0739
▁ਜੋਕਿ	-11.0741
▁Wikipedia	-11.0741
ia	-11.0745
▁ਬਸਤੀਆਂ	-11.0748
▁ਸੰਪਾਦਨ	-11.0751
▁Thi	-11.0753
▁ਕੱਟਣ	-11.0759
▁ਨੌਰਮਲਾਇਜ਼	-11.0766
▁ਮਕਦੂਨੀਆ	-11.0766
▁ਸੰਮੇਲਨ	-11.0766
▁ਖਿੱਤੇ	-11.0767
ਾਂਗ	-11.0768
▁ਪੇਰੂ	-11.077
▁ਗਵਾਹੀ	-11.077
▁ਭੂਤ	-11.077
▁ਵਸੋਂ	-11.077
▁ਸਮਰਥਕ	-11.0774
▁ਮਸ਼ੀਨਾਂ	-11.0775
▁ਰਾਜਸ਼ਾਹੀ	-11.0778
na	-11.0778
▁ਵਰਜਨ	-11.078
ਮੂਲਕ	-11.0781
ਕਰਮ	-11.0784
▁ਧਾਰਨੀ	-11.079
▁ਘੋਖ	-11.0791
▁ਸਟੈ	-11.0792
▁ਚੜ੍ਹ	-11.0796
▁ਨੌਨ	-11.0805
▁ਪਕੜ	-11.0807
▁ਖਰਾਬ	-11.0808
▁ਪੁੱਜ	-11.081
ਲੀਨ	-11.0811
ਵਿਗਿਆਨੀ	-11.0811
▁ਮਾਲਦੀਵ	-11.0812
▁ਅਧਿਆਇ	-11.0812
▁ਸਿੰਗੂਲਰਟੀਆਂ	-11.0814
▁ਅਤਿਰਿਕ	-11.0814
▁ਪਟਨਾ	-11.0816
▁ਰੋਸ਼ਨ	-11.0817
ਆਟਿਕ	-11.0817
ਕਾਨ	-11.0819
▁ਵਾਸੀਆਂ	-11.082
▁ਅੰਡੇ	-11.0821
▁ਮੱਛੀਆਂ	-11.0825
ਇੰ	-11.0825
▁ਅਜੀਤ	-11.0826
▁ਮਾਲਾ	-11.0828
▁ਫੀ	-11.0828
▁ਅਦਨ	-11.0832
▁ਜਾਏ	-11.084
▁ਭੁੱਖ	-11.084
▁ਮਹਿਲਾਵਾਂ	-11.0842
▁ਪ੍ਰੀਤ	-11.0845
▁ਸਰਗਰਮੀ	-11.0846
▁ਰਵੀ	-11.0848
▁੧੨	-11.0848
▁ਕਲਪਿਤ	-11.085
▁ਤਨ	-11.085
▁ਨਰਾਇਣ	-11.0854
▁ਪ੍ਰਵਾਨ	-11.0854
▁ਵਾਲਾਂ	-11.0857
▁ਬੇਸ	-11.0858
▁ਇਕਲੌਤਾ	-11.0858
▁ਡੈਰੀਵੇਸ਼ਨ	-11.0858
▁ਚੁਣੌਤੀ	-11.0858
▁ਮਕਾਮੀ	-11.0858
▁ਗੁਸਤਾਵ	-11.0858
▁will	-11.0858
▁1934	-11.086
▁1924	-11.0861
▁ਇਉਂ	-11.0862
▁ਚੇਨਈ	-11.0863
▁ਆਇਗਨ	-11.0868
▁ਸੰਕਲਪਾਂ	-11.0874
▁ਫਾਇਰ	-11.0881
▁ਕਿਰਪਾ	-11.0882
▁ਅੰਗਦ	-11.0885
▁ਖੋਹ	-11.0886
ੈਕ	-11.0888
ਨੁ	-11.089
▁ਉਭਰ	-11.0894
▁ਅਬੂ	-11.0896
▁ਓਹੀ	-11.0899
▁ਬਾਇਓ	-11.0899
ਇਲਾਸਟ	-11.0901
ਿਅਾਂ	-11.0902
▁ਕੰਬੋਡੀਆ	-11.0904
▁ਦਰਵਾਜ਼ੇ	-11.0904
▁ਫਾਊਂਡੇਸ਼ਨ	-11.0904
▁ਦੇਖਭਾਲ	-11.0904
▁ਹੋਲੀ	-11.0905
▁ਅੱਲ੍ਹਾ	-11.0905
੍ਯ	-11.0906
▁ਟਕਰਾਓ	-11.0907
▁ਵਣਜਾਰਾ	-11.0907
83	-11.0908
▁ਤਸਮਾਨ	-11.0909
▁ਅਾਪਣੇ	-11.0914
ਪੁਰੀ	-11.0915
▁ਸਾਫ	-11.0915
▁ਬਣਨਾ	-11.0915
ਊਂ	-11.0919
▁ਬਦ	-11.0919
▁Spin	-11.0921
ਚਾਲ	-11.0925
▁page	-11.0927
ੈਕਸ	-11.0928
ਜੀਅਨ	-11.0928
▁ਰਣ	-11.093
▁ਨਿੱਕੇ	-11.0931
ਅਤ	-11.0932
▁ਮੰਤਰ	-11.0934
▁ਮੁਰ	-11.0935
▁ਡੂੰਘਾ	-11.0936
▁ਖੂਬ	-11.0936
▁ਗੋਲੀਆਂ	-11.0937
▁ਉਠ	-11.0941
ੁਆ	-11.0946
▁ਸਰਗਰਮੀਆਂ	-11.0947
ਸਥ	-11.0947
▁ਲਗਾਉਂਦ	-11.095
{{{	-11.095
▁ਰੋਕਥਾਮ	-11.095
▁ਜਿੱਥੋਂ	-11.095
▁ਇਲੁਰ	-11.0951
▁ਉਤਸਵ	-11.0951
▁ਲਿਖਾਰੀ	-11.0951
▁ਕੁੱਖੋਂ	-11.0952
ww	-11.0952
▁ਤਲਾਸ਼	-11.0953
▁ਭਲਾਈ	-11.0953
▁ਵਡੇਰ	-11.0954
▁1500	-11.0957
▁ਬਸਤੀਵਾਦੀ	-11.0958
▁ਜੰਗੀ	-11.0959
▁ਸਰਵਿਸ	-11.0959
ਲੀਆ	-11.096
ਗਰੀ	-11.096
▁ਇਕੱਠੀਆਂ	-11.096
ਲੇਟ	-11.0963
ਮੋਰ	-11.0965
▁ਖੁੱਲ੍ਹ	-11.0969
▁ਵਨ	-11.0969
▁ਮਿਲਾਪ	-11.0972
▁ਖੰਭ	-11.0974
▁ਤੁਲਨਾਤਮ	-11.0975
▁ਏਜੰਸੀ	-11.0976
▁ਰਾਗਾਂ	-11.0977
▁ਬਹਾਦਰੀ	-11.0977
▁ਅਭਿ	-11.0982
▁ਆਕੇ	-11.099
ਸਕਰ	-11.0997
▁ਮੈਡ੍ਰਿਡ	-11.0997
▁1941	-11.0997
▁ਬੁੱਢਾ	-11.0997
▁ਹੋਮੋਮੌਰਫਿਜ਼ਮ	-11.0997
ਕੰਜੂਗੇਸ਼ਨ	-11.0997
▁ਸਲੋਪ	-11.0997
▁ਖੰਨਾ	-11.0997
ਟੇਨ	-11.1001
▁ਸ਼ੇਖ਼	-11.1003
▁ਉਨ	-11.1003
ਉਨ	-11.1008
▁ਨਿਮਰ	-11.1009
▁ਸੰਭਾਲਿਆ	-11.101
▁ਮੋਦੀ	-11.1011
▁ਖਰੇ	-11.1012
ੋਗ	-11.1014
ce	-11.1015
▁ਬੰਦੀ	-11.1017
▁ਕੱਢੀ	-11.1021
ਸਿਰਿਆਂ	-11.1024
▁ਬਾਇ	-11.1024
ਰਟੀਕਲ	-11.1025
▁ਸੈਕਸ਼ਨ	-11.1026
ਉਰ	-11.1029
▁ਗੁੰਝਲਦਾਰਤਾ	-11.1031
ਧਾਰ	-11.1031
▁ਵਖ	-11.1032
▁ਮਾਹਰ	-11.1033
lon	-11.1035
▁ਮਿਸਰੀ	-11.1037
▁ਭੂਗੋਲ	-11.1038
▁ਫ਼ਾਰ	-11.104
▁ਮਾਰਕੀਟ	-11.1041
ਸਟਨ	-11.1044
▁ਪੋਲਰਾਇਜ਼ੇਸ਼ਨ	-11.1044
▁1901	-11.1047
▁ਕਸ	-11.1047
▁ਕ੍ਰੋਏਸ਼ੀਆ	-11.1048
▁ਤਿਆਰੀ	-11.1048
▁ਨਿਰੋਲ	-11.1049
▁ਉਲਟੇ	-11.1051
ਫਿਊਜ਼ਨ	-11.1053
▁ਕੋਲ਼	-11.1053
ਯੋਂ	-11.1053
▁ਖੂਬਸੂਰਤ	-11.1054
▁ਜੁਲਦ	-11.1055
▁ਹੈਰੀ	-11.1058
ਫੇ	-11.1059
▁ਕਿਰਿਆਵਾਂ	-11.1061
।:2	-11.1063
▁ਤੱਥਾਂ	-11.1064
▁ਲੜੀਆਂ	-11.1068
ਖੋ	-11.1071
▁ਧੀਆਂ	-11.1074
.2	-11.1076
ਦਰਾ	-11.108
▁km	-11.1082
▁ਬਰਨ	-11.1083
▁ਮਲਿਕ	-11.1083
ਇਲ	-11.1084
▁ਨਾਵਾਂ	-11.1084
▁ਸਮਝਦਾ	-11.1092
beta	-11.1092
▁ਅੈ	-11.1092
▁ਗੁਜ਼ਰ	-11.1092
▁ਪੰਜਾਹ	-11.1094
▁ਟੈਨਿਸ	-11.1094
▁ਸੋਰਸ	-11.1095
▁ਸਮਝੌਤਾ	-11.1096
▁ਫੀਸਦੀ	-11.1096
▁ਫ਼ਾ	-11.1098
▁ਉਹਨੇ	-11.11
ਰਕ	-11.1104
▁ਲੁੱਟ	-11.1105
▁ਲਗਰਾਂਜੀਅਨ	-11.1106
▁ਲਿਬੀਆ	-11.1106
▁ਰੂਟ	-11.1106
▁ਰੂਮ	-11.111
▁ਢਕ	-11.1111
ਮੋਨ	-11.1113
ੈਲ	-11.1114
▁ਕਲਾਮ	-11.1115
▁ਕਮਾਨ	-11.1117
▁ਦੇਵਤਿਆਂ	-11.1121
ਨੈ	-11.1122
id	-11.1122
▁ਖਪਤ	-11.1123
▁ਕਿਸ਼ਨ	-11.1125
▁ਵਰਨਣ	-11.1126
ਬੱਜ	-11.1126
▁ਸੰਗਰਾਮ	-11.1128
▁ਗ੍ਰੰਥਾਂ	-11.1128
▁ਬੁਲਗਾਰੀਆ	-11.1132
▁ਭਰਮ	-11.1132
ਯਾਤਰੀ	-11.1133
ਮਾਨਕੀਕਰਨ	-11.1135
▁ਅਰਾਮ	-11.1136
▁ਬਨ	-11.1136
ਵੱਖਰੇ	-11.1137
▁ਔਰੰਗਜ਼ੇਬ	-11.1138
▁ਪੀਰੀਅਡ	-11.1138
▁ਸਰਬੋਤਮ	-11.1138
▁ਸਕਰੀਨ	-11.1138
▁ਪਰਮਾਣੁ	-11.1138
▁ਪੋਲਿਸ਼	-11.1139
▁ਪ੍ਰਥਾ	-11.1139
▁ਪੌਦਾ	-11.1143
▁ਲਕਸ਼ਮੀ	-11.1145
▁ਚੜ	-11.1147
ਦਲ	-11.115
▁ਜਾਕੇ	-11.1158
▁ਗੋਰ	-11.1158
▁ਉਤਰਦੇ	-11.1159
▁ਕਿਲੋ	-11.1161
▁48	-11.1164
▁ਸੁੰਗੜ	-11.1167
ਉਪ	-11.117
ਸੁਰ	-11.1173
▁ਗ਼	-11.1175
ter	-11.118
ਦਨ	-11.118
▁ਖਿ	-11.1181
੍ਸ	-11.1181
ਵੇਦ	-11.1185
▁ਗੁਣਵੱਤਾ	-11.1185
▁ਸ਼ਰੋਡਿੰਗਰ	-11.1185
▁ਨਿਊਕਲੀਅਸ	-11.1185
ਿਅਰ	-11.1188
▁ਸੇਧ	-11.119
▁ਇਕੱਲਾ	-11.1192
ੇਜ਼	-11.1193
▁ਅਡੋਲਫ	-11.1196
▁ਸੁਰੂ	-11.1199
▁ਹੱਡੀਆਂ	-11.12
▁ਬਚਨ	-11.1201
▁ਪਟ	-11.1204
ੈਂ	-11.1212
▁ਜਮਾਂ	-11.1217
ੁਕ	-11.1219
ਪ੍ਰੀਤ	-11.1221
▁ਬਿੱਲ	-11.1221
▁ਲੋਕਤੰਤਰੀ	-11.1227
▁ਬਾਸ	-11.1232
▁ਤਿਜ਼ਾਬ	-11.1233
▁ਪੌਜ਼ੇਟਿਵ	-11.1233
▁ਮਿਸ਼ੀਗਨ	-11.1233
▁ਯਥਾਰਥਵਾਦੀ	-11.1233
▁ਗੋਲੀਕਾਂ	-11.1234
▁ਜੋਗੀ	-11.1234
▁ਯੂਨੀਵਰਸਟੀ	-11.1235
▁ਇਸਾਈ	-11.1238
▁ਯੂਨੀ	-11.1239
ਰਡ	-11.1239
ਫੋਰਸ	-11.1241
▁ਤੇਰੀ	-11.1242
▁ਗਾਰ	-11.1246
▁76	-11.1247
XB	-11.1248
ਾਈਨ	-11.125
▁120	-11.125
ਜੀਵਨ	-11.1254
ੲਿ	-11.1258
▁ਯੂਕਰੇਨ	-11.1259
93	-11.126
▁ਕਮ	-11.1262
▁ਬੋਲਿਆ	-11.1274
ਉਸਨੇ	-11.1276
▁ਨੇਵੀਗੇਸ਼ਨ	-11.1281
▁ਤਕਸੀਮ	-11.1281
▁ਕਨੇਡਾ	-11.1281
▁ਫਾਇਦਾ	-11.1282
▁ਹੈਡ੍ਰੌਨ	-11.1282
▁ਅਨੁਵਾਦਕ	-11.1283
▁ਯਾਦਗਾਰੀ	-11.1283
▁ਉੱਪਰਲੀ	-11.1284
ਹਾਨ	-11.1284
ਗੀਆਂ	-11.1288
▁ਪਰਿਵਾਰਾਂ	-11.1288
▁ਢੋਲ	-11.1289
▁ਕੌਪਨਹੀਗਨ	-11.129
▁180	-11.1291
▁ਪੜ੍ਹਾਉਣ	-11.1298
▁ਗਲੋਬ	-11.13
▁ਝੂਠ	-11.1301
▁ਵਟਾਂਦਰੇ	-11.1306
▁ਅਰਜੁਨ	-11.1306
−1	-11.1306
▁ਹਿੱਟ	-11.1311
▁ਲੱਭ	-11.1312
▁ਦਿਆਲ	-11.1314
▁ਕਦੀ	-11.1315
▁ਹੋੲੀ	-11.1317
त	-11.1318
▁ਪੈਰਾ	-11.1321
▁ਸਟੂਡੀਓ	-11.1322
ਸ਼ੋ	-11.1323
▁ਮੈਪ	-11.1324
▁ਉਭਾਰ	-11.1325
ਦਿਲ	-11.1327
▁ਤਗਮਾ	-11.1329
▁ਸੁਚਾਰੂ	-11.1329
ਲਾਈ	-11.1329
▁ਸੋਮਵਾਰ	-11.1331
▁ਬੁੱਤ	-11.1331
▁1944	-11.1331
^{	-11.1332
▁ਵਿਸ਼ੇਸ	-11.1334
▁ਆਇਸੋਮ	-11.1335
▁ਕਰਾਂਗੇ	-11.1336
▁ਜਮ	-11.1337
▁|\	-11.134
▁ਅੰਦਰਲਾ	-11.1342
▁ਗੁਰੂਆਂ	-11.1344
ਖੰਡੀ	-11.1346
ਾਰਡ	-11.1353
ਬਾਨ	-11.1353
▁ਰਿਵਾਜ	-11.1358
ਜਨਕ	-11.1359
▁ਪਰਚਾ	-11.1359
▁ਪ੍ਰਕਾਸ਼ਤ	-11.1362
▁ਸੂਰਜੀ	-11.1362
▁ਅਰਾਫ	-11.1365
ਸਿੱਖ	-11.1366
▁ਜਾਣੀਆਂ	-11.1367
▁ਭੇਜਣ	-11.1369
▁ਜੱਗ	-11.137
▁ਸ਼ਾਹਕਾਰ	-11.137
ਵੇਵਜ਼	-11.1371
▁ਮੂਰਤੀਆਂ	-11.1372
ਹੇਰਾ	-11.1372
▁ਨਿਰਭਰਤਾ	-11.1373
▁ਮਹਿਮਾਨ	-11.1373
▁ਔਫ਼	-11.1374
▁ਪ੍ਰੇਮੀ	-11.1376
▁ਨਾਟਕੀ	-11.1376
▁ਪ੍ਰੋਸੈੱਸ	-11.1377
▁ਸਮਿਥ	-11.1384
5,000	-11.1385
▁ਸਭਿਅਾਚਾਰ	-11.1388
▁English	-11.1392
▁ਅਜਮੇਰ	-11.1394
▁ਸਕਿੰਟ	-11.1395
ਇੰਟ	-11.1397
▁ਸਕੀਮ	-11.14
▁ਪੱਤਰਕਾਰੀ	-11.14
ਕੜ	-11.1401
▁ਐੱਚ	-11.1402
▁ਸਾਈਡ	-11.1408
▁al	-11.141
▁ਜੋੜਨਾ	-11.1415
ਸ਼ਿਫਟ	-11.1416
▁ह	-11.1417
▁ਮੁੜਨ	-11.1417
▁ਚਿੱਟੀ	-11.1418
▁ਵੈਂਡ	-11.1419
ੇਰਾ	-11.142
▁ਸਹਿਕਾਰਤਾ	-11.1426
▁ਗੈਲੀਲੀਓ	-11.1426
▁more	-11.1426
▁ਵਿਰਸੇ	-11.1426
▁ਬਜ਼ੁਰਗ	-11.1427
▁ਅੱਜਕੱਲ੍ਹ	-11.1427
▁ਟਕਰਾਅ	-11.1429
▁ਰੀਕੋ	-11.1431
▁ਸਮਕਾਲੀਨ	-11.1432
ਲੀਨੀਅਰ	-11.1435
▁ਮੋਰੋ	-11.1438
ੋਲੀ	-11.144
▁ਸਤਿਗੁਰੂ	-11.1445
▁ਪੜਨ	-11.1448
▁ਫਸ	-11.1449
ੱਨ	-11.1453
▁ਸੰਗੀਤਕ	-11.1454
▁so	-11.1456
-20	-11.1456
▁ਖੇਲ	-11.1461
di	-11.1462
ਗ੍ਰਾਫ	-11.1469
▁ਡਚ	-11.1471
▁ਕਬੱਡੀ	-11.1474
▁ਘਣਫਲ	-11.1474
▁ਅਪੀਲ	-11.1475
ਰੇਖਾ	-11.1475
▁ਏਲੀਸ	-11.1475
▁ਵਰਡ	-11.1478
ਸੀਅਸ	-11.1479
▁ਪ੍ਰਗਟਾਵਾ	-11.1481
ਵੇਲ	-11.1481
▁ਜ਼ਿੰਮੇਵਾਰੀ	-11.1482
ੇਬਲ	-11.1484
▁ਜੌ	-11.1485
▁0,	-11.1492
XD	-11.1495
▁ਪੱਖਾਂ	-11.1495
▁ਚੌਕ	-11.1499
▁ਸਾਲਾ	-11.1503
▁ਕਾਂਡ	-11.1506
ਅਨੁਕੂਲ	-11.1517
ਉਨ੍ਹਾਂ	-11.1518
ਜਦੋਂ	-11.1519
▁ਚਿ	-11.1522
▁ਰੋਹ	-11.1523
▁ਡਿਸਟ੍ਰੀਬਿਊਸ਼ਨ	-11.1523
▁ਮਜ਼ਬੂਰ	-11.1523
▁ਮੈਡਰਿਡ	-11.1523
ਅਡਜੋਆਇੰਟ	-11.1523
▁ਤੁਰਕਮੇਨਿਸਤਾਨ	-11.1523
▁ਫਾਂਸੀ	-11.1523
▁ਜਨਰੇਟਰ	-11.1525
▁65	-11.1531
▁ਖ਼ੁਦਮੁਖ਼ਤਿਆਰ	-11.1535
ੋਵਾਲ	-11.1538
▁ਛੇਵੇਂ	-11.154
▁ਲੁਕ	-11.1541
▁ਡਿਟੈਕਟ	-11.1543
▁ਸੁਨਹਿਰੀ	-11.1549
▁ਟਾਈਡ	-11.1555
▁ਆਸਾਨੀ	-11.1556
ਰਚਨਾ	-11.1561
▁ਨੌਜਵਾਨਾਂ	-11.1561
▁ਆਸ਼ਾ	-11.1565
▁8.	-11.1567
ੈਸ	-11.1568
▁ਟ੍ਰਾਂਸਮਿਸ਼ਨ	-11.1573
▁ਮੋਜੂਦ	-11.1573
▁ਮੰਤਰਾਲੇ	-11.1573
▁ਪੌ	-11.1574
▁ਮਨਾਉਣ	-11.1575
▁ਜਦੋ	-11.1577
▁ਉਵੇਂ	-11.158
▁ਸਾਰਣੀ	-11.159
▁ਧਿਰ	-11.159
्	-11.1591
▁ਕਰੋਨਾ	-11.1597
▁ਥਰਮਲ	-11.1601
▁ਲੀਨ	-11.1606
ਂਡ	-11.1608
▁ਕਦਰਾਂ	-11.1613
▁ਕੀਮਤੀ	-11.1615
74	-11.1616
▁ਹਾਇ	-11.1616
op	-11.1616
▁ਹਿਜਰੀ	-11.1622
▁ਨਿਭਾਇਆ	-11.1623
▁ਰੁਕਾਵਟ	-11.1624
▁52	-11.1625
▁ਮੁਕਾਬਲਿਆਂ	-11.1626
▁ਟੀਚਾ	-11.1626
▁ਕਿਹੜੀ	-11.1626
▁ਬਜਟ	-11.1628
ਸਿਆ	-11.1629
ੁੰ	-11.1632
▁ਭੇਜੇ	-11.1633
▁ਨਗਾਰ	-11.1633
▁ਸੱਟ	-11.1634
▁ਲੈਬ	-11.1635
▁ਰੂਹ	-11.1639
sh	-11.164
ੀਨੋ	-11.164
▁ਕੇਰਲਾ	-11.1641
▁ਕੌਸਮੌਲੌਜੀ	-11.1641
ਬੈ	-11.1642
XH	-11.1642
▁ਮਾਪੇ	-11.1644
▁ਜੱਟਾਂ	-11.1645
▁ਛਪੇ	-11.1646
▁ਪੀੜ	-11.1653
▁ਤਾਰੀਖ	-11.1654
▁ਚਿੱਤਰਕਾਰੀ	-11.1655
▁ਕਰੀਏ	-11.1655
▁ਮਿਥ	-11.1657
▁ਨੱਕ	-11.1658
ਿਸਤਾਨ	-11.1661
ive	-11.1666
▁ਥਲ	-11.1667
ਅਧਾਰਿਤ	-11.1668
▁ਪੁਸ਼ਕਿਨ	-11.1672
▁ਕਬਾਇਲੀ	-11.1672
▁ਅਰਜਨਟੀਨਾ	-11.1672
▁ਇੰਜਨੀਅਰਿੰਗ	-11.1673
ਅਰਾਲ	-11.1676
▁ਕ੍ਰਿਸ਼ਣ	-11.1679
ਗਿਆ	-11.1681
▁ਵਾਦਨ	-11.1683
▁ਪ੍ਰਸ਼ਾਸਕੀ	-11.1684
▁ਕਿਹੜਾ	-11.1684
▁ਕੱਦ	-11.1684
▁ਉਧਾਰ	-11.1685
▁ਵੇਲਜ਼	-11.1685
▁ਪਰਵਾਹ	-11.1686
▁ਏਡ	-11.1691
▁ਅਨੰਦਪੁਰ	-11.1692
tion	-11.1692
▁ਕੋਹ	-11.1693
▁ਇੱ	-11.1694
▁ਖਣਿਜ	-11.1696
▁ਅਤ	-11.1698
ਵਾਨੀ	-11.1699
ੳ	-11.17
▁ਮੁਹ	-11.1703
▁ਰਾਜਕੁਮਾਰੀ	-11.1704
▁ਫੈਲਾਓ	-11.1706
▁ਅਖਾਣ	-11.1706
▁ਸੋਲਰ	-11.1711
▁ਸੁਪਰਸਮਰੂਪ	-11.1713
ਾਊ	-11.1713
▁ਸ਼ਿਕਾਰੀ	-11.1719
▁ਅੰਬ	-11.1719
ਿਫ੍ਰੈਕਸ਼ਨ	-11.1721
ਂਟ	-11.1721
▁ਪਵਿਤਰ	-11.1722
▁ਪੁਰਾਤੱਤਵ	-11.1722
▁ਰਾਮਾਇਣ	-11.1722
ਸੰਪ੍ਰਕ	-11.1722
▁ਕੈਰੀਬੀਆ	-11.1722
▁ਹਮਲਿਆਂ	-11.1722
▁ਭਰੋਸਾ	-11.1723
▁ਵੈਬਸਾਈਟ	-11.1724
▁ਟਰਾਂਸ	-11.1725
▁ਸਤਹ	-11.1726
ਲਿਕ	-11.173
▁ਕਰਨੇ	-11.1731
▁ਮਾਇਆ	-11.1731
ਾਸ਼	-11.1736
end	-11.1736
ੋਕ	-11.1737
ੱਚ	-11.1742
ਮਾਈ	-11.1744
ਲਾਂਦ	-11.1745
▁ਖੇਡਦੀ	-11.1747
▁ਸੀਤਾ	-11.1747
ੀਕਰਣ	-11.1748
▁±1	-11.1751
▁ਮਨੁੱਖਤਾ	-11.1754
ੇਡ	-11.1759
ੰਪ	-11.1761
▁ਭਾਵਾਂ	-11.1764
ਕਤ	-11.1765
▁ਜਿੱਤੀ	-11.1766
▁ਚਾਨਣ	-11.1767
▁ਦਰਾਮ	-11.1767
ਾਰੀ	-11.177
▁ਹਿਮਾਲਿਆ	-11.1772
▁ਲਕਸ਼ਦੀਪ	-11.1772
▁ਅਭਿਆਨ	-11.1773
ੁਨ	-11.1774
▁ਸਿਲਸਿਲੇ	-11.1774
▁ਵਿਗੜ	-11.1775
▁ਹਟ	-11.1776
▁ਬਦਲਾਅ	-11.1778
▁ਮਾਝੀ	-11.1779
▁ਮੀਨਾਰ	-11.1781
▁ਮੱਠ	-11.1782
ੋਤਸਕ	-11.1783
ਰੀਆਂ	-11.1784
▁ਦੁਪਹਿਰ	-11.1784
▁ਚੋਰੀ	-11.1785
▁ਮਿਤੀ	-11.1794
▁ਹੁਣੇ	-11.1794
▁ਝਾ	-11.1796
ist	-11.1797
▁ਦਿਆਂ	-11.1798
▁ਮਿਸ਼ਰ	-11.18
ਰਾਦ	-11.1805
▁ਸੁਣਾਈ	-11.1807
^	-11.1807
▁ਆਖ	-11.1808
08	-11.1808
ਆਮ	-11.181
ੇਂਟ	-11.1813
▁ਲਿਓਨ	-11.1813
▁ਪਛਾਣੇ	-11.1815
▁ਸਾਈਨ	-11.1818
▁ਮਾਰਕਸਵਾਦ	-11.1818
▁ਪਥ	-11.182
▁ਡੈੱਨਸ	-11.1823
▁ਅਰਸਤੂ	-11.1823
▁ਸੋਖ	-11.1823
▁ਸ੍ਰੋਤ	-11.1823
▁ਉਪਗ੍ਰਹਿ	-11.1823
▁ਕਸਬਾ	-11.1824
ਇਪੋਲ	-11.1824
▁ਰਚੀਆਂ	-11.1826
▁ਸਬਦ	-11.1829
▁ਦੇਸਾਂ	-11.1829
▁ਗ਼ਦਰ	-11.1831
▁ਪਾਰਟੀਆਂ	-11.1832
▁ਪੱਕਾ	-11.1837
ਦੀਆ	-11.1838
▁ਸੈਨਿਕ	-11.1841
▁ਪਾਰਸੀ	-11.1842
▁ਬੀਮ	-11.1843
▁ਯੰਗ	-11.1854
▁ਪਰੀ	-11.1856
▁ਰਾਣਾ	-11.1856
▁ਪੋਹ	-11.186
▁ਵੈਡ	-11.1862
ਨਾਨ	-11.1864
▁ਛਪ	-11.1865
▁you	-11.1873
▁ਫਲਸਰੂਪ	-11.1874
▁ਸਿਆਲਕੋਟ	-11.1874
▁ਗ੍ਰੀਕ	-11.1874
▁ਅਖ਼ੀਰ	-11.1874
▁ਕਾਰੋਬਾਰੀ	-11.1874
▁1890	-11.1877
▁ਸਾਂਸਦ	-11.1877
▁ਅਧਿਆਤਮਿਕ	-11.1878
▁ਪੱਗ	-11.1879
▁ਦੋਸ਼ੀ	-11.1881
▁ਸੀਰੀਆ	-11.1883
▁ਛਾਪੇ	-11.1883
▁ਹਿੱਲ	-11.1884
▁ਬੂਥ	-11.1885
ਇੰਗ	-11.1886
▁ਨਿਭਾਉਣ	-11.189
▁ਪਦਵੀ	-11.1894
▁ਸੰਸਾਰਿਕ	-11.1899
ਚੰਦਰ	-11.1899
ਿੰਗਰ	-11.1899
ੌਟ	-11.19
▁ਲੋਹਾ	-11.1904
▁72	-11.1905
▁ਤੁਰਕਾਂ	-11.1906
▁:-	-11.1907
▁ਬੁਲਾ	-11.1911
ਸ਼ਤ	-11.1913
ਕਸ਼ਨ	-11.1913
ਨਿਊ	-11.1914
▁ਰਮ	-11.1918
▁ਗੋਆ	-11.1922
▁ਬੰਗਲਾ	-11.1924
▁ਆਰਕੀਟੈਕਚਰ	-11.1924
▁ਢੁਕਵੀਂ	-11.1925
ਸਦੀ	-11.1926
ੇਸ਼ੀਆ	-11.1926
▁ਰੂਪਨਗਰ	-11.193
▁ਲੇਬਲ	-11.193
ut	-11.1931
ment	-11.1932
▁ਮੁੱਢਲਾ	-11.1933
82	-11.1933
ਫਰੀ	-11.1935
▁ਰਾਜਪਾਲ	-11.1942
▁ਮਜ਼ਦੂਰਾਂ	-11.1944
▁ਵੀਅਤਨਾਮ	-11.195
▁ਧਾਤਾਂ	-11.1954
▁ਕਿੰਨਾ	-11.1957
ੜ੍ਹੀ	-11.1957
▁|2	-11.1962
ਵਾਲੇ	-11.1968
▁ਸਭਿਆਚਾਰਾਂ	-11.1969
▁ਬਿਗ	-11.197
ਜ਼ੋਵ	-11.197
au	-11.1971
▁ਬੇਗ	-11.1972
▁ਚੇਤ	-11.1974
▁ਚੋਪੜਾ	-11.1976
▁ਸਿੰਗਾਪੁਰ	-11.1976
▁ਕਿਉਬਿਟ	-11.1976
▁ਕਪਲਿੰਗ	-11.1976
▁ਟ੍ਰ	-11.1976
▁ਸਿਹਰਾ	-11.1977
▁ਸੁਧਾਰਨ	-11.1977
▁ਡੇਢ	-11.1977
▁ਮੇਲਜੋਲ	-11.1977
▁ਪਰਵਾਸ	-11.1981
ਸੇਕਾ	-11.1982
▁ਆਯੋਜਨ	-11.1983
ੂਸ	-11.1991
▁ਆਰਕ	-11.1993
▁ਗੈਸਾਂ	-11.1994
▁ਨੈਨੋ	-11.1995
im	-11.1999
▁ਮੇਜ਼ਬਾਨੀ	-11.2
ਮਨੀ	-11.2002
▁ਮਕ	-11.2002
ਸਕਾ	-11.2008
ine	-11.201
Q	-11.2012
ne	-11.2015
▁ਮੋਨ	-11.2016
ੀਜ਼	-11.2018
▁!	-11.2021
▁ਸੰਸਕਰਣ	-11.2027
▁ਵੈਟ	-11.2027
▁ਪੁਲੀਸ	-11.2028
▁1910	-11.2032
▁ਪਾਈਆਂ	-11.2033
▁ਪਰਿਵਾਰਕ	-11.2034
▁ਬਚਾ	-11.2034
ੇਂਦਰ	-11.2036
ਗਿ	-11.2036
▁ਆਫਿਸ	-11.2037
▁ਅਸਰਾਂ	-11.2037
▁ਮਾਲਵਾ	-11.2038
▁ਰਿਜ਼ਰਵ	-11.2038
▁ਲੋਕਤੰਤਰ	-11.2038
▁ਵਤਨ	-11.2038
▁ਵੈਰ	-11.2046
ਕਾਲੀਨ	-11.2048
▁ਰਾਹੁਲ	-11.205
ਸਿਲ	-11.2051
ੌਸ	-11.2052
▁ਲਿਊ	-11.2053
||	-11.2054
▁ਕਿੰਨੀ	-11.2067
▁ਦੋਸਤੀ	-11.2067
ਰਗ	-11.2069
▁ਜਲਾਲ	-11.2073
▁ਅੰਦਰੋਂ	-11.2073
▁ਪ੍ਰਿ	-11.2076
Science	-11.2079
▁ਟਰੱਸਟ	-11.2079
▁ਦੇਹਰਾਦੂਨ	-11.2079
▁ਵਿਧਵਾ	-11.208
▁ਗਾਇਨ	-11.2082
▁ਮੈਲ	-11.2084
'=\	-11.2087
ر	-11.209
▁ਬਿਲਾਸਪੁਰ	-11.209
ਮਣੀ	-11.2092
▁ਸਰਸਵਤੀ	-11.2095
▁la	-11.2095
▁77	-11.2097
ਾਲੋਕਾ	-11.2097
▁ਮੰਜ਼ਿਲ	-11.2097
▁ਸਾਇੰਸਜ਼	-11.2099
▁ਬੰਧਨ	-11.21
▁ਦਰਜਨ	-11.2111
▁ਜੌਰਜ	-11.2111
▁ਪੰਜਵੇਂ	-11.2112
ੳੁ	-11.2116
▁ਦੁਖ	-11.2118
ਵਣ	-11.2118
ਾਕਾਰ	-11.212
ant	-11.212
▁ਵਗਦੀ	-11.2122
ਵਿਸ	-11.2123
ਰਥ	-11.2125
▁ਜਿਸਤੋਂ	-11.2127
▁ਦੁਕਾਨ	-11.2131
▁ਨਾਹਰ	-11.2131
▁ਜ਼ੁਲਮ	-11.2131
▁such	-11.2132
▁ਅਸਧਾਰਨ	-11.2134
▁ਚਿਤਰਣ	-11.2136
▁ਕੰਮਕਾਜ	-11.2137
ਗੱਦੀ	-11.2141
91	-11.2142
▁ਫੁ	-11.2142
▁ਟਰੇਨ	-11.2143
▁ਸਾੜ	-11.2147
▁600	-11.2152
ਢਾ	-11.2155
▁ਪ੍ਰਤਿਨਿਧ	-11.2156
▁ਸ਼ਿੰਗਾਰ	-11.2157
ity	-11.2169
▁ਬਰਾ	-11.2169
▁ਉੱਚੀਆਂ	-11.2175
▁ਗਿਰ	-11.2175
man	-11.2178
te	-11.2178
ਿਫ	-11.2179
▁ਮੋਂਟੇਨੇਗਰੋ	-11.2183
▁ਚਮਤਕਾਰ	-11.2183
▁ਫੈਮਲੀ	-11.2184
▁ਲੇਜ਼ਰ	-11.2185
▁ਅਲੋਪ	-11.2186
▁ਢਲਾਣ	-11.2189
ਟਿਨ	-11.2189
▁41	-11.219
▁ਉਰਜਾ	-11.219
ers	-11.2192
▁ਜੁਲਦੇ	-11.2193
▁ਕਰਾਇਆ	-11.2197
▁ਡਾਊਨ	-11.2197
ਏਨ	-11.2198
▁ਵੇਖੋ	-11.2202
▁ਪੱਧਰਾਂ	-11.2202
▁ਬੁਲੰਦ	-11.2204
▁ਐੱਨ	-11.2204
ਸਪ	-11.2206
▁ਹਸਤੀਆਂ	-11.221
▁ਟਿਕ	-11.2213
per	-11.2215
▁ਗ੍ਰੇਟ	-11.2216
▁ਮਲਟੀ	-11.2216
▁ਸੈਂਟਰਲ	-11.2219
ਕਾਬਾ	-11.222
▁ਪਿਆਰੇ	-11.2224
▁ਅਸਮਾਨ	-11.2226
▁ਸਵਾ	-11.2227
▁ਵਾਈ	-11.2231
▁ਮੇਅਰ	-11.2231
▁ਲੌ	-11.2233
ਾਈਜ਼	-11.2235
▁ਮੌਸ	-11.2235
▁ਪਤ੍ਰਿਕਾ	-11.2236
▁ਮੋਨਾਕੋ	-11.2236
▁ਮਿਊਔਨ	-11.2236
▁ਹਿਮਾਲਾ	-11.2236
▁ਝੁੰਡ	-11.2237
▁ਰਹੱਸਮਈ	-11.2237
▁ਅਜਾਇਬਘਰ	-11.2237
▁ਭੂਚਾਲ	-11.2237
▁ਬਗਾਵਤ	-11.2241
▁ਟਿਕਟ	-11.2247
▁ਮਹਿਤਾ	-11.2247
▁ਅਪਣਾਉਣ	-11.2247
▁ਗਰਾਮ	-11.2249
▁ਬਾਲਣ	-11.225
ਟੋਨ	-11.225
▁ਕੋਮਲ	-11.2253
ਭਾਰ	-11.2253
ਚੂ	-11.2253
▁ਖਿੱਚਿਆ	-11.2255
▁ਬਿੱਲੀ	-11.2256
61	-11.2267
▁ਤੋਪਾਂ	-11.2272
▁ਮਿੱਲ	-11.2275
▁ਸੌਂਪ	-11.2276
ਦਾਦ	-11.2282
▁ਸੰਸਕਾਰ	-11.2283
▁II	-11.2288
▁ਬਹੁਗਿਣਤੀ	-11.229
▁ਸਪੁੱਤਰ	-11.229
▁ਮਾਹੀ	-11.2293
▁con	-11.2296
▁ਲੈਵ	-11.2297
▁ਅਸ਼	-11.2298
▁ਇਜ਼ਰਾਈਲ	-11.2299
▁ਚੂ	-11.23
1/2	-11.2307
▁ਫੈਕਲਟੀ	-11.2307
▁ਸ਼ਹੀਦੀ	-11.231
ੁਗ	-11.2311
▁ਜ਼ੁਬਾਨ	-11.2312
▁ਵਰਕਰ	-11.2317
ਨਿਰਧਾਰਤਮਿਕ	-11.2317
▁ਦਿਸ	-11.2323
ੋਰਾ	-11.2326
ਦਰਸ਼ਨ	-11.2327
▁ਝੁਕ	-11.2329
ਕੰ	-11.2331
79	-11.2332
ਂਦੇ	-11.2332
ਿਦ	-11.2337
▁ਲੇਕ	-11.2342
▁ਕੋਸੋਵੋ	-11.2342
▁ਗਹਿਣੇ	-11.2342
▁ਮਨਾਹੀ	-11.2343
▁ਕ੍ਰਿਕੇਟ	-11.2343
▁ਹੌਜ਼ੀ	-11.2343
▁ਪੇਂਟਿੰਗ	-11.2344
▁ਫ਼ੰਡ	-11.2348
▁ਪਹਿਰਾਵੇ	-11.235
ਅਮ	-11.2352
▁ਲੇਖਣੀ	-11.2352
▁ਖ਼ੂਨ	-11.2353
▁ਬਨਸਪਤੀ	-11.2354
਼ੇ	-11.2354
▁ਹਥ	-11.2355
▁ਦਿਖਾਉਂਦੀ	-11.2355
ਓਨ	-11.2358
▁ਈਰਾਨੀ	-11.236
ਵਾਦੀਆਂ	-11.2361
▁ਮੁਨ	-11.2362
▁ਆਲਮ	-11.2364
▁੨੦	-11.237
ਬੋਹਾਈ	-11.2371
▁ਲੋਹ	-11.2382
े	-11.2383
▁ਦੂ	-11.2384
▁ਤਿੱਬਤੀ	-11.2388
▁ਸਟ	-11.239
▁ਆਰਕੀਟੈਕਟ	-11.2396
▁ਉੜੀਸਾ	-11.2396
▁ਖਿਡਾਰਨ	-11.2396
▁ਪੱਤਿਆਂ	-11.2396
▁ਕਿਉਕਿ	-11.2396
▁ਸ੍ਰਿਸ਼ਟੀ	-11.2396
▁ਬੈਰਿੰਗ	-11.2396
▁ਰਾਸ਼ਟਰਮੰਡਲ	-11.2397
va	-11.2397
▁ਥਾਈ	-11.2398
ੇਬ	-11.2399
▁ਖੜੇ	-11.2399
▁ਬਹੀਰ	-11.24
▁ਨੌਕਰ	-11.24
▁ਜੋਤ	-11.2401
▁ਰਾਵੀ	-11.2404
▁ਸਤਰਾਂ	-11.2404
ਇਲੈਕਟ੍ਰਿਕ	-11.2405
▁ਅਲੈਗਜ਼ੈਂਡਰ	-11.2408
▁ਹਾਨੀ	-11.2411
ੰਨੇ	-11.2412
▁ਪਿਪ	-11.2415
▁ਮੈਦਾਨਾਂ	-11.242
ਲਿਆਂ	-11.2422
▁ਜ਼ਖ਼ਮੀ	-11.2422
▁ਸਿਪਾਹੀਆਂ	-11.2426
▁ਵਗ	-11.2426
da	-11.2428
ਸਟੋਨ	-11.2429
▁ਆਵ	-11.2435
▁ਅਲਬਾਨਿਆ	-11.2437
▁ਦਾਰਾ	-11.2439
▁ਖੁ	-11.244
▁ਰਚਨਾਕਾਰ	-11.2441
▁ਗੁਲਾਬ	-11.2445
▁ਨਿਬੰਧ	-11.2448
▁ਗੌ	-11.2448
▁ਐਕ	-11.2448
▁ਵਿਦਰੋਹ	-11.2448
ਬੋਲੀ	-11.2449
ਸੋਟ੍ਰੋਪਿਕ	-11.2449
▁ਪ੍ਰੰਪਰਿਕ	-11.2449
▁ਸ਼ਿਕਾਗੋ	-11.245
▁ਕ੍ਰਿਸਮਸ	-11.245
ਟਾਂ	-11.245
▁ਥੋੜੇ	-11.245
-3	-11.2452
▁1887	-11.2452
▁ਕਾਊਂਟੀ	-11.2452
▁ਸੋਨਾ	-11.2452
Xg	-11.2457
▁ਪਹੁੰਚਦਾ	-11.246
▁ਜੱਸਾ	-11.2461
ਬੋਲ	-11.2463
▁ਗਾਂ	-11.2464
▁ਵਾਅਦਾ	-11.2465
ਸ਼ਬਦ	-11.2466
ਨਿੰਗ	-11.2467
ਿਸਟਿਕ	-11.2468
▁ਲਗਾਉਣਾ	-11.2468
ੇਰੀ	-11.247
ਗਾਸੋ	-11.2471
ਰਲ	-11.2473
▁ਟੁ	-11.2476
▁ਨਿੱਤ	-11.2477
▁ਨੰਗਲ	-11.2478
▁ਆਉਣਾ	-11.2478
स	-11.2487
▁74	-11.2488
▁ਮਿਲੀਆਂ	-11.2488
XJ	-11.2489
ੰਕ	-11.2496
▁ਬੇਰੌਨ	-11.2497
▁ਬਾਹਰਲੇ	-11.2497
▁ਲੱਗੀਆਂ	-11.2498
▁ਰੁੱਖਾਂ	-11.2502
▁ਇੰਗਲਿਸ਼	-11.2503
▁ਡਿਪਟੀ	-11.2503
▁1892	-11.2504
੍ਰਾ	-11.2504
▁ਹੀਰੋ	-11.2504
▁ਡੋਮੇਨ	-11.2504
={{{	-11.2504
▁ਲੈਂਡਸਕੇਪ	-11.2504
▁ਸਮਝਣਾ	-11.2505
▁ਬਰੰਟ	-11.2506
▁ਖਾਸਤੌਰ	-11.2506
▁ਸਹ	-11.2506
▁ਫੂਡ	-11.2515
▁ਸੰਦ	-11.2516
▁ਪਲਟ	-11.2518
▁ਨਾਮਦੇਵ	-11.2524
▁ਥੋੜ੍ਹ	-11.2526
▁ਫਿਲਮਫੇਅ	-11.2527
▁ਸ਼ੁਕਰ	-11.2528
▁ਚੇਨ	-11.2528
▁ਜ਼ਮੀਨੀ	-11.2529
▁ਸੁੰਗੜਨਾ	-11.2532
▁ਪੋਪ	-11.2536
▁ਦੌੜਾਂ	-11.2538
ਪੰਜ	-11.2539
▁ਧੀਮੀ	-11.2544
▁ਖਾਂਦੀ	-11.2547
▁OB	-11.2549
▁ਪ੍ਰਚੱਲ	-11.255
▁ਪੁੱਤਰਾਂ	-11.2557
▁ਤੀਸਰੇ	-11.2558
▁ਵੈੱਬਸਾਈਟ	-11.2558
▁ਹੀਲੀਅਮ	-11.2558
▁ਸੁਵਿਧਾਜਨਕ	-11.2558
▁ਜ਼ਹਿਰ	-11.2558
▁ਪੈਦਲ	-11.2559
▁ਡਾਕਟਰੇਟ	-11.256
▁ਸਦਰ	-11.256
▁੧੯	-11.256
ਮੀਆ	-11.2566
▁ਅਸਟ੍ਰੋ	-11.2576
▁ਕੋਟਕਪੂਰਾ	-11.2578
▁ਯੂਨ	-11.2578
▁ਮਲੱਕ	-11.258
▁ਬਰਾਬਰੀ	-11.2583
▁ਕਰੀਮ	-11.2585
▁ਕਠੋਰ	-11.2586
▁ਖ਼ਬਰ	-11.2588
XW	-11.259
▁ਰਾਖੀ	-11.2591
▁ਭੇਟ	-11.2592
▁ਕਮੀਆਂ	-11.2598
ੜਾਂ	-11.2602
▁ਲਾਤਵੀਆ	-11.2613
▁ਮਹਿਮੂਦ	-11.2613
▁ਸਲੋਵੇਨੀਆ	-11.2613
▁ਸਫਲਤਾਪੂਰਵਕ	-11.2613
▁ਪ੍ਰੀਸੈਸ਼ਨ	-11.2613
▁ਧੜ	-11.2614
▁ਇਲੈਕਟ੍ਰੀਕਲ	-11.2615
▁ਗ੍ਰੀਨ	-11.2615
71	-11.2615
▁ਅਸਲੀਅਤ	-11.2615
ਲਾਰਸਨ	-11.2617
▁ਛੁਪੇ	-11.2617
▁ਲੱਭਿਆ	-11.2618
▁ਸੁਪਨੇ	-11.262
▁ਪੋਸ਼ਣ	-11.262
▁ਗੁਆਮ	-11.2623
▁ਇਕੱਠੀ	-11.2623
ਾਅ	-11.2624
ਚਾਰਜ	-11.2626
ਾਰਥ	-11.2627
▁ਸ਼ੂਟ	-11.2627
ੌਲੀ	-11.2628
▁0.3	-11.2628
ਗਿਆਨ	-11.2629
▁ਹਾਸ਼ਮ	-11.263
ਸੰਸਾਰ	-11.263
ਚਰਨ	-11.2633
▁ਯੁ	-11.2633
ੰਧ	-11.2634
▁ਜੀਅ	-11.2635
ੇਕ	-11.2635
▁ਉਨ੍ਹਾਂਨੂੰ	-11.2637
▁ਉਚਾਰਨ	-11.2638
ਜੀਵ	-11.2642
▁ਅਲਗ	-11.2642
▁one	-11.2645
.4	-11.2645
▁1870	-11.2646
▁ਦਰਾਂ	-11.2647
▁ਸੁੱਟਣ	-11.2653
our	-11.2656
▁ਸਟੀਲ	-11.2658
ੈਲਟਿਕ	-11.266
ਰੇਖ	-11.2662
ਡੇਨ	-11.2664
▁ਡੌਟ	-11.2667
▁ਨਿਕਾਰਾਗੁਆ	-11.2667
▁ਟੁਕੜੇ	-11.2667
▁ਮੌਕਿਆਂ	-11.2667
▁ਕਮਿਊਨਿਟੀ	-11.2667
▁ਬਿਸਮਾਰਕ	-11.2668
▁ਉਡੀਕ	-11.2668
▁ਮੁਫ਼ਤ	-11.2668
▁ਪਲਾਜ਼ਮਾ	-11.2668
▁ਐਂਟੀਪਾਰਟੀਕਲ	-11.2668
un	-11.267
▁ਜਿਕਰ	-11.2671
▁ਕੁੱਤੇ	-11.2672
▁ਦਸਤਾਵੇਜ਼ੀ	-11.2672
ਸਥਿਰ	-11.2675
ੁਅਲ	-11.2677
▁ਗੇੜ	-11.2677
▁ਅਪਣਾਉਂਦ	-11.2678
▁ਕਾਸ਼ਤ	-11.2681
▁ਖਿੰਡ	-11.2682
▁ਲਿਗੂਰੀ	-11.2682
▁ਮੀਆਂ	-11.2688
▁ਰਿਹਾਇਸ਼	-11.269
▁ਯਾਂਗ	-11.2691
ਕਰਾ	-11.2691
▁ਥੇ	-11.2692
XS	-11.2697
ਲਟ	-11.2703
▁ਓਕ	-11.2703
▁ਭੇਜੀ	-11.2704
▁ਨੇਪਾਲੀ	-11.2705
ਜਮ	-11.2705
ਨ੍ਹਾਂ	-11.2706
▁ਦਮਨ	-11.271
▁ਸਥਿਰਾਂਕਾਂ	-11.2721
▁ਸੋਨੀ	-11.2722
▁ਸੁਪਰੀ	-11.2723
▁ਪੀਲ਼ਾ	-11.2723
▁ਪੁਏਰਤ	-11.2723
▁ਰੈਫ਼੍ਰੈਂ	-11.2723
XF	-11.2723
▁ਸੂਤਰੀਕਰਨ	-11.2723
▁ਕੈਪਟਨ	-11.2724
▁ਯੋ	-11.2729
▁ਆਰਾਮ	-11.2729
▁ਫੂ	-11.2732
▁ਕਲੇ	-11.2732
▁ਸਟੈਟਿਸਟਿਕਸ	-11.2734
▁ਗੁਆਤੇਮਾਲਾ	-11.2735
▁ਵੌਲੀਊਮ	-11.2735
▁ਇਤਿਹਾਸਕਾਰਾਂ	-11.2738
ਮਤੀ	-11.2739
▁do	-11.2741
▁ਇਸਰਾਇਲ	-11.2741
▁ਅਤਰ	-11.275
ਵਾਕ	-11.2751
ਧਨ	-11.2753
▁ਬੁਖਾਰ	-11.2753
▁ਰੂਪਾਂਤਰਨ	-11.2756
▁ਮਾਨਤਾਵਾਂ	-11.2757
▁ਨਿਰਪੱਖ	-11.2764
▁ਹੀਰਾ	-11.2764
▁ਚਲਣ	-11.2764
▁ਸ਼ਾਰਾਂ	-11.2765
▁ਸ਼ਰਨ	-11.2765
▁ਸੈਂ	-11.2769
▁ਦਫ਼ਤਰੀ	-11.2778
▁ਕਾਰਪੈਂਟਰ	-11.2778
▁ਸਰਪੰਚ	-11.2779
▁ਚੁਕਚੀ	-11.2779
▁ਪਿੱਠ	-11.2779
34–	-11.278
▁ਇਕਲੌਤੀ	-11.278
▁ਪੁੱਲ	-11.278
▁ਸਕਾਚ	-11.278
▁ਲੇਡੀ	-11.278
▁ਸਲੀਮ	-11.2782
▁ਇਓਨੀ	-11.2782
▁ਫੈਲਾਅ	-11.2783
▁ਆਰਮੀਨੀਆ	-11.2787
▁ਕੈਪ	-11.2791
▁ਪੰ	-11.2796
ਨਾਚ	-11.2797
ਵਿਦ	-11.2804
▁ਯਾਦਾਂ	-11.2806
▁ਢਾਲ	-11.2807
ਿਓਂ	-11.2809
▁ਫੈਲਦਾ	-11.2809
▁ਕਮਿਸ਼ਨਰ	-11.281
▁ਚੱਲਦੀ	-11.281
▁ਏਡਰੀ	-11.2814
▁ਜੇਲ	-11.2815
-4	-11.2816
ਸ਼ੀਅਨ	-11.2819
▁ਪੇਸ਼ੇ	-11.282
▁ਸੈਲਬ	-11.2821
XT	-11.2824
ਇਮ	-11.2825
▁ਹਬਰ	-11.2826
▁ਸੁੰਗੜਨ	-11.2827
▁ਹੈਰਾਨ	-11.2828
▁ਹਾਇਪ੍ਰਬੋਲਾ	-11.2829
▁ਦਸਮ	-11.2832
ਬਾਹ	-11.2833
▁ਡਿਜੀਟਲ	-11.2834
▁ਤ੍ਰਿਨੀਦਾਦ	-11.2834
▁ਸੁਝਾਇਆ	-11.2834
▁ਗੂਗਲ	-11.2835
▁ਦਰਖਤ	-11.2835
▁ਬਿਹਤਰੀਨ	-11.2835
▁ਦੂਰਸੰਚਾਰ	-11.2835
▁ਵਿਸਥਾਰਪੂਰਵਕ	-11.2835
▁ਬਣਦੀਆਂ	-11.2836
▁ਪਨਾਮਾ	-11.2836
▁ਲੈਕਚਰਾਰ	-11.2836
▁ਵਿਕਰਮ	-11.2836
▁India	-11.2839
▁ਜਮਾ	-11.284
ੋਆ	-11.2841
▁ਸਾਕ	-11.2842
▁ਸਾਬੋ	-11.2843
▁ਅੱਪੜਿਆ	-11.2844
ਾਸੀਆਈ	-11.2844
ਯਾਰ	-11.2848
▁ਲੋਕਗੀਤ	-11.285
Xu	-11.2851
ਨਕਿਨ	-11.2851
▁ਗੀਤਾ	-11.2852
ਸੰਗ੍ਰਹਿ	-11.2856
▁ਖੁਸ਼ਕ	-11.2861
▁ਵਿਚਾਰਿਆ	-11.2863
Xv	-11.2863
ਉਤਪਤੀ	-11.2866
▁ਐਲਨ	-11.2866
▁੧੮	-11.2873
▁ਵੰਨਗੀ	-11.2873
ਚਿਤ	-11.2874
▁ਟੈਕਸਸ	-11.2876
tr	-11.2878
ਨੌ	-11.288
ਖਾਨ	-11.2887
▁OK	-11.2887
▁ਗਰਾਉਂਡ	-11.2887
▁ਇੰਡੋ	-11.2888
▁ਰਵਿਦਾਸ	-11.289
▁ਲੈਪਟੌਨ	-11.289
▁ਵਿਚਾਰਧਾਰਕ	-11.289
▁ਸਿੰਤਾਵੋ	-11.289
▁ਸਪੈਨਿਸ਼	-11.289
▁ਚਿਹਰੇ	-11.2891
▁ਰਾਸ਼ਟਰਵਾਦੀ	-11.2891
ਰਕਬੇ	-11.2891
▁ਇਮਾਮ	-11.2893
▁ਸੁਲੂ	-11.2894
ve	-11.2894
▁ਚੌੜਾਈ	-11.2895
▁ਨਿਊਜ਼	-11.2897
XC	-11.2897
ਲੈਕਟਿਕ	-11.2899
▁De	-11.2901
▁ਸਕੇਗਾ	-11.2904
▁ਚਾਲੂ	-11.2904
▁ਡ੍ਰ	-11.2904
▁ਲੋਕਰਾਜ	-11.2905
▁ਕੰਪੇ	-11.2906
▁ਉਚੇਰੀ	-11.2907
ਰਚਦਾ	-11.291
▁ਪੁੱਛਿਆ	-11.2912
▁ਸ਼ੋਧ	-11.2915
▁ਸਮਿੱਟਰਿਕ	-11.2915
ਯੇ	-11.2916
ਖਾਨੇ	-11.2925
▁ਰੱਬੀ	-11.2931
▁ਨਜ਼ਰੀਆ	-11.2934
ge	-11.2936
▁ਚੈ	-11.2938
▁ਇਵਾਨ	-11.2939
XM	-11.294
▁ਜ਼ਾਰ	-11.2941
238	-11.2941
੍ਰਿਤ	-11.2943
▁ਮੰਗੋਲੀਆ	-11.2945
▁ਸਟਰੀਟ	-11.2947
ਵਰਸ	-11.2947
▁ਪਾਠਸ਼ਾਲਾ	-11.2947
▁ਪਾਲਤੂ	-11.2948
▁ਲਜ਼ਾਰ	-11.2949
▁ਲੈਂਡ	-11.2951
▁ਪਟਕਥਾ	-11.2953
▁ਇਸਤਰੀਆਂ	-11.2955
ਮਾਨੀ	-11.2957
epsi	-11.2957
ਮਿਆ	-11.2957
all	-11.296
▁ਖੇਡਦੇ	-11.2961
▁ਪ੍ਰਧਾਨਗੀ	-11.2961
▁ਐੱਲ	-11.2962
▁ਅਸਫ਼ਲ	-11.2963
▁ਗਲਾਸ	-11.2964
ਡੂਰ	-11.2968
▁ਤੀਹ	-11.297
▁ਰਿਸ਼ਤੇਦਾਰ	-11.297
ਮੋਤਸ	-11.2971
XI	-11.2974
ਗੋਰ	-11.2976
ਪਹਾੜ	-11.2979
▁ਧੱਕ	-11.298
▁ਛੇਵੀਂ	-11.2982
▁ਸੇਤੋ	-11.2982
▁ਚੁੱਪ	-11.2982
▁ਐਨੀ	-11.2983
▁ਲਾਗੇ	-11.2986
▁ਉਤਲ	-11.2986
ai	-11.2987
▁ਲੱਕੜੀ	-11.2987
ਆਲਪ	-11.2988
▁ਅੰਨਾ	-11.299
▁ਵਰਤਦਾ	-11.2993
▁ਹੇਠਲੀ	-11.2997
▁੭	-11.2998
▁ਸੁਵਿਧਾ	-11.2998
ਣਿਆਂ	-11.3
▁ਨਿਰਮਲ	-11.3
▁ਧੋ	-11.3003
▁ਜਾਣਦਾ	-11.3003
ੰਡਾ	-11.3004
▁ਊਧਮ	-11.3004
▁ਐਕਸਪੈਰੀਮੈਂਟ	-11.3004
▁ਦਰਵਾਜ਼ਾ	-11.3004
▁ਸੁਚੇਤ	-11.3004
ਿਰਹਿਨ	-11.3004
▁found	-11.3004
▁ਖੇੜਾ	-11.3004
▁ਮਲਟੀਪਲ	-11.3004
▁ਪ੍ਰਦੂਸ਼ਣ	-11.3005
▁ਫੇ	-11.3005
▁ਸੱਚੇ	-11.3005
ੈਲਿੰਗਜ਼	-11.3005
▁ਸਿਬੂ	-11.3006
▁ਚਮਕਦਾਰ	-11.3007
ਚਿੱਤਰ	-11.3009
▁ਜਹਾਜ਼ਾਂ	-11.3009
▁ਗੁੱਟ	-11.301
▁ਥਿਊਰ	-11.3011
▁ਹਟਾਉਣ	-11.3011
ਜ਼ੂ	-11.3011
Xd	-11.3013
▁ਲੰਗਰ	-11.3013
▁ਬਦਲਦੀਆਂ	-11.3014
▁ਰੇਗਿਸਤਾਨ	-11.3016
▁ਮਿਲਾਇਆ	-11.3019
▁ਹਿੱਤ	-11.3021
▁ਇਰਮ	-11.3024
▁ਕੇਸਾਂ	-11.3025
▁ਛੁਪੀ	-11.3027
▁ਵਿਕਟਾਂ	-11.3028
▁ਕੁੱਕ	-11.303
▁ਵਿਸਾਇ	-11.3034
ry	-11.3035
▁ਪਈਆਂ	-11.3037
▁ਮੇਜਰ	-11.3038
▁ਪੁੰਨ	-11.304
ੋਨੋਟ	-11.3046
प	-11.3046
ਸਭ	-11.3047
52	-11.3049
ਰੇਟ	-11.305
▁ਤੂ	-11.305
▁ਇਸਵਿੱਚ	-11.3052
▁ਅਸਮਾਨਤਾ	-11.3053
▁ਚੇਤਨ	-11.3054
ਆਧੁਨਿਕ	-11.3054
▁ਸੱਜਣ	-11.3057
▁ਜਿੰਨਾਂ	-11.3059
▁ਕਾਰਟੂਨ	-11.306
▁ਉਤਰਾਖੰਡ	-11.3061
▁ਅਸੈਂਬਲੀ	-11.3061
▁ਇਲਜ਼ਾਮ	-11.3061
▁ਗ੍ਰਿਫ਼ਤਾਰ	-11.3061
▁ਮਿਰਤੋ	-11.3061
▁ਸਮੀਕਰਣ	-11.3061
▁ਲਿਥੁਆਨੀਆ	-11.3062
ਹਾਜ਼ਰੀ	-11.3063
ਕ੍ਰ	-11.3065
▁ਵੋਲਟੇਜ	-11.3066
▁ਵੈਲ	-11.3067
▁ਰੀਸਰ	-11.3068
▁85	-11.3069
▁ਹੋਮ	-11.3071
▁ਬੈਕਟੀਰੀਆ	-11.3072
▁ਪਿਚੋਰ	-11.3074
▁ਅਲਬੋ	-11.3076
▁ਵਾਹੀ	-11.3076
ਵਿਆਪੀ	-11.3077
ਟਮ	-11.3079
▁ਮਰੀਆਨ	-11.308
ਵਾਹ	-11.308
▁ਅਲਪ	-11.308
2,	-11.3082
▁ਰਿਲੇਟੀਵਿਸਟਿ	-11.3083
▁ਚੜ੍ਹਦੀ	-11.3085
ੰਤੀਨ	-11.309
ਇਹਨਾਂ	-11.3093
ਕਟਰ	-11.3097
▁Do	-11.3097
▁ਸੱਚਾਈ	-11.3101
ਰਹਿਤ	-11.3101
62	-11.3102
▁53	-11.3104
▁ਡਿਸਕ੍ਰ	-11.3104
ਾਈਲ	-11.3108
▁ਨਾਈ	-11.3109
▁ਫੰਕਸ਼ਨਲ	-11.3115
▁ਪਾਉਣਾ	-11.3118
{{{1}}}	-11.3118
▁ਕਾਰਗੁਜ਼ਾਰੀ	-11.3118
▁when	-11.3118
▁ਸਾਫਟਵੇਅਰ	-11.3118
▁ਸਿੰਚਾਈ	-11.3118
▁ਸੇਵਾਮੁਕਤ	-11.312
▁ਅਹਿਮੀਅਤ	-11.312
▁ਬਜ਼ਾਰ	-11.312
▁ਫੋਕਸ	-11.312
▁68	-11.3121
▁ਫ੍ਰੀ	-11.3126
▁ਕਦਰ	-11.3126
".	-11.3135
▁ਖੁੱਲਾ	-11.3136
)।	-11.3139
ਤਾਈ	-11.3141
age	-11.3144
▁ਪ੍ਰੈਸ	-11.3145
ਞ	-11.3146
▁ਵਾਦੀ	-11.3146
▁ਚਾਲੀ	-11.315
▁ਸੁਰਿੰਦਰ	-11.3153
▁ਘੁਮਾ	-11.3154
ਸ਼ਾਇਰ	-11.3155
ਿਟੀਕਲ	-11.3155
▁ਧੁਰੀ	-11.3156
▁ਮੋਲ	-11.3156
▁ਗਤੀਵਿਧੀ	-11.3157
▁ਗੁਜਰ	-11.3158
▁ਮਹਾਰਾਜ	-11.3158
▁ਅਸਾਮ	-11.316
▁ਫੌਜਾਂ	-11.316
ਹਲਮਾ	-11.3168
▁ਇਨਾਂ	-11.3169
ਚੁ	-11.3175
▁ਗੁੰਬਦ	-11.3176
▁ਬਾਸਕਟਬਾਲ	-11.3176
▁ਰੋਮਾਂਟਿਕ	-11.3176
▁ਵਿਟਾਮਿਨ	-11.3176
▁ਸ਼ਹਾਦਤ	-11.3176
▁ਸਾਰਥਕ	-11.3176
▁also	-11.3176
▁ਮੁਰੀਦ	-11.3176
▁ਪ੍ਰਾੱਪ	-11.3177
▁ਐਡੀਸ਼ਨ	-11.3177
▁ਪ੍ਰਗਤੀਸ਼ੀਲ	-11.3177
▁ਫੈਸਲੇ	-11.3177
▁ਕੈਟ	-11.3177
▁ਅਰਦਾਸ	-11.3178
ਚੱਕ	-11.3178
ਮੀਰ	-11.3179
ਗਰਾ	-11.3185
ਸਬੰਧ	-11.3192
▁ਬਾਹਰਲੀ	-11.3198
ल	-11.3201
▁ਬੈਲ	-11.3201
▁ਜੋੜਦੀ	-11.3203
ਾਈਟ	-11.3205
▁ਬੀਮਾਰ	-11.3207
ਕੁਝ	-11.3208
▁ਟੇਲਰ	-11.321
▁ਛੁੱਟ	-11.3211
ਲੇਨ	-11.3213
▁ਵਿਆਹਿਆ	-11.3215
▁250	-11.3216
ਲਾਨ	-11.3217
▁ਫੋ	-11.3218
ਬੰਗ	-11.3219
ਦਾਂ	-11.3222
os	-11.3222
▁ਗੁੜ	-11.3224
▁}{\	-11.3226
ਕ੍ਰੇਤ	-11.3227
▁ਟੀਕਾ	-11.3228
▁ਉਲਟੀਆਂ	-11.3232
▁ਕਿਰਗਿਜ਼ਸਤਾਨ	-11.3234
▁ਟੱਬਰ	-11.3234
▁ਸਟ੍ਰੈੱਸ	-11.3234
▁ਜ਼ਿੰਦਾ	-11.3234
▁ਰਸੋਈ	-11.3235
▁ਹੋਈਆ	-11.3235
▁ਸਿਲਸਿਲਾ	-11.3237
▁ਹੜ੍ਹ	-11.3238
ਭਿੰਨ	-11.3239
▁ਨਜਰ	-11.3242
ਸਾਈ	-11.3244
ਸ੍ਰੀ	-11.3246
▁ਸਰਕਲ	-11.3247
▁ਮਜਦੂਰ	-11.3247
ਸਰਾਮ	-11.3248
▁ਕਬੀਲਾ	-11.3248
▁ਸਟਾਈਲ	-11.3249
ti	-11.3253
▁ਲੰਬੀਆਂ	-11.3253
▁ਛਾਂ	-11.3255
▁ਐਨਾ	-11.3256
▁ਸੰਤੋਖ	-11.3259
▁ਵੇਂ	-11.3265
ਕਤਾ	-11.327
ਦਸ	-11.3272
ਜ਼ੋ	-11.3273
▁ਗਵਾ	-11.3274
▁ਪ੍ਰਕਾਸ਼ਕ	-11.3277
ਗੁਣਕ	-11.3279
3,	-11.3279
ਸੰਘ	-11.3279
▁ਸਾਧਨਾ	-11.3283
▁ਚੱਲੇ	-11.3284
▁ਨਾਨਾ	-11.3293
▁ਸਮਗਰੀ	-11.3293
▁ਪਟੇਲ	-11.3294
▁ਬਹੁਮਤ	-11.3294
▁ਸ਼ੋਸ਼ਣ	-11.3294
▁ਆਗਮਨ	-11.3297
▁ਅਦਾਰੇ	-11.3299
▁ਅੰਦਾਜ	-11.33
▁ਤਰਜਮਾਨੀ	-11.3301
ਸਿਰ	-11.3302
▁ਬੋਹੋ	-11.3302
▁ਕਮਿਊਟ	-11.3304
▁ਫੀਡ	-11.3307
ਵਾਇਆ	-11.3309
▁ਆਦਿਵਾਸੀਆਂ	-11.3311
ਹਰੀ	-11.3314
▁ਜਾਰਡਨ	-11.3315
▁ਬੈਨ	-11.3317
▁ਜੇਨ	-11.3317
▁ਭੁ	-11.3318
2/	-11.332
੍ਰਿਕ	-11.332
▁ਨੰਦਾ	-11.3329
ac	-11.3331
ਅੰ	-11.3334
▁ਮਸਤ	-11.3346
▁ਰੀਸ	-11.3347
Xq	-11.3349
ਗੀਤ	-11.3351
▁ਉੱਤ	-11.3351
▁ਅਲਜਬ੍ਰਿ	-11.3351
▁ਤੋਬਾਗੋ	-11.3351
▁ਉਦਯੋਗਪਤੀ	-11.3353
▁ਗਰੀਸ	-11.3354
ਮੋਹ	-11.3354
▁ਅਕਸ	-11.3357
▁ਲਗਾਈ	-11.3358
▁ਸੁੰਨੀ	-11.3359
ਬ੍ਰਟ	-11.3361
▁ਖੋਲ੍ਹ	-11.3363
ਚੋ	-11.3367
▁ਜਾਤਾਂ	-11.3367
▁ਸਵਰਗ	-11.3367
▁ਅਫ਼ਗਾਨ	-11.337
▁ਸ਼ੁੱਕਰਵਾਰ	-11.3375
ਹਾਈ	-11.3378
ਆਲ	-11.3378
▁ਕੋਨੇ	-11.3383
ਜਿਨ	-11.3385
▁ਲਾਏ	-11.3385
▁ਲਿਜਾ	-11.3386
▁ਪਠਾਣਾਂ	-11.3388
▁ਕਰਣਾ	-11.339
▁ਕੰਡਕਟਰ	-11.3396
ਬਤ	-11.3397
ੌਰਡਨ	-11.3399
▁ਕਰਾਸ	-11.34
▁ਜਿਨ੍ਹਾ	-11.3402
▁ਦੁਨਿਆ	-11.3404
▁2‐1	-11.3406
▁ਜਿੰਦ	-11.3407
▁ਪ੍ਰਾਣ	-11.3407
72	-11.3409
▁ਆਇਡੈਂਟਿਟੀ	-11.3411
▁ਸਿਫਾਰਸ਼	-11.3411
▁ਗੁੱਸੇ	-11.3411
▁ਫਕੀਰ	-11.3411
▁ਈਸਾਪੂਰਵ	-11.3411
▁ਟਾਂਡਾ	-11.3411
▁ਆਕਸਫੋਰਡ	-11.3411
▁ਇੰਤਰੇ	-11.3412
ਮਾਨਕੀਕਰਨਯੋਗ	-11.3412
▁ਗਿੱਧਾ	-11.3412
▁ਮਾਈਨਸ	-11.3412
▁ਜਨਮਸਾਖੀ	-11.3413
▁ਮਾਲਕੀ	-11.3414
ਲਾਈਟ	-11.3416
▁ਦਿੱ	-11.3416
ਪਦ	-11.3417
org	-11.3421
▁ਖੜਕ	-11.3421
▁ਲੈਣੀ	-11.3421
3.	-11.3421
ni	-11.3427
ਹਿੰਦ	-11.3431
▁ਦੁਰਾਡ	-11.3433
ਕ਼	-11.3437
ਜੋੜ	-11.3439
▁ਅਕ	-11.3439
▁ਮਾਨਸਿਕਤਾ	-11.3441
ਔਫ	-11.3447
ust	-11.3449
▁ਗਾਰਡਨ	-11.345
▁ਖ਼ੁਸ਼ੀ	-11.3451
ਟਿ	-11.3455
▁ਯੂਐਸ	-11.3459
▁ਥਾਂਵਾਂ	-11.3461
▁47	-11.3461
▁43	-11.3466
▁ਜਲਦ	-11.3467
▁ਅਸਥੂਲ	-11.347
▁ਨਿਪੁੰਨ	-11.347
▁ਨਿਜ਼ਾਮ	-11.347
▁ਬਿਏਨ	-11.3471
▁ਧਕੇਲ	-11.3471
▁1898	-11.3473
▁ਮੰਗਲਵਾਰ	-11.3474
▁ਸੱਕਦੇ	-11.3474
ਰੋਮ	-11.3474
▁ਲੁਇਸ	-11.3475
▁ਲੜਕੇ	-11.3475
6%	-11.3476
ਵਤੀ	-11.3477
▁ਮਾਡਲਿੰਗ	-11.3478
▁ਮਿਸਟਰ	-11.3479
▁ਚਰ	-11.3479
▁ਨਾਕਾਮ	-11.3483
▁ਦੀਵਾਰ	-11.3484
▁ਬੋਲੇ	-11.3484
▁ਦੇਵੇਗਾ	-11.3484
▁ਅਸਮਰੂਪਤਾ	-11.3485
▁ਰੀਤਾਂ	-11.3488
▁ਪਰਤਾਂ	-11.3489
▁ਗੁਪਤਾ	-11.3491
ਈਆ	-11.3494
▁ਆਲੂ	-11.3497
ਲੇਖਕ	-11.3497
▁ਅਪਣਾਉਂਦਾ	-11.3498
XR	-11.3498
▁ਗੋਲੇ	-11.3499
▁ਗਾਈਡ	-11.3499
ਭਾਸ਼ਾਵਾਂ	-11.3501
ੀਆਨਾ	-11.3501
ħ	-11.3505
ਬੋਹਮ	-11.3507
▁ਛੱਡਿਆ	-11.3514
▁ਬੈਠਕ	-11.3516
▁ਕੜੀ	-11.3517
cal	-11.3525
▁ਪਾਰਲੀਮੈਂਟ	-11.353
▁ਚਾਚਾ	-11.3531
▁ਦੂਰਬੀਨ	-11.3532
▁1848	-11.3533
▁1859	-11.3534
▁ਪ੍ਰਗਟਾਅ	-11.3534
▁ਕੁਰਬਾਨੀ	-11.3535
▁ਕਾਂਗੋ	-11.3536
▁ਨਗਰਪਾਲਿਕਾ	-11.3536
ਸ਼ੁ	-11.3536
ਖਰ	-11.3543
▁ਨਾਮਵਰ	-11.3546
▁ਉੱਡ	-11.355
▁ਤਖਤ	-11.3551
▁੧੬	-11.3552
▁ਛਿ	-11.3553
the	-11.3554
eta	-11.3555
▁ਉੱਨਤੀ	-11.3558
▁ਸਾਈਕਲ	-11.3558
▁ਇੱਟਾਂ	-11.356
▁ਵਿਸ਼ਵਾਸਾਂ	-11.3562
▁ਲੇਟ	-11.3565
▁ਅੰਕੜਿਆ	-11.3566
▁ਪਹੁੰਚਦੇ	-11.3568
ਹੰਗਰੀ	-11.3568
XV	-11.3568
▁ਦਿਮਾਗ਼	-11.3569
▁ਬੁਰ	-11.3572
▁ਸਜਾ	-11.3572
▁ਓਮ	-11.3577
▁ਤੁਹਾਡ	-11.3579
▁ਖ਼ੁਸ਼	-11.3579
▁ਹਾਕਿੰਗ	-11.3581
▁ਛੋਹ	-11.3583
ਂਹ	-11.3583
ਲੀਸਿਟ	-11.3586
ਬਾਬਾ	-11.3587
▁ਇਲਾਹਾਬਾਦ	-11.359
▁ਰੰਧਾਵਾ	-11.359
▁ਹਫ਼ਤਿਆਂ	-11.359
▁ਅਣਗਿਣਤ	-11.359
▁ਮਲਕੀਅਤ	-11.359
▁ਸਟਾਕ	-11.3591
▁ਚਰਬੀ	-11.3592
▁ਜਿਨੂੰ	-11.3595
ang	-11.3595
▁ਆਪੋ	-11.3597
▁ਯਥਾਰਥਵਾਦ	-11.3597
▁ਘੋੜਾ	-11.3598
▁ਫਾਈਨ	-11.3599
ਸਿੰਗ	-11.36
▁ਬੀਜਿੰਗ	-11.3601
▁ਸਟਾਲਿਨ	-11.3607
^{2}	-11.361
ਦਿਆ	-11.3614
▁ਕਰਮਚਾਰੀਆਂ	-11.362
▁ਵਿਦੇਸ਼ਾਂ	-11.3621
▁ਲੇਵੀ	-11.3622
▁ਵਿੱਤ	-11.3625
▁--	-11.3625
Xl	-11.3627
ਸਕਿੰਟ	-11.3629
▁see	-11.363
ੰਗਾ	-11.3635
ੇਟਿਵ	-11.3638
▁ਗੋਪਾਲ	-11.3642
▁ਸਰਹੱਦੀ	-11.3642
▁ਪੱਖੀ	-11.3646
▁ਜੈਤੋ	-11.3648
ਾਈਆਂ	-11.365
ਲ਼	-11.365
▁ਵੇਲਾ	-11.365
▁ਨਫ਼ਰਤ	-11.3651
▁ਅਹੁਦਾ	-11.3651
▁ਪਰਗਟ	-11.3651
▁ਸੋਵਿਅ	-11.3652
▁ਤੀ	-11.3653
▁1857	-11.3653
▁ਪੱਤੀ	-11.3653
▁ਸਰਕਟ	-11.3654
▁ਗੜਵਾਲ	-11.3654
▁ਸਲਾਨਾ	-11.3654
▁ਨੋਕ	-11.3654
ਕਈ	-11.3656
▁ਸਾਹਿਬਾਨ	-11.3657
▁ਜੜਾਂ	-11.3657
2.	-11.3658
▁ਭਿ	-11.3661
▁ਭਰਤ	-11.3662
▁ਬਹਿ	-11.3662
▁ਰੇਸ਼ਮ	-11.3663
▁ਚੀਜ	-11.3664
▁ਨਰਿੰਦਰ	-11.3666
ੰਦੀ	-11.3669
ਕਰਣ	-11.3669
▁ਬੇਟਾ	-11.3673
▁ਬੰਗਲਾਦੇਸ਼ੀ	-11.3675
no	-11.3676
▁ਉੱਠ	-11.3678
▁ਵਿਵਸਥ	-11.368
▁ਐਸੋਸੀਏਟ	-11.3681
▁ਸੁਪਰਸਮਿੱਟਰੀ	-11.3683
▁ਲੀਰਾ	-11.3683
ੇਗਨ	-11.3686
ਕੋਸ਼	-11.3687
▁ਲੀਡਰ	-11.369
ੀਵਿਟੀ	-11.3691
▁ਸੋਚਣ	-11.3693
▁ਏਵ	-11.3697
ਨਾਰ	-11.3698
ਗੋਲ	-11.37
pe	-11.3702
▁ਗੜ੍ਹ	-11.3703
▁ਲਾਜ	-11.3705
▁ਹਿਤ	-11.371
▁ਬਦਕਿਸਮਤ	-11.3712
▁ਸਰਵੋਤਮ	-11.3712
50,000	-11.3712
▁ਤਾਜਿਕਿਸਤਾਨ	-11.3712
▁ਟ੍ਰਾਂਸ	-11.3712
▁ਪ੍ਰਗਤੀਵਾਦੀ	-11.3713
▁ਬਿਆਸ	-11.3713
▁ਦੂਜਿਆਂ	-11.3713
▁ਬਿਸਕ	-11.3713
▁ਪ੍ਰਮੁਖ	-11.3714
▁1889	-11.3714
▁ਹੱਦਬੰਦੀ	-11.3714
▁ਬਾਈਬਲ	-11.3715
▁ਕੲੀ	-11.3715
▁ਕਾਫ਼	-11.3717
ਮੇਰੀ	-11.372
▁ਬਹਿਰੀਨ	-11.372
▁ਅਜ਼	-11.3721
▁ਦਰਪਣ	-11.3722
▁ਰਾਕਟ	-11.3726
▁ਖੁੱਲ੍ਹਾ	-11.3726
57	-11.3734
▁ਜੀਹਦ	-11.3735
▁ਅੰਮ੍ਰਿਤਾ	-11.3737
▁ਲੱਤਾਂ	-11.3738
▁ਮਿਆਰ	-11.3741
Xk	-11.375
▁ਅਬਦੁੱਲਾ	-11.3751
▁ਕਾਰਟਨ	-11.3751
▁ਪਾਇ	-11.3757
▁ਪੁਣੇ	-11.3759
ਹਰੇ	-11.3761
▁ਸਿਮਰਨ	-11.3762
ਓਂ	-11.3763
▁64	-11.3763
=1	-11.3764
ਕਸ਼	-11.3768
▁ਪਾਸ਼	-11.3768
▁Re	-11.377
▁49	-11.3772
ਐਨਾਫਾਈਲੈਕਸਿਸ	-11.3773
▁ਅਥਲੀਟ	-11.3773
▁ਅਲੌਗਰਿਥਮ	-11.3773
▁ਅਡਵਾਂਸ	-11.3773
▁ਕੂਲੌਂਬ	-11.3773
▁78	-11.3773
▁ਮਿੱਠਾ	-11.3774
▁ਜਮ੍ਹਾਂ	-11.3775
▁ਟਕਰਾਉਣ	-11.3776
}}_{	-11.3778
▁ਐਲਿਸ	-11.378
▁ਸੰਘੀ	-11.378
ਧਿ	-11.3781
▁ਗੌਰਵ	-11.3782
▁ਸੀਰੀਆਈ	-11.3782
▁ਵਰਗੀਕਰਨ	-11.3784
har	-11.3785
▁ਹੋਣਗੀਆਂ	-11.3787
▁ਮੰਗਦਾ	-11.379
ਚੰਦ	-11.379
▁ਸਰਵਰ	-11.3793
ਮਿਨ	-11.3794
▁ਕਾਲਜਾਂ	-11.38
ਸਟਾਰ	-11.3802
▁ਇੰਡੀਆਨਾ	-11.3803
ਿੱ	-11.3803
▁ਜੁਗ	-11.3806
▁ਜਥੇਬੰਦੀ	-11.3806
▁ਕੀਰਤਨ	-11.3812
ਗੁਣ	-11.3814
▁clos	-11.3816
▁ਯੂਕੇ	-11.3817
est	-11.3822
▁ਕੇਂਦਰਾਂ	-11.3822
▁ਆਰਮੀ	-11.3823
▁ਪ੍ਰੰਪ੍ਰ	-11.3835
▁ਪਰਿਸ਼ਦ	-11.3835
▁ਖਵਾਜਾ	-11.3837
▁ਕੁਲੀਨ	-11.3839
▁ਕਿੱਥੇ	-11.384
▁ਆਨੰਦਪੁਰ	-11.384
▁ਲੈਟਿਨ	-11.3841
▁ਮੁਕਾ	-11.3843
▁tags	-11.3843
▁ਮੁਕਾਬਲ	-11.3843
▁ਦਾਇਰੇ	-11.3845
▁ਅਫਗਾਨ	-11.3847
ਤੂੰ	-11.3848
ca	-11.385
▁ਬ੍ਰਿ	-11.3852
▁ਮੋਰਚਾ	-11.3852
▁ਸਿੰ	-11.3853
▁ਖਾਂਦਾ	-11.3853
ੰਡੀ	-11.3858
▁ਫਤਿਹ	-11.3859
▁ਪ੍ਰਿੰਟ	-11.3859
▁ਸਰਦੀ	-11.3862
ਰੋਲ	-11.3865
▁ਖੜ੍ਹਾ	-11.3865
ਸਭਿਆਚਾਰ	-11.3866
ਵਾਰੀ	-11.3866
▁ਮੁਹੱਬਤ	-11.3869
▁ਮਾਘ	-11.3871
▁ਰਵਾਇਤ	-11.3875
▁ਕਲਚਰ	-11.388
▁ਕਾਸ	-11.3882
▁ਸੇਰ	-11.3884
▁ਦਾਨਵ	-11.3885
▁ਫੇਮ	-11.3891
ਾਵਰ	-11.3895
▁ਕਾਰਜਸ਼ੀਲ	-11.3896
▁ਰਿਟਾਇਰ	-11.3897
▁ਇਸਤੋਨੀਆ	-11.3897
▁ਕਾਕਾ	-11.3897
ੰਨਾ	-11.3898
▁ਦਿਸੇਗਾ	-11.3901
▁ਉਪਨਾਮ	-11.3902
▁ਲਹਿੰਦੇ	-11.3902
XL	-11.3903
▁ਚਿਤਰ	-11.3903
ul	-11.3904
▁ਤਾਇਵਾਨ	-11.3906
▁ਕਮਾਂਡਰ	-11.3908
ho	-11.3909
ਹਾਲ	-11.3909
ੰਡੇ	-11.3916
▁ਜਾਇਆ	-11.3916
ਔਨ	-11.392
able	-11.3921
ਗਿਣਤੀ	-11.3921
▁ਧੁਰ	-11.3921
ten	-11.3921
ਖਿ	-11.3926
▁ਕੌਲ	-11.3927
XP	-11.393
▁ਪੇਸ਼ਾ	-11.3933
ਪੋਰ	-11.3933
Xh	-11.3933
▁ਸੰਤਾਂ	-11.3934
▁ਸੰਤਾਨ	-11.3936
ਮਿਉਟੇਸ਼ਨ	-11.3937
▁ਤਬਾਹੀ	-11.3942
ੀਕ੍ਰਿਤ	-11.3944
ਰੇਸ਼ਨ	-11.395
▁ਮਕੱ	-11.395
ell	-11.395
ਲੌਜੀ	-11.395
ਮਾਮ	-11.3956
▁ਫ਼ਿ	-11.3956
ਬਲੀ	-11.3957
▁9.	-11.3958
▁ਵੰਡਣ	-11.3959
▁example	-11.396
▁ਹਫਤੇ	-11.396
▁ਪ੍ਰੋਗ੍ਰਾਮ	-11.396
ਖੁ	-11.3962
▁ਸਮਝੇ	-11.3962
▁ਮਾੜੇ	-11.3963
ਸਰਕਾਰੀ	-11.3967
Xx	-11.3968
▁ਡੋਰੀ	-11.3968
▁ਪੜਤਾਲ	-11.3971
▁ਲੇਅਰ	-11.3973
-0	-11.3975
▁ਲਾਲਾ	-11.3977
▁ਆਕਸਫ਼ੋਰਡ	-11.3978
▁ਬਲੂ	-11.3979
▁੧੫	-11.3979
▁੧੦	-11.398
▁ਐਟ	-11.398
ν	-11.398
ਦ੍ਰਿਸ਼	-11.3983
▁ਸਮਰਥਾ	-11.3984
Xt	-11.3986
▁ਬੱ	-11.399
▁ਅੰਦਾਜ਼ੇ	-11.399
▁79	-11.399
▁ਯੁਕਤ	-11.3991
▁ਕਹਾਉਂਦ	-11.3993
▁ਵਕਰਾਂ	-11.3999
▁ਇਲੈਕਟ੍ਰੋਨ	-11.3999
▁ਆਲਾ	-11.4002
ਮੋਰਲੇ	-11.4011
▁ਵੱਜ	-11.4015
ਫੋਨ	-11.4015
ਵਿਸ਼ਵਾਸ	-11.4022
▁ਗਿਰਾਵਟ	-11.4022
▁ਤਨਖਾਹ	-11.4022
▁ਪ੍ਰਿਥਵੀ	-11.4022
▁ਵੰਨ	-11.4023
▁ਹਰਿਗੋਬਿੰਦ	-11.4023
▁ਨਾਸਤਿਕ	-11.4023
▁ਸੂਰੀਨਾਮ	-11.4023
)}	-11.4023
▁ਖ਼ਰਚ	-11.4023
▁ਪੜ੍ਹਾਇਆ	-11.4025
▁ਏਸ਼ੀਅਨ	-11.4027
੍ਹੀ	-11.4027
▁ਵੈੱਬ	-11.4028
▁ਕੀਨੀਆ	-11.4029
up	-11.4031
▁ਅੱਡੇ	-11.4032
hba	-11.4035
▁1906	-11.4037
▁ਵੇਖੀ	-11.4037
ਅੰਤਰ	-11.4037
▁ਮੁਨੀ	-11.4038
ਫਟ	-11.4039
▁ਉਪਕਰਣ	-11.404
▁ਪਲਾਂ	-11.4041
▁ਨਿਹਾਲ	-11.4042
▁ਰੂਮੀ	-11.4047
99	-11.4051
pa	-11.4053
▁ਜੜ੍ਹ	-11.4054
▁ਸੰਬੋਧ	-11.4055
▁ਜ਼ਰ	-11.4061
▁ਵਾਹਨ	-11.4061
▁ਪੀਰੀ	-11.4062
▁ਵਿਲਸਨ	-11.4062
ਮਿਸ	-11.4063
▁ਵਾਇਰਸ	-11.4066
▁7.	-11.4069
ਫੈ	-11.4069
▁ਵਿਸ਼ਵਾਸ਼	-11.407
▁ਬੰਨਿਆ	-11.4072
▁ਸ਼ੁਭ	-11.4074
▁ਡੁ	-11.4074
▁ਵਿਭਿੰਨਤਾ	-11.4076
▁ਪੋਲੀ	-11.4076
▁ਕਾਂਗ	-11.4077
▁ਪੂਰਵਜ	-11.4078
▁ਬੋਲਦੀ	-11.4079
▁ਆਸਾ	-11.4083
ੋਫ਼ੋਰ	-11.4083
▁ਮਤਾ	-11.4085
▁ਖਤਰਨਾਕ	-11.4086
▁ਰੁਤਬਾ	-11.4086
▁ਲਿਵਰਪੂਲ	-11.4086
▁ਉਰੂਗੁਏ	-11.4086
▁ਇਸ਼ਨਾਨ	-11.4086
▁ਤੀਸਰੀ	-11.4086
▁ਮਕਬਰਾ	-11.4086
▁ਔਰਥੋ	-11.4086
▁ਮੈਮੋਰੀਅਲ	-11.4086
▁ਤਮਾਮ	-11.4087
▁ਬਨਾਰਸ	-11.4087
▁ਜਾਣਨ	-11.4087
▁ਡਬਲਿਨ	-11.4087
▁ਨਿਬੰਧਕਾਰ	-11.4089
▁ਐਸਿਡ	-11.4089
▁1-	-11.409
▁ਅਪ੍ਰਵਾਨ	-11.409
▁ਨਿਗਮ	-11.4091
▁ਇਬਨ	-11.4091
ੋਈ	-11.4093
▁ਅੰਕੜੇ	-11.4093
▁ਖੋਲਿਆ	-11.4094
▁ਨਿਖੇੜਨ	-11.4095
▁ਭ੍ਰਿਸ਼ਟਾਚਾਰ	-11.4096
▁ਸਿਫਰ	-11.41
▁ਹਾਈਡਰੋਜਨ	-11.4101
▁ਜਿਗਰ	-11.4107
ਜਦ	-11.4108
ਂਡਾ	-11.4109
ਟੈਕ	-11.4111
▁58	-11.4112
▁ਸਤੀ	-11.4113
▁ਛਾਪਣ	-11.4113
ig	-11.4116
▁के	-11.4116
▁ਫੌਰ	-11.4122
ਣਾਂ	-11.4123
ਨੌਰਮਲ	-11.4124
▁ਅੰਟਾਰਕਟਿਕ	-11.4125
▁ਸੱਜਾ	-11.4125
▁ਜਸਵੰਤ	-11.4125
▁ਸਾਧ	-11.4125
ੱਲੇ	-11.4128
▁ਔਨ	-11.4128
▁ਕੱਲ੍ਹ	-11.4131
▁ਧਰੁਵ	-11.4131
▁ਡਰਵਿ	-11.4134
ਬਹੁਤ	-11.4134
ਇਲੈਕਟ੍ਰੌਨ	-11.4138
ਪ੍ਰਮਾਣੂ	-11.4138
▁ਗਹਿਰ	-11.4145
ਪੂਰਵਕ	-11.4147
▁ਜੀਵਤ	-11.4148
ੋਤ	-11.4148
▁ਜੇਠ	-11.4148
ੱਤਾ	-11.4148
▁ਸਵਾਰੀ	-11.4148
▁ਚੰਡੀਗੜ	-11.4149
▁ਐਗਰੀਕਲਚਰ	-11.4149
▁ਤਗਮੇ	-11.4149
▁ਫ਼ਿਲਾਸਫ਼ਰ	-11.4149
▁ਘਨੌਰ	-11.415
▁ਜਥੇਦਾਰ	-11.4151
▁ਜੁਆਨ	-11.4153
▁ਵਾਰਸ	-11.4156
▁ਸਦਨ	-11.4156
▁ਅਖਬਾਰਾਂ	-11.4157
▁ਟੱਕਰ	-11.4158
▁−1	-11.4159
ਲੋਜੀ	-11.4161
▁ਪੂਛ	-11.4161
ਂਦੀ	-11.4167
▁ਮਹਾਂਕਾਵਿ	-11.4169
ਕਿਊ	-11.417
ਕੋਹਰੰਸ	-11.4171
▁ਜ਼ਿੰਮੇਵਾਰ	-11.4171
▁ਸੁੱਕੇ	-11.4171
▁ਟੇਲ	-11.4171
▁ਮੁਲਾਂਕਣ	-11.4173
▁ਬੀੜ	-11.4175
▁ਗਿੱਧੇ	-11.4177
ਕਲੀ	-11.4177
▁ਥਾਪ	-11.4179
▁ਅਨੁਸ਼ਾਸਨ	-11.4181
he	-11.4184
▁ਬੇਮੇਲਤਾ	-11.4185
▁ੲਿ	-11.4186
▁ਸਾਇ	-11.4187
▁ਲਿਆਇਆ	-11.4189
▁ਰੀਕਾ	-11.4196
ਰੌ	-11.4197
▁ਅਧਿਆਪਕਾਂ	-11.4198
▁81	-11.4198
▁66	-11.4198
ਵਿਰੁੱਧ	-11.4203
ਰਿੰਗ	-11.4209
▁ਵੇਵਲੈਂਥ	-11.4214
▁ਡਿਊਲਿਟੀ	-11.4214
▁ਬਿਨ੍ਹਾਂ	-11.4214
▁ਇਨ੍ਹਾ	-11.4215
▁ਗੲੇ	-11.4215
▁ਮੌਲਾਨਾ	-11.4215
▁ਮੰਗੀ	-11.4217
ਮਿੱਟ	-11.4217
▁ਪੂਲ	-11.4223
▁ਦੁਰਘਟਨਾ	-11.4225
▁ਤੌ	-11.4229
▁ਦੇਸੀ	-11.4231
ਵੇਨ	-11.4232
▁ਡਿੱਗਣ	-11.4233
▁ਕ੍ਰਿਸਚ	-11.4233
▁ਸਾਧਾਰਨ	-11.4234
▁ਆਟੇ	-11.4235
ਵਾਹਿਆ	-11.4241
Z	-11.4242
po	-11.4242
▁ਫਿਲਮੀ	-11.4245
▁ਗੌਰੀ	-11.4246
▁ਨਸਲਾਂ	-11.4248
▁ਰਾਂਝਾ	-11.4249
ਾਨੇ	-11.4256
▁ਆਂਕੜੇ	-11.4256
▁ਸਹਿਣ	-11.4256
▁ਰੱਖੀਆਂ	-11.4256
ੀਅਸ	-11.4257
▁ਵੱਲੋ	-11.4259
▁ਪਰੋ	-11.4263
▁ਸਮਝਾਈ	-11.4267
▁800	-11.4269
▁ਰਲ਼	-11.427
▁ਤਪ	-11.4272
▁ਸਿੰਧੂ	-11.4272
▁ਵੀਲਰ	-11.4272
ਪੁੰਜ	-11.4274
▁ਗਿਣ	-11.4275
ap	-11.4275
▁ਪਲਟਣ	-11.4277
▁+1	-11.4277
▁ਹਕੀਕਤ	-11.4278
▁ਵਿਗਾੜ	-11.4278
▁ਸੋਮਰਫੈਲਡ	-11.4278
▁ਅਖ਼ਤਰ	-11.428
▁ਉਬਾਲ	-11.428
▁ਕੱਪੜਾ	-11.4283
]]	-11.4283
▁1902	-11.4284
ਗੁਆ	-11.4286
ਾਈਡਰ	-11.4287
▁ਲੇਬਰ	-11.4288
▁ਬਰਮੀ	-11.4289
▁ਵੈਨਕੂਵਰ	-11.429
ੈਪ	-11.429
▁ਘੁੰਮਦਾ	-11.4294
ਕਤਾਬ	-11.4295
▁ਲਿਸਟ	-11.4299
ਭੂ	-11.4299
▁ਐੱਫ	-11.4302
ਮੁਕਤ	-11.4302
▁ਸੌਂ	-11.4304
ਰਵਾਨਾ	-11.4304
ਿੱਤ	-11.4305
de	-11.4305
▁ਵੈਰੀ	-11.4306
▁ਘਣ	-11.4312
▁ਉਪਨਿਵੇਸ਼	-11.4314
▁ਮਾਧਿਅਮਾਂ	-11.4314
ਮੇਰੇ	-11.4316
▁ਇਨਰਸ਼ੀਅ	-11.4318
ਰਾਗ	-11.4318
▁ਲਾਇਕ	-11.4319
▁ਨਿਯਮਤ	-11.4321
ਸੰਤ	-11.4322
ਬੰ	-11.4323
ਰਾਨੀ	-11.4323
▁ਬੁਲ੍ਹੇ	-11.4325
▁ਕੇਪ	-11.4326
ਪ੍ਰਕਾਸ਼	-11.4327
ਸਥਾਨਿਕਤਾ	-11.4328
▁ਦਰਸਾਉਣਾ	-11.4329
▁ਤਬ	-11.433
ਜੋਲ	-11.4331
▁ਆਸਾਨ	-11.4334
ਆਈਨਸਟਾਈਨ	-11.4335
▁ਪੂਜ	-11.4336
▁ਬਹੁਤੀਆਂ	-11.4342
▁ਗਰਨਜ਼ੇ	-11.4343
▁ਲਕਸਮਬਰਗ	-11.4343
▁ਪੈਰਾਗੁਏ	-11.4343
▁ਅਣਹੋਂਦ	-11.4343
▁ਡੋਮਿਨਿਕਾ	-11.4343
▁ਇਮੇਜਿੰਗ	-11.4343
▁ਭੋਪਾਲ	-11.4344
▁ਕਾਉਂਟੀ	-11.4344
▁ਆਰਥਰ	-11.4345
▁ਨਾਸ਼	-11.4345
▁ਸਮਰਥਕਾਂ	-11.4346
▁ਰੱ	-11.4347
▁ਗਾਹਕ	-11.4348
ਖੜ	-11.4349
▁ਜਸ਼ਨ	-11.4354
▁ਮਿੱ	-11.4355
▁ਬ੍ਰਾ	-11.4356
ਨਿਸ	-11.4362
▁83	-11.4363
ਹਤ	-11.4368
ਿੰਦਾ	-11.4368
▁੯	-11.4371
▁ਇਤ	-11.4373
▁ਲੰਬਾਈਆਂ	-11.4373
▁ਟਾਕਰ	-11.4378
ਿਮਾ	-11.4378
ft	-11.4378
+1	-11.4379
▁ਬਾਬੂ	-11.438
▁ਡਾਕਘਰ	-11.4386
▁ਦਰਜ਼	-11.4392
ਬੰਧ	-11.4393
ਪੋਸ਼ਣ	-11.4396
ਆਇ	-11.4397
▁ਆਸਟਰੇਲ	-11.4399
▁ਨਿਰਾਲ	-11.44
ਵਰਨਰ	-11.4402
▁ਮੰਡਲੀ	-11.4402
▁ਬੀਜਾਂ	-11.4402
ਪ੍ਰਬੰਧ	-11.4402
ਸਮਾਨ	-11.4404
▁ਬੂਟਾ	-11.4405
▁ਸਾਂਝੀਆਂ	-11.4406
▁ਮੋਟਾ	-11.4407
XG	-11.4407
▁ਡਿਪਲੋਮਾ	-11.4408
▁ਮਜਬੂਤ	-11.4408
▁ਰੈਸਟੋਰੈਂਟ	-11.4408
▁ਪੰਨਿਆਂ	-11.4408
▁ਪੀਪਲਜ਼	-11.4408
▁ਓਪੇਰਾ	-11.4409
▁ਲਿੱਪੀ	-11.441
▁ਘੁੰਮਦੀ	-11.4419
▁ਓਪਰੇਟ	-11.442
▁ا	-11.4422
▁ਸੰਸਦੀ	-11.4422
▁ਪਹਿਰਾਵਾ	-11.4422
▁ਲਵੇ	-11.4429
▁ਸਰਹਿੰਦ	-11.443
▁ਸਕ੍ਰੀਨ	-11.4432
XN	-11.4433
▁en	-11.4434
▁ਰਾਖ	-11.4435
ab	-11.4435
▁ਸਾਖੀ	-11.4438
▁ਖ਼ਿਆਲ	-11.4449
▁ਸ੍ਰ	-11.4452
▁ਡਾਇ	-11.4452
▁ਕੰਧਾਂ	-11.4457
▁ਬੇਕਰ	-11.4461
▁ਫਲਾਂ	-11.4461
ਰਾਸ	-11.4467
▁84	-11.4467
▁ਗੁਰੁ	-11.4469
▁ਪੇਜ	-11.4472
▁ਕੰਪਿਊਟਰਾਂ	-11.4474
▁correspond	-11.4474
▁ਤਾਮਿਲਨਾਡੂ	-11.4474
▁ਪਿਸ਼ਾਚ	-11.4474
▁ਬਲਾਤਕਾਰ	-11.4474
▁ਪੈਰੋਕਾਰ	-11.4474
▁ਫੀਫਾ	-11.4475
▁ਗਰਾਮਸ਼ੀ	-11.4475
▁ਜਾਏਗੀ	-11.4476
▁ਲੋਧੀ	-11.4476
▁ਸੰਪਾਦਿਤ	-11.4476
ੀਕਾ	-11.4477
▁ਪੰਨੇ	-11.4477
▁ਕਾਸ਼ੀ	-11.4478
▁ਅਖ਼ਬਾਰਾਂ	-11.4478
▁ਹੁੰਗਾਰਾ	-11.4479
▁੭ਵ	-11.4479
ਡਜ਼	-11.4485
▁ਪੱਧਰੇ	-11.4485
Xf	-11.4488
▁un	-11.449
▁ਖ਼ਤਰਾ	-11.4492
▁ਚਟਾਨ	-11.4495
▁ਵਲਾਦੀਮੀਰ	-11.4497
▁ਟ੍ਰਿਪ	-11.4498
▁ਲਾਕ	-11.4502
▁ਅਰਬਾਂ	-11.4503
ਿਬ	-11.4509
vert	-11.4511
ਰਾਬ	-11.4513
▁ਲਾਹ	-11.4515
ਮਕ	-11.4517
ਸਕਾਰ	-11.4519
▁ਵਾਟਰ	-11.4524
▁ਰਾਹਤ	-11.4524
▁OA	-11.4527
XU	-11.4528
▁ਮੂਰ	-11.453
ਪੜ	-11.4532
▁ਉਰ	-11.4535
▁ਏਸ਼ਿਆ	-11.4536
ਰੋਪ	-11.454
▁ਦਾਰਸ਼ਨਕ	-11.454
▁ਪੱਧਤੀ	-11.454
▁ਪੀਟਰਸਬਰਗ	-11.4541
▁ਬਰਾਦਰੀ	-11.4541
▁ਰਸੂਲ	-11.4542
▁ਹੋੲਿਆ	-11.4542
81	-11.4544
▁1880	-11.4544
▁ਗ੍ਰੇ	-11.4546
▁ਬੈਂ	-11.4546
▁ਖਤਰੇ	-11.4547
ass	-11.4548
▁ਵਿਸ਼ਵੀਕਰਨ	-11.4554
ਛਾ	-11.4561
▁ਗੱ	-11.4561
▁ਘਟਦੀ	-11.4567
ਮਾਲਾ	-11.4568
▁ਮਾਡਰਨ	-11.4569
▁ਜਮਹੂਰੀ	-11.4569
▁ਮੰਦਰਾਂ	-11.4569
▁ਚਿੰਤਕਾਂ	-11.4571
▁ਬੱਲੇਬਾਜ਼	-11.4571
▁ਡਾਂਸਰ	-11.4572
ੀਫੀਕੇਸ਼ਨ	-11.4573
▁ਨਾਂਹ	-11.4575
▁ਠੰਡ	-11.4575
▁ਫੈਰਾਡੇ	-11.4578
rn	-11.4578
Xo	-11.4579
▁ਉਤਰੀ	-11.4587
▁ਨਵੀ	-11.4587
ਰੂਸੀ	-11.4588
▁ਪੱਤਰਾਂ	-11.4591
▁86	-11.4592
ਨ੍ਹ	-11.4595
▁ਸੈਮੀ	-11.4598
▁ਆਦਰ	-11.4598
ਫੰਕਸ਼ਨ	-11.4599
▁ਪਿਆਜ਼	-11.4599
▁ਅਸਪਸ਼ਟ	-11.46
▁ਭਿੰਨਤਾ	-11.4602
▁ਚੌੜਾ	-11.4604
▁ਕੱਟਿਆ	-11.4606
ਡਮ	-11.4606
ਭੁ	-11.4607
▁ਕਤਲੇਆਮ	-11.4607
▁ਟਰਾਂਸਨਿਸਤੀਰੀਆ	-11.4607
▁ਸਿਮੋਲਿਨ	-11.4607
ਕਾਰਾਬਾਖ	-11.4607
▁ਰਿਗਵੇਦ	-11.4608
▁ਫੀਚਰ	-11.4608
▁ਹਿਰਦੇ	-11.4608
ਟੋਮਿਕ	-11.4609
▁ਜਤਨ	-11.4609
ਚੜਾਓ	-11.4614
ਠੀ	-11.4616
▁ਵਿਜੇਤਾ	-11.4618
▁ਤਾਂਬੇ	-11.4623
ਏਲ	-11.4624
io	-11.4626
▁ਤਰਕਸ਼ੀਲ	-11.4626
ਸੈ	-11.4632
▁ਨਿਰਾਲਾ	-11.4633
▁ਤੁਮ	-11.4635
ਜਿਆ	-11.4637
ਨਿਰ	-11.4639
▁ਕੋਆਰਡੀਨੇਟ	-11.4639
▁ਨਰਸ	-11.4643
ੈਮ	-11.4643
▁ਚਾਹੀਦੀਆਂ	-11.4645
▁ਹਮਲਾਵਰਾਂ	-11.4647
▁ਫੈਲੋ	-11.4647
they	-11.4648
▁ਜੋਨਸ	-11.4648
▁ਵੇਖੇ	-11.4648
▁ਕੰਬ	-11.465
Xz	-11.4655
500	-11.4656
▁ਮਾਲਿਕ	-11.4657
4.	-11.4663
ie	-11.4663
Xe	-11.4664
▁ਘਟਾਈ	-11.467
▁ਕਾਰਵਾਈਆਂ	-11.467
▁ਲੰਘਣ	-11.4672
ਡੂ	-11.4673
▁ਅਲਜੀਰੀਆ	-11.4674
▁ਟੋਰਾਂਟੋ	-11.4674
▁ਫੈਡਰੇਸ਼ਨ	-11.4674
▁ਸਿੰਕ੍ਰੋਨਾਇਜ਼	-11.4674
▁ਬਗਦਾਦ	-11.4674
▁ਫ੍ਰੈਂਚ	-11.4674
▁ਸਰਜਰੀ	-11.4674
▁ਆਇਸੋਮੌਰਫਿਜ਼ਮ	-11.4674
▁ਰੈੱਡਸ਼ਿਫਟ	-11.4675
XO	-11.4675
ਵਿਆਹ	-11.4676
▁ਹੇਤੁ	-11.4676
ਗ੍ਰਸਤ	-11.4678
▁ਨਲ	-11.4681
ਿੰਗਟਨ	-11.4681
▁ਮੁਕਟ	-11.4685
ਸੀਨ	-11.4688
▁ਵਿਨ	-11.4689
▁ਝੱਲ	-11.469
ਲਾਸਟਿਕ	-11.469
▁=\	-11.4692
▁ਵੰਡੀ	-11.4696
ੈਸਟ	-11.4698
ਮੁਖੀ	-11.4698
▁ਏਨਾ	-11.47
▁ਤੋੜਨ	-11.4701
XZ	-11.4701
▁ਖੁਰ	-11.4704
▁ਮੈਦਾਨੀ	-11.4706
ਕਾਲੇ	-11.4706
▁ਸਥ	-11.4717
ran	-11.4718
ਾਮਾ	-11.4718
▁ਦਾਖ਼ਲਾ	-11.4723
▁ਫਾਟਕ	-11.4723
ਹੀਨ	-11.4723
▁ਕੌਣ	-11.4723
▁ਗਿਲ	-11.4724
▁ਰਮਨ	-11.4725
▁ਲੋਪ	-11.4725
▁ਸਾਵ	-11.4725
▁ਸੂਈ	-11.4728
ੰਦੇ	-11.4734
▁ਉਗ	-11.4735
ਮੌ	-11.4735
ਕਿਲਡਨ	-11.4736
▁ਕੋਇ	-11.4737
ਮਰੋੜ	-11.4741
▁ਆਖਿਰ	-11.4741
ਪੜਤਾਲ	-11.4741
ਕਰਬਾਖ਼	-11.4742
▁ਗ੍ਰੈਜੁਏਸ਼ਨ	-11.4742
▁ਬਾਰਸੀਲੋਨਾ	-11.4742
▁ਯੂਨੈਸਕੋ	-11.4742
▁ਗਵਾਲੀਅਰ	-11.4742
ਮਜ਼	-11.4743
▁ਬਿਤਾਏ	-11.4743
▁ਉੱਕਾ	-11.4746
▁ਅਾਪਣੀ	-11.4746
▁ਪਾਕ	-11.4747
▁ਵਿਸਾਖੀ	-11.4749
▁ਜੋੜਾ	-11.475
ਾਰੇ	-11.4753
ਭਗਤ	-11.4756
▁sentence	-11.4758
▁ਰੇਡੀਏਟ	-11.4758
ਸਿਧਾਂਤ	-11.4759
▁ਮਾਲਟਾ	-11.476
ਸ਼ਣ	-11.476
▁ਵਹਿ	-11.4762
▁ਨਿਊਟ੍ਰ	-11.4763
▁ਪੱਤੀਆਂ	-11.4765
▁ਸਿਡਨੀ	-11.4766
▁ਮੈਸੂਰ	-11.477
▁ਕਿਸਮਤ	-11.4773
XQ	-11.4776
▁ਆਦਰਸ਼ਾਂ	-11.4779
▁ਜਗਾ	-11.4781
ਥੋ	-11.4781
▁ਝੂਠੀ	-11.4782
▁ਪਹਿਨਣ	-11.4782
ਕਾਲੀ	-11.4783
▁ਬਿੱਟ	-11.4783
ਆਤ	-11.4786
ਨਯੋਗ	-11.4789
▁ੳੁਹਨ	-11.4791
▁140	-11.4793
▁ਮੁਕ	-11.4794
ot	-11.4797
ਚੇਂਜ	-11.4801
▁ਖੇ	-11.4802
▁ਬਹਾਲ	-11.4802
▁ਪ੍ਰਵਾਸੀ	-11.4803
▁ਸ਼ੀਤ	-11.4804
ਟ੍ਰੀ	-11.4807
▁ਐਕਸਲਰੇਸ਼ਨ	-11.481
▁ਕੋਲੋਰਾਡੋ	-11.481
▁ਹੜਤਾਲ	-11.481
▁ਕੈਲਵਿਨ	-11.481
▁ਏਜੰਟ	-11.4811
▁ਅਣਜਾਣ	-11.4812
ਸੰਖਿਆ	-11.4812
▁ਕਮਿਉਟੇਟਰ	-11.4814
▁ਚਿਹਨ	-11.4815
▁ਚੁੱਕਣ	-11.4816
▁ਮੈਸਾਚੂਸਟਸ	-11.4816
▁ਪੂਰੀਆਂ	-11.4818
ਮੰਨ	-11.4821
▁ਸਿਨ	-11.4823
▁71	-11.4823
▁ਫਿਰੋਜ਼ਪੁਰ	-11.4825
▁ਸਿਮ	-11.4826
▁ਉਜ਼ਬੇਕ	-11.4827
▁ਭਾਂਤ	-11.4828
▁ਕਢ	-11.4829
▁ਵਜੂਦ	-11.483
ਪੌ	-11.4831
▁ਹਨੇਰੇ	-11.4834
ੋਨਾ	-11.4835
▁ਕਰੌਸ	-11.4837
▁ਹੜੱਪਾ	-11.4838
▁ਲਖਾਇ	-11.4841
▁ਕੁੱਟ	-11.4842
▁ਰੇਡ	-11.4847
▁ਗਰੀਨ	-11.4847
▁ਨਿਰਾਸ਼	-11.4848
ਨਬਰਗ	-11.4848
▁ਪੁਰੀ	-11.4851
▁ਕਾਰਣਾਂ	-11.4855
ੋਕਤ	-11.4856
▁ਕਲੀ	-11.4857
▁ਗਯਾ	-11.486
100	-11.486
▁ਰਾਸ਼ਟਰਾਂ	-11.4864
ੜਿਆਂ	-11.4865
▁ਰੇਖਿਕਤਾ	-11.4865
▁ਦੰਡ	-11.4866
▁ਰਹੇਗੀ	-11.4868
▁ਥੰਮ	-11.4869
▁ਸਮਾਜਵਾਦ	-11.4872
ਸਮਾਜ	-11.4872
▁ਪੜ੍ਹੀ	-11.4872
ਸ਼ਿਆ	-11.4872
▁ਨਵਾ	-11.4874
▁ਸਟਡੀ	-11.4874
▁1800	-11.4876
ਕੋਈ	-11.4877
▁ਪ੍ਰੈਕਟੀਕਲ	-11.4878
▁ਸ਼ਲਾਘਾ	-11.4878
▁ਜਲਾਵਤਨ	-11.4878
▁ਖ਼ੁਰਾਕ	-11.4878
▁ਸਟੈਨਫੋਰਡ	-11.4879
▁ਬੋਲਚਾਲ	-11.4879
▁ਪਲੇ	-11.488
▁ਵਹਾਅ	-11.488
ਪ੍ਰਵਾਨ	-11.488
▁ਖੋਜਯੋਗਤਾ	-11.488
ਲਗਰੇਂਜ	-11.4882
ਜ਼ਲ	-11.4883
▁੮	-11.4884
ieve	-11.4884
ਸਲੀ	-11.4886
▁ਮੱਧਮ	-11.4886
▁ਰੀਸਰਚ	-11.4887
▁ਮੁਲ	-11.4888
▁ਸੌਰ	-11.4889
▁ਭੂਰੇ	-11.4889
▁ਲੀਲਾ	-11.4894
▁ਮੌਰੀਆ	-11.4901
ਜੰਗ	-11.4901
ਾਂਤ	-11.4902
▁ਦਿਉ	-11.4903
▁ਖੁੱਲ੍ਹੇ	-11.4908
ਸੈਨ	-11.4909
▁ਪੂੰਜੀਵਾਦੀ	-11.4911
ਬੇਰ	-11.4911
▁ਪਲੇਟਾਂ	-11.4913
ਬੜ	-11.4913
ੰਗੀ	-11.4916
▁ਨੀਲਾ	-11.4916
▁ਸੱ	-11.4917
ਤ੍ਰੀ	-11.4917
ਪੋਲ	-11.4918
▁ਵੱਟ	-11.4921
▁ਗਿਰੀ	-11.4922
ld	-11.4925
▁ਬੱਚੀ	-11.4928
ਜੀਵਨੀ	-11.4933
▁ਬੰਨੀ	-11.4937
▁ਸ਼ਮਸ	-11.4937
1%	-11.4937
▁ਡਾਈ	-11.4943
ੀਅਾ	-11.4946
▁ਤੈਮੂਰ	-11.4947
▁ਲਾਇਲਪੁਰ	-11.4947
▁ਜਸਟਿਸ	-11.4947
-1800	-11.4948
▁ਕਾਬੁਲ	-11.4949
▁ਫਿਲੌਰ	-11.4949
▁ਫਾਇਦੇ	-11.495
▁ਪਿਛੋਂ	-11.495
▁ਸਾਬਿਤ	-11.495
▁ਸਾਪੇਖਤਾ	-11.495
▁ਸੁਧਾਰਕ	-11.4951
▁ਵੀਰਵਾਰ	-11.4952
▁ਰਚਨਾਤਮਕ	-11.4953
ਿਆਨ	-11.4954
ਵਿਸ਼ਵ	-11.4955
▁ਹੱਡੀ	-11.4956
▁ਚਾਦਰ	-11.4956
▁ਪਿਆਰੀ	-11.4956
ਵੀਕ	-11.4956
▁ਗੁਰਦਿਆ	-11.4957
▁ਰਿਸ	-11.4958
Xi	-11.4959
ਸ਼ਾਨ	-11.4962
▁ਖ਼ੁਦਾ	-11.4962
res	-11.4963
▁ਏਅਰਲਾਈਨਜ਼	-11.4965
ਾਇਡ	-11.4969
ੀਅਾਂ	-11.4972
▁ਚਿੜੀ	-11.4972
▁ਛਿਪ	-11.4973
▁ਹੁਕਮਰਾਨ	-11.4973
▁ਸਿਵਾ	-11.4975
▁ਗਜ	-11.4975
▁ਅਧਿਕ	-11.4977
▁ਨਾਗਰਿਕਤਾ	-11.4978
▁ਸ਼ੈਲ	-11.4978
eh	-11.4985
▁ਖੁੱਲੀ	-11.4988
ਮਾਇ	-11.4995
▁ਵੀਅਤਨਾਮੀ	-11.4997
ਮਨਮੋਹਨ	-11.4998
▁ਮਿਲਾਉਣ	-11.5002
▁ਲੈਅ	-11.5006
▁ਲਕਸ਼	-11.5008
▁ਸ਼ਾਰ	-11.5009
▁ਕਲਿਆਣ	-11.5016
▁ਠਾਕੁਰ	-11.5017
▁ਬਰਮੂਡਾ	-11.5017
▁ਤਿੱਖੇ	-11.5017
▁ਫ਼ਲਸਫ਼ਾ	-11.5017
▁ਬਰੂਨਾਏ	-11.5017
▁ਵਿਆਕਰਣ	-11.5017
▁ਮੁਖਰਜੀ	-11.5017
mv	-11.5017
▁ਨਿਹੰਗ	-11.5017
▁ਮੈਮੋਰੀ	-11.5018
▁ਸਰਾਪ	-11.5019
μν	-11.5019
The	-11.5023
▁ਮੋਲਦੋਵਾ	-11.5024
ਅਲੱਗ	-11.5025
▁ਬਕ	-11.5025
▁ਡਿਊਲ	-11.5025
।:16	-11.5026
▁ਵਿਕਾਸਸ਼ੀਲ	-11.5028
▁ਗਰੇਟ	-11.503
Xw	-11.5034
▁ਵਾਗ	-11.5037
▁ਪੈਰੀ	-11.504
ਤਿਆਂ	-11.504
ੇਗੀ	-11.504
▁ਬੇਲੀਜ਼	-11.5042
ਿਲਾ	-11.5044
▁ਰੰਗੀਨ	-11.5045
▁ਐਸੀ	-11.5045
▁ਜੁੜਵਾਂ	-11.5046
▁ਡੇਰੇ	-11.505
▁ਕਾਰਾਂ	-11.5052
ਕੀਤੇ	-11.5052
▁੧੯੨	-11.5054
▁ਖੁੱਲ੍ਹੀ	-11.5055
▁AB	-11.5057
▁co	-11.506
ਹੋਲ	-11.5061
▁ਤੈਨੂੰ	-11.5063
▁ਰੋਜ	-11.5069
ਟੌਨ	-11.507
▁ਮਿਸਲਾਂ	-11.5074
▁ੲੇ	-11.5076
▁ਮੋਡ	-11.5076
ag	-11.5076
▁ਵਟਾ	-11.5081
ਅੰਦਾਜ਼ਾ	-11.5082
▁ਰੁਕਾਵਟਾਂ	-11.5083
▁ਜ਼ੈ	-11.5085
▁ਮਾਣਕ	-11.5086
▁63	-11.5086
▁ਨਾਈਜੀਰੀਆ	-11.5087
▁ਮੁਹਾਵਰੇ	-11.5087
▁ਵਿੱਦਿਅਕ	-11.5087
▁ਝਿੱਲੀ	-11.5087
▁ਟੋਕੀਓ	-11.5087
▁ਵੇਲ਼ੇ	-11.5087
▁ਛੇਵਾਂ	-11.5087
▁ਸਲੋਵਾਕੀਆ	-11.5087
▁ਮੁਕੱਦਮਾ	-11.5087
▁ਪਲਾਟ	-11.5088
▁ਭੱਟੀ	-11.5088
▁1849	-11.509
▁ਬਲਦੇਵ	-11.5092
▁ਖੁੱਲ	-11.5093
ਛੋਟੇ	-11.5094
▁ਮੈਨੇਜਰ	-11.5095
OK	-11.5095
ਸਪਿੱਨੌਰ	-11.5095
▁ਬਿਰਤੀ	-11.5099
▁ਦੇਵਤੇ	-11.51
▁ਏਨ	-11.5103
ੋਜ਼	-11.5104
▁ਜ਼ੋਨ	-11.5104
pi	-11.5105
ਅੱਜ	-11.5105
▁ਸਪਿਨ	-11.5105
▁ਬਚਿਆ	-11.5105
▁ਟਾਈ	-11.5105
ੋਟ	-11.5108
ਅਰਥ	-11.5112
▁ਸਫੀਅਰ	-11.5115
▁ਸਿਧ	-11.5116
▁ਦੇਖਣਾ	-11.5118
ੰਬਰ	-11.512
▁ਯੂਨਾਈਟ	-11.5121
▁ਕਿੱਤੇ	-11.5122
▁ਵਾਚ	-11.5123
ਟ੍ਰੋ	-11.5124
▁ਪਤਲੀ	-11.5125
▁ਮੈਗਾ	-11.5125
▁ਵਿੰਗ	-11.5126
▁ਮਨੋਵਿਗਿਆਨਕ	-11.5126
▁ਤਾਈ	-11.5128
▁ਬਾਜ਼	-11.513
▁ਬਾਲਕ	-11.5132
....	-11.5133
ਨੰਦ	-11.5134
▁ਮੁਸ਼ਕਲਾਂ	-11.5135
▁ਵਧਦੇ	-11.5137
▁ਦਸ਼ਕ	-11.514
ਗਾਹ	-11.5141
ਪੱਤਰ	-11.5141
▁ਆਦਿਵਾਸੀ	-11.5141
av	-11.5142
ਦਾਈ	-11.5144
▁ਅਥਵਾ	-11.5151
▁ਤੋਪ	-11.5151
▁ਬਾਦਲ	-11.5153
▁ਸਾਂਗ	-11.5154
▁ਪੌਸ਼ਟਿਕ	-11.5157
▁ਹਾਲੀਵੁੱਡ	-11.5157
▁ਤੀਸਰਾ	-11.5157
▁ਲਿਮਟਿਡ	-11.5157
▁ਮਿੱਠੇ	-11.5157
▁ਕਾਰਕੁੰਨ	-11.5157
▁ਪ੍ਰੰਪਰਾਗਤ	-11.5158
▁ਛੁੱਟੀ	-11.5158
▁ਮੈਰੀਲੈਂਡ	-11.5158
▁ਅਹਿਮਦਾਬਾਦ	-11.5158
▁ਮੌਲੀਕਿਊਲਰ	-11.516
▁ਨਿਯੰਤਰਣ	-11.5162
▁ਮਜ਼ਾਕ	-11.5163
▁ਝੰਡੇ	-11.5165
▁ਬੁਢਲਾਡਾ	-11.5169
ਹਿੰਦੀ	-11.5172
ਭੌਤਿਕੀ	-11.5173
▁ਅਧ	-11.5174
ਆਦਿ	-11.5177
▁ਸੰਗਤਾਂ	-11.5179
mo	-11.518
▁ਅੰਗੂਰ	-11.5181
ਸਕੋ	-11.5186
▁ਤਿਲਕ	-11.5189
cm	-11.5189
▁ਸਨਅਤ	-11.5189
ਡਾਇਮੈਨਸ਼ਨ	-11.5191
ਛੇ	-11.5191
▁ਅਸਿੱਧ	-11.5194
▁1)	-11.5199
▁ਬਨਾ	-11.5205
▁ਸੰਪਤੀ	-11.5211
ਰੋਜ਼	-11.5212
▁ਪਿਛੇ	-11.5213
▁ਲਾਓ	-11.5214
▁ਮਹਿਮਾ	-11.5216
▁St	-11.5218
▁ਹਾਰਡੀ	-11.5219
▁ਅਸਤਿਤਵ	-11.522
ਵਿਗਿਆਨਕ	-11.522
ਵਰਣ	-11.5223
▁ਨਾਨ	-11.5226
।:163–174	-11.5228
▁ਪਰਾਇਦੀਪ	-11.5228
▁ਪ੍ਰੀਸ਼ਦ	-11.5228
▁ਸੁਪਰਸਮਿੱਟ੍ਰ	-11.5228
▁ਗਠਜੋੜ	-11.5228
▁ਸੁਡਾਨ	-11.5228
▁ਢਾਡੀ	-11.5228
▁ਬੁਲਬੁਲ	-11.5228
▁ਅਸਮਰਥ	-11.5228
▁ਉਂਜ	-11.5228
ਲੇਸ	-11.5228
▁ਖ਼ਰਾਬ	-11.5228
▁ਹਾਰਵਰਡ	-11.5228
::143	-11.5229
ਮੂਲ	-11.5231
▁ਉਚਾਰਣ	-11.5233
▁ਸਹਾਰੇ	-11.5236
▁ਸਮਝਾ	-11.5236
▁ਨਾਪੇਗਾ	-11.5238
ਉਂਦੇ	-11.5239
▁ਸਮਾਧੀ	-11.5239
▁ਹਵੇਲੀ	-11.5241
ਚੀਨ	-11.5241
▁ਲੀਨੀਅਰਟੀ	-11.5244
▁4–	-11.5244
ੰਦਰ	-11.5246
▁ਤਤ	-11.5249
▁ਘਟਾਉਂਦ	-11.5251
ਸਪੀਡ	-11.5252
▁ਸੰਭਾਵੀ	-11.5253
▁ਸਮਰਥ	-11.5256
em	-11.5259
ਕੁਦਰਤੀ	-11.5261
▁ਬਦਲਾਵ	-11.5264
▁ਮਜ਼ਾਰ	-11.5264
ਗੁਲ	-11.5269
▁ਜਾਦਾਂ	-11.5269
Xy	-11.5269
ਵੈਲ	-11.527
▁ਮੁਸ	-11.5275
▁ਸਟੀ	-11.5276
▁ਰਾਕ	-11.5276
▁ਸ਼ੁਕਲ	-11.5277
▁ਕਥ	-11.5277
▁ਕੇਸਰ	-11.5278
200	-11.528
▁ਕਾਂਸ	-11.5291
▁ਕੱਢੇ	-11.5293
ian	-11.5295
▁ਪ੍ਰੋਡਕਸ਼ਨ	-11.5299
▁ਡਿਜ਼ਨੀ	-11.5299
▁ਸੰਕਲਨ	-11.5299
▁ਬਹਾਮਾਸ	-11.53
▁ਵਿਕੀਰਣ	-11.53
▁ਸਕਾਟਿਸ਼	-11.53
▁ਵਖਰੇਵੇਂ	-11.53
▁ਟਾਈਗਰ	-11.53
▁ਪਵੇਗਾ	-11.53
▁ਅੰਡਾਕਾਰ	-11.5301
▁ਸ਼ੀਆ	-11.5302
▁ਗੁਜ਼ਾਰ	-11.5304
▁ਏਮ	-11.5304
▁ਸਲਿਟ	-11.531
▁ਸਮਾਜਾਂ	-11.5312
▁ਬਰੇਕ	-11.5314
ਵਰਗ	-11.5316
▁ਨਾਰਥ	-11.5318
▁स	-11.532
▁ਫੱ	-11.5322
▁ਰੁਜ਼ਗਾਰ	-11.5322
▁ਘੁ	-11.5323
▁ਵੇਰੀਏਬਲ	-11.5324
▁ਸੁਣਿਆ	-11.5324
▁ਕਨੂੰਨੀ	-11.5327
ਕੋਂ	-11.5328
ਤੌਰ	-11.5329
ਸਧਾਰਨ	-11.5331
ਸ਼ਵਰ	-11.5335
▁ਗੁਰਬਖਸ	-11.5335
ਧੂ	-11.5336
▁ਕੇਂਦਰਤ	-11.5338
▁ਅਧਿਕਤ	-11.5339
▁ਕੇਨ	-11.534
▁ਟਾਊਨ	-11.534
ਕਸਾਈਡ	-11.534
▁ਚੜ੍ਹਨ	-11.5342
▁ਟਰੈਕ	-11.5347
ਆਜ਼ਮ	-11.5348
ਸ਼ੈਲੀ	-11.5365
▁ਬੋਨ	-11.5365
▁ਰਬਿੰਦਰ	-11.5366
▁ਬਣਾਵਟੀ	-11.5371
▁ਢਿੱਡ	-11.5371
▁ਪੰਦਰਾਂ	-11.5371
▁ਮਸਜਦ	-11.5371
▁ਟਾਈਟਲ	-11.5372
▁ਰੋਪੜ	-11.5372
▁ਜਹਾਂ	-11.5372
▁ਸੀਟ	-11.5373
ੀਨਾ	-11.5374
▁ਤਾਲੀਮ	-11.5377
▁ਅਸਥਿਰ	-11.5379
▁ਇੰਜੀਨਿਅਰਿੰਗ	-11.5381
▁ਸਰਦ	-11.5381
▁ਬਦਲੀ	-11.5384
▁ਗਦ	-11.5385
▁ਸੋਧਿਆ	-11.5388
▁ਜੋਖਮ	-11.5389
lang	-11.5393
rel	-11.5394
▁ਮੁੱਦੇ	-11.5394
▁ਆਖਰ	-11.5397
▁ਮੈਬਰਾਂ	-11.5398
▁ਕੁਸ਼ਲਤਾ	-11.5399
▁ਬੀਮਾਰੀ	-11.5401
ਬਾਣੀ	-11.5404
▁0.5	-11.5407
ਨੋਟ	-11.5408
▁ਸਿੱਕਾ	-11.5409
▁ਅੰਟਾਰਕਟਿਕਾ	-11.5411
▁ਅਜੋਕੀਆਂ	-11.5411
▁ਪਿਓ	-11.5413
▁ਹੱਸ	-11.5414
▁ਉਰਸੁ	-11.5425
▁ਗੰਜ	-11.5425
▁ਚੁਣਨ	-11.5429
▁ਸਟੋਨ	-11.5436
DM	-11.5437
▁ਇੰਡਸਟਰੀ	-11.5437
▁list	-11.5437
ਸਥਾਨ	-11.5439
▁ਪਹੁੰਚਾਉਣ	-11.5441
▁ਮੰਦਿਰਾਂ	-11.5443
▁ਬੋਲਟਜ਼ਮਨ	-11.5444
▁ਯੂਨਿਵਰਸਿਟੀ	-11.5444
▁ਸਵੀਡਿਸ਼	-11.5444
▁ਸ਼ਿਲਾਲੇਖ	-11.5444
▁ਫਿਲਿਪ	-11.5444
▁ਚੌਹਾਨ	-11.5444
▁ਤਾਲਮੇਲ	-11.5444
▁ਗਰੇਵਾਲ	-11.5445
▁ਭੂਸ਼ਣ	-11.5445
▁ਨਮਾਜ਼	-11.5446
▁ਸੈਮ	-11.5446
▁ਊਠ	-11.5446
▁ਪ੍ਰਯਾਗ	-11.5447
▁ਸ਼ੂਟਿੰਗ	-11.5448
▁ਸੱਚੀ	-11.5448
▁ਦੁਖੀ	-11.5449
1–2	-11.5452
▁ਜ਼ੋ	-11.5454
▁ਮੱਕਾ	-11.5454
▁ਗਾਥਾ	-11.5454
▁ਬਨਾਉਣ	-11.5454
ga	-11.5455
▁ਪ੍ਰਭਾਵਤ	-11.5456
▁ਗਵਾਹ	-11.5459
▁ਸਾਢ	-11.5463
ਵਾਉਣ	-11.5463
▁ਕਿਆ	-11.5467
▁ਸਰੋਕਾਰ	-11.5469
▁ਕੰਨਿਆ	-11.5473
▁ਨਗਰੀ	-11.5474
▁ਵਿੱਚਕਾਰ	-11.5476
▁ਕ੍ਰਿਸ਼ਨਾ	-11.5478
▁ਤਾਰਨ	-11.5478
ਏਬਲ	-11.5479
▁360	-11.5481
▁ਪੁਰਜਿਆ	-11.5482
ਧੁ	-11.5482
▁ਸੋਚਣਾ	-11.5485
▁ਬੇਰੀ	-11.5486
▁ਕੱਢਦੇ	-11.5488
ਬੀਆ	-11.5495
ਬਰਟ	-11.5496
ੇਰੇ	-11.5499
▁ਰੀਸੀਵ	-11.5502
▁110	-11.5502
lu	-11.5503
▁ਬਹਾਰ	-11.5506
▁ਵਿਕਾਰ	-11.5506
ਿਯ	-11.551
▁ਡੋਰ	-11.5514
ਟਿਕਸ	-11.5515
ਯਰ	-11.5516
▁ਮੈਗਨੀਟਿਊਡ	-11.5517
▁ਭੁਪਿੰਦਰ	-11.5517
▁ਬਲੋਚਿਸਤਾਨ	-11.5517
▁ਅੱਛਾ	-11.5517
▁ਸਮਾਚਾਰ	-11.5518
▁ਸੋਸ਼ਲਿਸਟ	-11.5519
▁1895	-11.552
▁1896	-11.552
ਬਿਨ	-11.5521
ਨੀਤ	-11.5521
▁ਦੇਖੇਗਾ	-11.5522
▁ਸਿਰਜਨਾ	-11.5522
▁ਸਹਾਈ	-11.5523
ਗਮ	-11.5524
ੜਿਆ	-11.5524
=|	-11.5525
▁1/2	-11.5527
ਅੱ	-11.5528
ਨੀਆਂ	-11.5529
▁ਯਾਤਰੀਆਂ	-11.5534
▁ਦੁਰਗਾ	-11.5537
ਨੌਰ	-11.5537
▁ਮਜ਼ਮੂਨਾਂ	-11.5538
▁ਕਲੋ	-11.5541
ਸਥਾਨਿਕ	-11.5543
ਏਕੀਕ੍ਰਿਤ	-11.5546
ਵਾਸੀ	-11.5547
▁ਧਾਰਾਵਾਂ	-11.5548
▁ਆਦਮ	-11.5548
▁ਲੇਵ	-11.5548
ਰੇਬਕ	-11.555
ੋਸ਼	-11.5552
▁ਅੰਨ	-11.5556
ੱਲਾ	-11.5559
▁ਘੁਮਾਉਣ	-11.5566
▁ਸੋਚੇ	-11.5567
▁ਗਣ	-11.5567
ਟਰੋ	-11.5569
wide	-11.5571
ਗ੍ਰ	-11.5573
α	-11.5575
▁ਅੰਤਰਾਂ	-11.558
▁ਜ਼ਿ	-11.5581
▁ਗੂ	-11.5581
ਫਿ	-11.5583
ਇਤਿਹਾਸ	-11.5585
▁bi	-11.5585
▁ਸਮਾਧ	-11.5588
▁ਕਪ	-11.5589
ਬੋਧ	-11.5589
–190	-11.559
▁missing	-11.559
▁ਧਮਾਕੇ	-11.559
▁ਪ੍ਰਜਨਨ	-11.559
▁ਚਮਕੀਲੇ	-11.559
▁ਬੈਚਲਰ	-11.559
▁ਸਫ਼ਰਨਾਮਾ	-11.5591
▁ਮੱਥਾ	-11.5591
▁ਵਿਰਸਾ	-11.5594
ਵਾਇਰ	-11.5595
▁ਇਥੋਪੀਆ	-11.5602
▁ਸੱਦ	-11.5604
▁ਟੱਪ	-11.5607
ਕਿਆ	-11.5607
ੰਟ੍ਰੈਕਸ਼ਨ	-11.5608
▁ਦੌਨ	-11.5609
ਾਇਟ	-11.5611
ਂਵਾਂ	-11.5611
▁ਵਿਸ਼ੇਸ਼ਣ	-11.5615
▁ਬੀਤੇ	-11.5615
ਲੇਖ	-11.5616
▁ਠੰਡਾ	-11.5618
ਸੰਗ	-11.562
ਮੇਂ	-11.5622
▁ਕੱਟੇ	-11.5623
▁ਰਹਿੰਦ	-11.5625
▁ਰੇਲੀ	-11.5627
▁ਅਨੁਕੂਲਤਾ	-11.5628
▁ਵਰਤਣਾ	-11.5629
▁ਖਬਰ	-11.5633
▁ਤਰੀ	-11.5635
ਂਡਰ	-11.5636
ਿਆਰ	-11.5637
▁ਛੱਲਾਂ	-11.5638
▁ਟੋਲ	-11.5639
▁ਅਰੂਬਾ	-11.564
▁ਪਾਤਸ਼ਾਹ	-11.5645
▁ਹਵਾਵਾਂ	-11.5645
▁ਨਾਮਜ਼ਦਗੀ	-11.5647
▁ਵਰਤੋਂਕਾਰ	-11.5649
▁ਟ੍ਰਾਂਸਵ	-11.565
ty	-11.5651
▁ਘੋੜੀ	-11.5652
▁ਸਟੇਟਸ	-11.5658
ਬਾਂ	-11.5659
▁ਗੁਫਾ	-11.566
▁ਲੈੱਨਜ਼	-11.5661
ਮੇਰਾ	-11.5662
ਕਹਾਣੀ	-11.5664
▁ਹਾਂਡੂਰਾਸ	-11.5664
▁ਤਿੱਖੀ	-11.5664
▁ਅਫ਼ਗਾਨਿਸਤਾਨ	-11.5665
igma	-11.5665
▁ਸਕਾਲਰਸ਼ਿਪ	-11.5665
▁ਵਿਖਾਇਆ	-11.5665
▁ਹੱਲਾ	-11.5666
▁ਸਰਵੇ	-11.5671
▁ਟਿਊਬ	-11.5671
▁ਪਰਿਭਾਸ਼	-11.5672
▁ਜੜਿਆ	-11.5673
▁ਮਸ	-11.5675
ਬਰੇ	-11.5677
▁ਉਚਾਰ	-11.5677
▁ਸੱਸ	-11.5677
ੋਇਡ	-11.5677
ਚੈ	-11.5678
▁ਕੈਂਬਰਿਜ	-11.5679
Xa	-11.5681
▁ਕੀਟ	-11.5681
ਮਣ	-11.5683
ਪ੍ਰਸ਼ਾਂਤ	-11.5685
ਪਰਿਭਾਸ਼ਿਤ	-11.5685
▁3000	-11.5688
▁ਸੁੱਕ	-11.5688
▁ਡੈਲਟਾ	-11.5689
▁ਗਿਲਡ	-11.5693
ਜਿੰਦਰ	-11.5696
ਤਸ	-11.5697
▁ਅੱ	-11.57
▁ਹੰ	-11.5705
▁ਜ਼ਾ	-11.5712
ts	-11.5714
ਯਨ	-11.5716
▁ਲੇਨ	-11.5717
▁ਮਦ	-11.5717
▁ਚੀਫ਼	-11.572
▁ਓਲ	-11.5721
▁ਜਨਮਿਆ	-11.5723
▁ਬਖਸ਼	-11.5723
▁ਬਹੁਤਾਤ	-11.5726
▁ਬੀਤੀ	-11.5727
▁ਨਗ	-11.573
▁ਭੱਜਿਆ	-11.5731
▁ਐਮੀ	-11.5732
ite	-11.5734
+\	-11.5736
▁ਦੂੱਜੇ	-11.5739
▁ਪਰਿਪੇਖ	-11.5739
▁ਭਾਜਪਾ	-11.5739
▁ਵਿਓੰਤਬੰਦ	-11.5739
▁where	-11.5739
▁ਸਪੀਕਰ	-11.5739
▁ਵਿਕੀਮੀਡੀਆ	-11.5739
▁ਪੌਰਨੋਗ੍ਰਾਫ	-11.5739
▁ਸਮਰਪਤ	-11.5739
▁ਪਾਪੂਆ	-11.5739
▁ਪੁਰਾ	-11.574
▁ਤੁਲਣਾ	-11.574
▁ਸਮਾਜੀ	-11.5741
ਕੰਦ	-11.5742
▁ਸਟੱਡੀਜ਼	-11.5742
ਸੀਸਿੱਪੀ	-11.5742
▁ਰਾਜੀਵ	-11.5743
▁ਡਾਰਵਿਨ	-11.5743
▁ਡਾਇਲੈਕਟ੍ਰਿਕ	-11.5744
▁ਉੱਭਰ	-11.5745
ੱਸਰ	-11.5745
▁ਬੁੱਧਵਾਰ	-11.5746
▁ਲਾਰੀ	-11.5746
▁ਵਗਦਾ	-11.5747
▁ਲੜਦੇ	-11.5756
▁ਬਰੋ	-11.5759
▁ਵਹੀ	-11.576
ਿਥ	-11.576
▁ਖਾਧਾ	-11.5763
ਪ੍ਰਧਾਨ	-11.5769
ਗੰਜ	-11.5769
▁ਮਨਚਾਹੀ	-11.5769
▁ਜਿਮ	-11.5774
▁ਭਾਰਤੀਆਂ	-11.5775
ਫਿਲ	-11.578
▁ਤਰੀਕ	-11.5781
ਵੁੱਡ	-11.5782
▁ਸ਼ਕ	-11.5783
ਕੀਤੀ	-11.5791
ਝਾ	-11.5792
▁&	-11.5796
ਕਸੀ	-11.5799
▁ਇਮ	-11.5801
▁ਲੌਂਗ	-11.5804
ard	-11.5807
▁ਧਿਰਾਂ	-11.5811
ੁਤ	-11.5811
▁ਨਿਵਾਜਿਆ	-11.5814
▁ਸਫੈਰੀਕਲ	-11.5814
brane	-11.5814
▁ਸੁਲਾਹ	-11.5815
▁ਸੁਖਦੇਵ	-11.5815
▁ਰਬੜ	-11.5816
▁ਟਿਕਾਣਿਆ	-11.5817
▁ਜਾਪਦਾ	-11.5817
▁ਸ਼ੂ	-11.5817
▁1888	-11.5818
▁ਦਰਬਾਰੀ	-11.5818
▁ਸਨਅਤੀ	-11.5818
▁ਮਾੜਾ	-11.5818
▁ਅੰਬਾਲਾ	-11.5819
▁ਖੋਲ੍ਹਿਆ	-11.582
▁ਸ਼ੀਟ	-11.582
▁ਗੋਡ	-11.5823
▁56	-11.5835
Xr	-11.5836
▁ਸੁਝਾਉਂਦ	-11.5837
ਮੁਹੰਮਦ	-11.5838
▁ਸੋਗ	-11.584
ਪਾਈ	-11.5841
▁ਕਲਰਕ	-11.5842
▁ਰੇਸ	-11.5843
▁ਸਿਧਾਂਤਕਾਰ	-11.5844
ec	-11.5844
ਹੱਥ	-11.5847
ਰਾਕ	-11.5848
▁ਗਾਣਾ	-11.5848
▁ਯੁਨਾਇਟ	-11.5848
▁ਮੀਰਾ	-11.5852
▁Co	-11.5853
▁Mat	-11.5861
ਉੱਤੇ	-11.5865
▁Te	-11.5866
2%	-11.5867
ਵਿਸ਼	-11.5867
▁ਵਸਾ	-11.5868
ਬੁਲ	-11.5869
▁ਹੋਸਟ	-11.587
▁ਕਿਰਿਆਸ਼ੀਲ	-11.5873
▁ਨਿਭਾਉਂਦੀ	-11.5875
▁ਅਪਰਾਧੀ	-11.5878
ਬਾਜ਼	-11.5879
ਬੌਡੀ	-11.5883
Xc	-11.5885
▁ਗਾਗ	-11.5889
▁ਤਰਨ	-11.5889
▁ਫ਼ਰੈਂਕ	-11.589
▁ਅਣਵਿਆਹਿਆ	-11.589
▁ਵਿਸਤ੍ਰਿਤ	-11.589
ਸ਼ਿਪਾਂ	-11.589
▁ਚਿਸ਼ਤੀ	-11.589
▁ਸਕਾਰਾਤਮਕ	-11.589
▁ਪ੍ਰਤੀਬਿੰਬ	-11.589
mega	-11.589
ਾਵੂ	-11.5891
▁ਕੈਂਟ	-11.5891
▁ਢਿੱਲੋਂ	-11.5892
▁ਕੇਮਨ	-11.5892
▁1903	-11.5894
▁ਜੈਕਸਨ	-11.5894
▁ਬਚਾਅ	-11.5894
▁ਰੇਡੀਅਸ	-11.5894
ਸਾਜ਼	-11.5896
ਮੋਲ	-11.5898
▁ਸਫਾਈ	-11.5902
▁ਖ਼ਰੀਦ	-11.5905
▁ਬਾਜ	-11.5905
ਿਕਤਾ	-11.5905
▁ਪੋਲਰ	-11.5906
▁ਕੰਡ	-11.5906
▁ਨਕਸ਼	-11.5908
ure	-11.5908
▁ਰਾਖਵਾਂ	-11.591
ਖਾਰਿਜ	-11.591
▁ਕਰਿਆ	-11.5911
ਸਿੰਘ	-11.5911
▁ਮਿਣ	-11.5911
XY	-11.5912
▁ਪੀਲਾ	-11.5913
੍ਤ	-11.5914
▁ਮੱਘ	-11.5915
▁ਤਰਸ	-11.5916
ਯੁੱਧ	-11.5916
▁ਰੋਕਿਆ	-11.5917
▁ਗਾਇਕਾਂ	-11.592
▁ਗੇਂਦਾਂ	-11.592
▁ਬਾਂਸ	-11.592
175	-11.5921
ਧਰਤੀ	-11.5922
▁ਵੋਲ	-11.5923
ਮਲਾ	-11.5924
▁ਸਿਖਾਂ	-11.5924
▁ਸ਼ਸਤਰ	-11.5928
▁ਨਿਕੋਲਸ	-11.5929
▁ਯੋਜਨਾਵਾਂ	-11.593
▁ਪਾਂਡੀਚਰੀ	-11.593
ਸਮਰੂਪਤਾ	-11.5931
▁ਜਬ	-11.5931
▁ਚੋਲ	-11.5935
ਇਜ਼	-11.5937
XX	-11.5937
▁ਭੋ	-11.5938
▁ਤੁਲ	-11.5939
▁ਚਲਾਏ	-11.5941
using	-11.5941
▁ਡਾਇਰੀ	-11.5942
▁ਚਟਾਨਾਂ	-11.5945
▁ਸਾਜ	-11.5947
▁ਬੈਟਰੀ	-11.5948
▁ਕੇਬਲ	-11.5949
▁ਹੇਠਲਾ	-11.5951
▁ਖੜੀ	-11.5951
▁ਧਾਤੂ	-11.5952
bo	-11.5953
▁ਡਿਸ	-11.5958
▁ਗਊ	-11.5959
▁ਪੱ	-11.5959
ਵਿਆ	-11.596
ਮੀਲ	-11.5961
▁ਓਕਲਾਹੋਮਾ	-11.5966
▁ਰਸਾਲਿਆਂ	-11.5966
▁ਬਿਤਾਇਆ	-11.5966
▁ਕਥਾਨਕ	-11.5967
ong	-11.5967
▁ਆਨਲਾਈਨ	-11.5967
▁ਕਰਵਾਉਂਦੇ	-11.5967
ਗਿਨ	-11.5968
▁95	-11.5969
ਮੁੱਲਾਂ	-11.5969
▁ਪਧਰ	-11.597
੍ਰੌਪਿਕ	-11.597
▁ਪ੍ਰੈੱਸ	-11.597
▁ਸੰਵੇਦਨਾ	-11.597
▁ਯੋਨੀ	-11.5971
▁ਝਗੜੇ	-11.5971
ਹਿਰਾ	-11.5973
ke	-11.5974
▁ਤਰਾ	-11.5974
▁ਪੱਤਾ	-11.5975
▁ਪੁੱਛ	-11.5977
ਮਾਣ	-11.5978
ਮੈਟ	-11.5978
▁ਸਟੀਵਨ	-11.598
▁ਜੰਤਰ	-11.5981
▁ਸੰਭਾਲੀ	-11.5985
ਾਰਤ	-11.5989
▁ਨਿਭਾਉਂਦਾ	-11.5989
▁ਪਰਦੇ	-11.599
ਵੇਰ	-11.5991
ਸੈਕੰਡ	-11.5993
▁ਬਾਇਵੈਕਟਰ	-11.5995
▁ਪਠਾਣ	-11.5996
art	-11.5997
▁ਯਸ਼	-11.5997
▁ਐਡਿਟ	-11.6001
▁ਨਜ਼ਮ	-11.6003
▁ਘਨ	-11.6003
▁ਹੋੲੇ	-11.6005
▁ਘੋਰ	-11.6006
▁ਕਾਵਿਕ	-11.6009
▁ਬਾਲਾ	-11.601
▁ਹਸ	-11.6013
▁ਬਹ	-11.6013
▁xn	-11.6018
ਪਹਿਲਾਂ	-11.602
▁ਕਤਾਰ	-11.6021
ak	-11.6028
▁ਸ਼ੱਕਰ	-11.6028
▁ਫੇਅਰ	-11.6032
ਜਨਮ	-11.6032
ਟੀਵੀ	-11.6039
alpha	-11.6043
ਪੈੱਨਸਿਲਵੇਨੀਆ	-11.6043
▁ਓਹਾਇਓ	-11.6043
▁ਨਜਦੀਕ	-11.6043
▁ਭੁਨਰਹੇੜੀ	-11.6043
▁ਯੂਕਲਿਡ	-11.6043
▁ਮਹਿਬੂਬ	-11.6043
▁ਲਦਾਖ਼	-11.6043
▁ਭਜਨ	-11.6043
▁ਦੁਖਾਂਤ	-11.6043
▁ਤਸੀਹ	-11.6044
▁ਪਾਕੇ	-11.6045
▁ਤਾਈਵਾਨ	-11.6045
▁ਪਲਾਸਟਿਕ	-11.6046
▁1843	-11.6047
▁ਥਿ	-11.6047
▁ਜੁੱਟ	-11.6047
▁ਟਾਪੂਨੁਮਾ	-11.6049
▁ਕਾਪੀ	-11.6049
▁ਖਾਇਆ	-11.6051
▁ਸਬਜ਼ੀਆਂ	-11.6054
▁ਦਫ਼ਤਰਾਂ	-11.6055
▁ਅੱਲਾ	-11.6055
ਜਾਤੀ	-11.6056
▁ਫ਼ੀ	-11.6057
▁ਚੜ੍ਹਾਈ	-11.6058
▁ਸਿੰਗ	-11.6058
▁ਬਲਬ	-11.6059
▁ੳੁਸਦੀ	-11.606
▁ਨਨਕਾਣਾ	-11.606
▁ਪੀਸ	-11.606
▁ਨੈਤਿਕਤਾ	-11.6061
▁ਅਨੁਭਵਾਂ	-11.6061
▁ਵਿਰਾਸਤੀ	-11.6063
▁ਕਾਰਪੋਰੇਟ	-11.6065
one	-11.6065
ੇਨਾ	-11.6068
ਵਰਗੇ	-11.6069
▁ਪਛਾਣੀ	-11.607
ਕਸ਼ੀ	-11.6071
▁ਪਾਲਿਆ	-11.6071
▁ਪਾਸਾਰ	-11.6073
▁Al	-11.6074
ਸਤੀ	-11.6075
▁ਠੰਡੇ	-11.6075
ੲ	-11.6076
^{2}}}}	-11.6077
ਬਿਲ	-11.6077
ਅੰਗ	-11.6083
▁ਮੌਤਾਂ	-11.6085
▁98	-11.6087
▁he	-11.6088
▁ਅੰਸ਼ਕ	-11.6088
ਦੈ	-11.6094
ਵਾਰਾ	-11.6096
▁125	-11.6096
ਡੇਲ	-11.6096
▁ਵਿਗਨ	-11.6098
▁ਮੇਜ਼ਬਾਨ	-11.6101
ਨਸਟੀਨ	-11.6101
ਪੈਰ	-11.6109
▁ਵੇਦਾਂ	-11.6113
▁ਦ੍ਰਿੜ	-11.6113
▁ਨਿਯੰਤਰ	-11.6115
ਕਿਸ	-11.6117
ਮਿੰਦਰ	-11.6118
▁ਆਸਮਾਨ	-11.612
ਨਰੀ	-11.6121
▁ਢਾਕਾ	-11.6121
▁ਨਗੌਰ	-11.6121
▁ਲੋਅਰ	-11.6122
ਪੈਮਾਨਾ	-11.6122
▁ਟੈਂਕ	-11.6123
▁ਥੌਮਸ	-11.6123
▁1860	-11.6124
▁ਬਿਠਾ	-11.6124
▁1885	-11.6124
▁ਬਰਤਨ	-11.6125
▁ਮਿਨੀਮਮ	-11.6125
▁ਰਿਪੋਰਟਾਂ	-11.6126
▁ਖ਼ਾ	-11.6126
▁ਸ਼ਿਪ	-11.6127
ਲਕ	-11.6128
ਫ਼ੇ	-11.6128
ਵਹਿਮੀ	-11.6129
ਾਇਤ	-11.613
▁Retr	-11.6131
▁ਬਦਲਾਓ	-11.6132
▁ਮਾਮਾ	-11.6133
▁ਕਿਓਂਕ	-11.6138
▁ਫਾਰਸ	-11.614
▁ਦਇਆ	-11.614
▁ਟੂਰ	-11.6141
▁ਸਾਹਿਤਿਕ	-11.6142
▁ਗਾਲ	-11.6149
2,0	-11.615
ਔਬਜ਼ਰਵਰ	-11.6152
·	-11.6152
▁ਲਗਨ	-11.6153
▁ਹਿਸਾ	-11.6154
ਵੱਖਰੀਆਂ	-11.6155
▁ਰੈਡ	-11.6158
▁ਫਰੀਕੁਐਂਸੀ	-11.616
▁ਤਾਨਾਸ਼ਾਹੀ	-11.6165
▁ਜੂਝ	-11.617
ਚੌ	-11.6171
▁ਆਟਾ	-11.6173
▁62	-11.6173
▁ਨੁ	-11.6174
▁ਧਨੀ	-11.6179
ਮੈਟਿਕਸ	-11.6183
▁ਜੰਗਾਂ	-11.6183
ਰਨਾ	-11.6184
▁ਇਲੈਕਟ੍ਰੌਨਿਕ	-11.6187
द	-11.6187
ਪਥ	-11.6188
▁ਮਜ਼ਦੂਰੀ	-11.6188
ੇਟਰ	-11.619
▁ਇਜ਼ਰਾਇਲੀ	-11.6192
▁ਸਬਕ	-11.6193
symbol	-11.6199
▁ਤੁਕਾਂ	-11.6199
▁ਸੁਭਾਵਿਕ	-11.6199
▁ਪ੍ਰਯੋਜਨ	-11.6199
▁ਉਨਾ	-11.6199
▁ਹਰਟਜ਼	-11.62
▁ਵੇਨਬਰਗ	-11.62
ਕਿਰ	-11.62
▁ਜੁੱਗ	-11.62
▁ਮਹੰਤ	-11.62
▁ਪੈਟਰਨ	-11.62
▁ਅਲੋਚਨਾ	-11.62
▁ਨ੍ਰਿਤ	-11.6201
▁ਸੈਨਾਪਤੀ	-11.6201
▁ਸਪਿਨੌਰ	-11.6201
▁ਰੈਜ਼ੋਨੈਂਸ	-11.6201
▁ਹੁੰਦਿਆਂ	-11.6201
▁ਪੁਕਾਰਿਆ	-11.6201
▁ਅਮੀਰਾਤ	-11.6202
▁ਦਾਸਤਾਨ	-11.6208
ਸ਼ਲ	-11.6209
▁ਆਵੇ	-11.6209
▁ਨਾਰੀਅਲ	-11.6209
▁ਭੜਕ	-11.6209
▁category	-11.6209
▁ਕ੍ਰੈ	-11.6213
▁ਇੰਡੋਨੇਸ਼ੀਆਈ	-11.6214
▁ਤਕੜਾ	-11.6217
▁ਸਾਕਾਰ	-11.6221
ਾਇਲ	-11.6221
▁ਬੱਸੀ	-11.6224
ਜੋਤ	-11.6227
▁ਅਡ	-11.6233
▁ਬੇਟ	-11.6235
▁ਨਵੇ	-11.6239
▁ਵਸਤ	-11.6241
▁ਥਾਇਓ	-11.6242
▁ਗੁਰਮੁਖ	-11.6242
▁ਤੀਕ	-11.6243
ਤਾਰਾ	-11.6243
▁ਟਾਈਪ	-11.6253
om	-11.6255
ਮਹ	-11.6257
▁ਸ਼ਰਧਾਲੂ	-11.6258
▁ਯੂਨੀਵਰਸਲ	-11.626
Xp	-11.6261
ਥਰ	-11.6264
▁ਨਿਸ਼ਾਨੀ	-11.6265
▁ਵਧੀ	-11.6266
▁ਡਿੱਗਦੀ	-11.6267
▁ਮੌਲਵੀ	-11.627
▁ਉਠਾ	-11.6271
▁ਅਰਥਸ਼ਾਸਤਰ	-11.6274
▁ਸਦੀਵੀ	-11.6276
▁ਉਘੇ	-11.6278
▁ਟਿਸ਼ੂ	-11.6278
▁ਪਾਰਦਰਸ਼ੀ	-11.6278
▁ਗਰਭਵਤੀ	-11.6278
▁ਸੋਢੀ	-11.6279
▁ੳ	-11.628
▁ਕਟਾਈ	-11.6282
▁any	-11.6282
|-|	-11.6283
▁ਲਾਉਂਦੇ	-11.6284
▁ਕੋਹਲੀ	-11.6287
▁ਕਾਰਜਕਾਲ	-11.6287
ਾਪ	-11.6287
▁ਦੇਣੀ	-11.6288
▁ਪ੍ਰੰਪਰਾਵਾਂ	-11.6289
ind	-11.6292
▁ਪੜਾਵਾਂ	-11.6292
▁ਟੈਗ	-11.6292
▁ਸੌਖ	-11.6293
▁ਫੀਨੋਮੀਨੌਲੌਜੀ	-11.6293
▁59	-11.6294
ਰਿਮ	-11.6303
▁ਘੁੰਮਦੇ	-11.6303
▁ਤਾਲਿਬਾਨ	-11.6305
▁700	-11.6306
▁ਧੁ	-11.6307
ਕੋਲ	-11.6307
ਹਲਾ	-11.6308
▁੨੦੦	-11.6308
▁ਛੱਲ	-11.6313
▁ਬੰਸ	-11.6315
▁ਨਿਰਾਸ਼ਾ	-11.6315
▁ਲਿਟਲ	-11.6319
ੋਏ	-11.632
▁ਸਿਤਾਰ	-11.6321
▁ਹਮਲਾਵਰ	-11.6323
▁ਕਰਜ਼ੇ	-11.6323
▁ਜੌਰਡਨ	-11.6325
▁ਰਜਿਸਟਰ	-11.6328
▁ਟਿੱਪਣੀਆਂ	-11.6328
▁ਚਰਣ	-11.633
▁ਸ਼ਾਇਰਾਂ	-11.633
▁It	-11.633
ਰੇਜ਼	-11.6333
ਏਸ	-11.6336
ਕਾਲਾ	-11.6336
▁ਵਾਟ	-11.6341
ਪਿੰਗ	-11.6342
▁5‐	-11.6342
ਅਦ	-11.6344
▁ਰਨ	-11.6349
▁ਲੋੜੀਂਦ	-11.6354
▁ਪਹੁੰਚੀ	-11.6355
▁ਅਨੋਖੀ	-11.6357
▁ਚਿਰਸਥਾਈ	-11.6357
▁ਟੈਕਨਾਲੋਜੀ	-11.6357
▁ਮਿਨੇਸੋਟਾ	-11.6357
▁ਵਰਕਸ਼ਾਪ	-11.6357
▁ਮਰਾਠਾ	-11.6357
▁ਮੁੰਡਿਆਂ	-11.6357
▁ਵਾਯੂਮੰਡਲ	-11.6357
▁ਏਅਰਪੋਰਟ	-11.6357
▁ਭੇਦਭਾਵ	-11.6358
▁ਬੂਟਿਆਂ	-11.6359
▁ਦੈਵੀ	-11.6359
▁ਸੈਟਿੰਗ	-11.636
▁ਫ਼ੋਰ	-11.636
ਕੋਸਤਾ	-11.636
▁ਨਮੀ	-11.6361
ਸੱਚ	-11.6362
▁ਘੋਸ਼	-11.6363
▁ਸੂਫ਼ੀਵਾਦ	-11.6363
▁Ro	-11.6365
▁ਮਾਮੂਲੀ	-11.6366
▁ਏਨੀ	-11.6369
▁46	-11.637
▁ਬੀਕਾਨੇਰ	-11.6373
ਆਸ	-11.6373
▁ਵਿਲੱਖਣਤਾ	-11.6375
▁ਹਲਾਤਾਂ	-11.6377
ਿਜ਼ਨ	-11.638
▁ਢੁ	-11.6383
▁ਗੀ	-11.6383
|\	-11.6387
ਾਉਣਾ	-11.6387
▁ਕਿਲੋਗ੍ਰਾਮ	-11.6388
ਵਾੜਾ	-11.639
ਨੇਸ	-11.639
ਸਮਰਪਣ	-11.6392
▁ਆਟੋ	-11.6392
ਕਾਰਣਾਤਮਿਕ	-11.6393
▁ਰਿਕਾਰਡਿੰਗ	-11.6394
▁ਆਬ	-11.6394
ਬਰਨ	-11.6394
▁ਸਟੇ	-11.6395
▁ਫੈਕਟਰੀ	-11.6395
ਇਨ੍ਹਾਂ	-11.6396
▁ਤਾਜਿਕ	-11.6397
ਗਿਰੀ	-11.6397
▁ਉਪਭਾਸ਼ਾ	-11.6398
ਟਰਨ	-11.6398
▁ਪਰਾਗ	-11.6401
▁ਪੂੰਜੀਵਾਦ	-11.6402
▁ਅਫ਼	-11.6404
ਸੋਨ	-11.6407
▁ਉਲਝ	-11.6408
▁ਬਰਫ	-11.641
▁ਨਿਰਾਲੀ	-11.641
ਿਊਟ	-11.6411
▁ਝੁਕਣ	-11.6411
▁ਬਾਹਰੋਂ	-11.6412
▁dk	-11.6412
▁ਪਿਕਚਰ	-11.6416
▁ਨੱਚ	-11.6418
▁ਬੀਨ	-11.6419
▁ਇੱਲ	-11.6419
ੇਲਾ	-11.642
▁ਨਾਂਵ	-11.6422
▁ਗਲੀਆਂ	-11.6423
▁ਲੜਿਆ	-11.6423
▁ਢੰਗਾਂ	-11.6424
▁67	-11.6424
▁ਏਰ	-11.6425
▁ਸ਼ੋਰ	-11.6432
▁ਰਿਲੀਜ	-11.6434
▁ਅਲਾਬਾਮਾ	-11.6437
▁ਕਾਨਫ਼ਰੰਸ	-11.6437
▁ਪੁਜ਼ੀਸ਼ਨ	-11.6437
▁ਫਰੈਡਰਿਕ	-11.6437
▁ਲੱਗਪੱਗ	-11.6437
▁ਅੰਡੋਰਾ	-11.6437
▁ਮੈਨੇਜਮੈਂਟ	-11.6437
▁ਕੈਬਿਨ	-11.6438
▁ਤਣਾਅ	-11.6438
▁ਸਕਾਟ	-11.6439
▁ਆਈਸੀਸੀ	-11.6439
▁ਖਿਚ	-11.6439
▁ਕਮਾਉਣ	-11.6442
▁ਕਿਸਾਨੀ	-11.6442
▁ਜਿਤ	-11.6442
▁ਹਿਰਨ	-11.6444
▁ਸ੍ਰੀਨਗਰ	-11.6445
▁ਖੰਡਨ	-11.6446
▁ਟੁਕੜੀ	-11.6446
ਰੀਅਲ	-11.6447
ੂਨੀ	-11.645
▁88	-11.6451
ਬਾਸ	-11.6452
▁names	-11.6453
▁ਮਾਇਕਲ	-11.6456
▁ਆਨਰੇ	-11.6458
ਵਾਏ	-11.6459
▁ਜੋਗੀਆਂ	-11.646
ਾਵਾ	-11.6465
▁10,000	-11.6466
▁ਮੱਧਕਾਲ	-11.6468
▁ਸਰਦਾਰਾਂ	-11.6468
▁ਔਜ਼ਾਰ	-11.647
▁ਫੜਨ	-11.6471
▁ਲਾਈਫ	-11.6472
∂	-11.6475
▁ਵੋਲਟ	-11.6476
ਮਿਆਂ	-11.6476
▁ਵੱਧਦੀ	-11.6476
▁ਚੌੜੀ	-11.6477
▁ਢੱਕ	-11.6479
▁ਨੇਮ	-11.6484
ਦ੍ਰ	-11.6485
ਤੱਕ	-11.6486
▁ਥੋ	-11.6492
▁ਸਤਾਲਿਨਗ	-11.6492
ci	-11.6495
ਐਸਸੀ	-11.6497
ਸ਼੍ਰੀ	-11.6499
▁ਸਤਿ	-11.6502
ਗੰਗਾ	-11.6503
▁ਜੰਡ	-11.6503
▁ਕਤਰ	-11.6511
▁ਭਰੋਸੇਯੋਗ	-11.6511
▁ਹਾਲੈਂਡ	-11.6516
1,3	-11.6516
▁ਨੋਰ	-11.6516
▁ਦੁਅਾਰਾ	-11.6518
▁ਪ੍ਰਮਾਤਮਾ	-11.6518
▁ਵਿਵੇਚਨ	-11.6518
▁ਕੀਰਤਪੁਰ	-11.6518
ੋਰੀ	-11.6518
▁ਯੋਧਾ	-11.6518
▁ਨਿਸ਼ਾਨੇ	-11.6518
ੋਮਾ	-11.6519
▁,}	-11.6519
▁ਪ੍ਰਾਕ੍ਰਿਤ	-11.6519
▁ਸਹੁੰ	-11.652
▁ਪਲੱਸ	-11.6521
▁ਬਾਰਡਰ	-11.6523
ਉੱਤਰ	-11.6523
▁ਗਰੇਡ	-11.6524
▁ਅਹਿੰਸਾ	-11.6524
▁ਵਿਭਾਗਾਂ	-11.6526
ਹਵਾ	-11.6527
੍ਰੋ	-11.653
▁ਪਰੋਸ	-11.6531
▁ਆਈਲੈਂਡ	-11.6531
▁ਚੇਲੇ	-11.6532
▁ਸਿਤਾਰਾ	-11.6533
ਸਾਦ	-11.6534
▁ਕੁੰਜੀ	-11.6534
▁ਸਮਝਾਉਂਦੀ	-11.6535
م	-11.6537
ਮੋਟ	-11.6537
▁ਚੁੰਬਕ	-11.6539
ਈਏ	-11.6544
▁ਦੋਰਾਨ	-11.6544
▁ਮਾਊਂਟ	-11.6544
▁ਰੋਕੀ	-11.6545
▁ਚਿੰਨਾਂ	-11.6547
▁ਸਿੱਟ	-11.6552
▁ਅਦਾਕਾਰਾਂ	-11.6552
▁ਕੁਮਾਰੀ	-11.6554
▁ਬੋਟ	-11.6556
▁ਪ੍ਰਸ	-11.6559
▁ਫੇਲ	-11.6559
ow	-11.656
▁ਫ਼ਸਲ	-11.6561
▁ਵੁ	-11.6563
▁ਯੂਥ	-11.6565
▁ਲੀਡ	-11.6567
▁ਸੋਹਣ	-11.6567
▁61	-11.6571
▁ਲਿਖਾਈ	-11.6571
▁ਉੱਨਤ	-11.6572
br	-11.6573
▁ਨਸ	-11.6575
ਪਾਣੀ	-11.6576
▁ਬਿਸ	-11.6578
▁ਨਿਰਦੇਸ਼ਤ	-11.6579
ਜ਼ਾਨ	-11.6579
ਸ਼ਹਿਰ	-11.658
▁ਵਡੇਰੇ	-11.6581
ਉਂਦਾ	-11.6581
▁ਵਿਵਿਧ	-11.6583
▁ਵਪਾਰਿਕ	-11.6585
▁ਚੌਂਕ	-11.6587
▁ਬਹਾ	-11.6588
▁ਹਾਰਮੋਨਿਕ	-11.6593
ਯਾਂ	-11.6597
▁ਬਸੇ	-11.6598
▁ਚੈਂਬਰ	-11.6599
▁ਤਨਜ਼ਾਨੀਆ	-11.6599
▁ਦਰਵਾਜਾ	-11.6599
▁ਸਟੌਕਾਸਟਿਕ	-11.6599
▁ਸੰਚਾਲਿਤ	-11.6599
▁ਸੈਕਿੰਡ	-11.6599
▁ਜੰਕਸ਼ਨ	-11.6599
▁ਬ੍ਰੋਗਲਾਇ	-11.6599
▁ਈਰਖਾ	-11.6599
▁ਸੰਯੋਜਨ	-11.6599
▁ਮਨੋਰਥ	-11.6599
Xn	-11.66
ਡੈਂਟ	-11.6602
▁ਭੂਗੋਲਕ	-11.6602
▁ਸ਼ਰੀਫ਼	-11.6603
▁1850	-11.6604
ਪੂਰਵ	-11.6604
▁ਆਈਸ	-11.6605
ਬੋਰਡ	-11.6608
ee	-11.6608
य	-11.6608
ਹਿਣ	-11.6608
\,}	-11.6609
-12	-11.6613
Ch	-11.6613
ਪੀਣ	-11.6618
ਟੀਕਲ	-11.6619
▁ਬਹਿਰ	-11.6619
▁ਇਕੱਲੀ	-11.6619
▁ਕਾਂਗੜਾ	-11.6619
ਜ਼ਾਰ	-11.6622
▁its	-11.6622
▁ਉੱਗ	-11.6627
▁ਹਾਗ	-11.6627
▁ਖਰੜ	-11.6628
▁ਵੰਨਗੀਆਂ	-11.6629
▁Mo	-11.6631
▁ਕੱ	-11.6633
▁ਲੂਈਸ	-11.6633
▁ਅਬਾਦ	-11.6635
▁ਫ਼ਲਸਤੀਨ	-11.6636
▁ਪਤਰ	-11.6636
▁ਇਲਮ	-11.6638
▁ਫਿਲ	-11.6639
▁ਗੋਰੇ	-11.6639
▁ਬੁਰਾ	-11.6639
▁ਗੜ	-11.664
▁ਨਕਲੀ	-11.6642
ਐੱਚ	-11.6642
▁ਗੁਜ਼ਰਨ	-11.6645
▁ਈਸ਼ਵਰ	-11.6646
ਸਫ	-11.6646
ਰਾਇ	-11.6647
▁ਹੂੰ	-11.6648
▁ਗਈਆ	-11.6649
▁ਅਗੇ	-11.6649
ਬੋਰ	-11.6649
▁ਨਿਯੁਕਤੀ	-11.665
ya	-11.665
bi	-11.6651
ਕਾਨੂੰਨੀ	-11.6653
▁ਲਿਅਾ	-11.6653
ਰਸਮੀ	-11.6656
log	-11.6664
▁ਅਠ	-11.6664
day	-11.6667
▁ਮਰੀ	-11.6669
ਤੰਤਰ	-11.6671
।:24	-11.6671
▁ਉਡ	-11.6671
▁ਪੱਥਰਾਂ	-11.6672
▁ਦਲਿਤਾਂ	-11.6675
▁ਬ੍ਰਿਜ	-11.6676
ਮੌਡੂਲਸ	-11.6681
▁ਦੇਵਨਾਗਰੀ	-11.6681
▁ਫ਼ਾਕਲੈਂਡ	-11.6681
▁ਮੌਖਿਕ	-11.6681
▁ਸੁਨੇਹਾ	-11.6681
▁ਪ੍ਰਸ਼ੰਸਕ	-11.6681
▁ਟੈਨੇਸੀ	-11.6681
▁ਲੋਰਕਾ	-11.6681
▁ਚੇਤੰਨ	-11.6681
▁ਬਹਾਵਲਪੁਰ	-11.6681
▁ਦਮਦਮ	-11.6682
▁ਗੁਰਿਆਈ	-11.6682
▁ਮਰੀਅਮ	-11.6685
hi	-11.6689
▁ਸੈਸ਼ਨ	-11.6689
▁ਪਾਗਲ	-11.6691
▁ਨੈਬੀਊਲਾ	-11.6691
▁ਮਜ	-11.6692
▁ਢਾਹ	-11.6693
▁ਵਾਕਾਂ	-11.6695
▁ਖਾਨਦਾਨ	-11.6699
▁ਜਾਂਚਣ	-11.67
▁ਪ੍ਰਤੀਨਿਧਤਾ	-11.67
▁ਕ੍ਰਿਤ	-11.6704
▁ਫਾਸਟ	-11.6705
▁ਲੜੇ	-11.6705
▁ਇਜ	-11.6709
▁ਵਰਨ	-11.6711
ਮੰਡ	-11.6717
▁ਰੈਂਡ	-11.672
▁ਸਜ	-11.6721
▁ਵਿੱਥ	-11.6721
ns	-11.6721
ੋਆਇਡ	-11.6723
▁ਫਲੋਰ	-11.6726
ਅਸੀਂ	-11.6727
▁99	-11.6731
▁ਮੌਰ	-11.6733
ਦੂਜੀ	-11.6735
▁part	-11.6738
▁ਸਦ	-11.6738
ਤਿੰਨ	-11.6739
▁ਝਾੜ	-11.6741
▁ਗੌਲ	-11.6742
ਦੱਖਣੀ	-11.6745
ਮੇਸ਼	-11.6747
▁ਸੱਚਾ	-11.6751
ਭਿ	-11.6753
▁ਤੈਰ	-11.6757
ਡੀਅਨ	-11.6758
▁ਹਾਲੀਆ	-11.6761
▁ਆਇਓਵਾ	-11.6763
▁ਇੰਟੈਗਲ	-11.6763
▁ਲੌਂਗੀਟਿਊਡ	-11.6764
▁ਦਸਤਖਤ	-11.6764
ight	-11.6764
▁ਸਾਲਵਾਦੋਰ	-11.6764
ਰਿੱਚੀ	-11.6764
▁ਇੰਫਾਲ	-11.6764
▁ਬਿਲਡਿੰਗ	-11.6764
▁ਸੁਪਰਨੋਵਾ	-11.6764
▁ਫਰੰਟ	-11.6764
▁ਆਵਾਜ	-11.6764
▁ਦਰਵੇਸ਼	-11.6765
▁ਆਲੋਚਨਾਤਮਿਕ	-11.6767
▁ਲੋਕਪ੍ਰਿਯ	-11.6769
ਗ੍ਰਾ	-11.6769
▁ਪੀਲੂ	-11.6769
▁ਚਿਕਨ	-11.677
▁ਬਿਰਾਜ	-11.6771
▁ਸੁਰਬੱਧ	-11.6771
▁ਮਕਾਉ	-11.6772
▁ਕੱਚਾ	-11.6772
▁pages	-11.6773
ह	-11.6774
▁ਅੰਕੜਾ	-11.6776
▁ਭੇਤ	-11.6777
800	-11.6778
ated	-11.6778
▁ਪਾਂਡੇ	-11.678
ਪੋਰਟ	-11.6781
▁69	-11.6781
ਗਾਉਂਦੇ	-11.6781
▁ਹਾਰਡ	-11.6781
▁ਜੈਸ	-11.6784
▁ਗਰੇ	-11.6785
▁ਰਾਈਨ	-11.6787
▁87	-11.6787
▁ਜਾਰਜੀਆਈ	-11.6788
▁To	-11.6789
▁ਠਹਿਰ	-11.679
▁ਰਿਓ	-11.6791
ਕੁਰ	-11.6791
▁ਘੜਿਆ	-11.6792
▁ਚੌਦਾਂ	-11.6796
▁ਮੁਟਿਆਰ	-11.6799
▁ਆਸ਼	-11.6801
▁ਕੁੰ	-11.6802
▁ਸ਼ੀਸ਼	-11.6802
▁ਧਰਤ	-11.6802
▁ਐਂਟਰੀ	-11.6805
▁ਸੰਪ੍ਰਦਾ	-11.6807
▁ਬੈਲਾਰੂਸ	-11.681
▁ਉਮ	-11.6811
ਏਸ਼ਨ	-11.6811
▁ਦਿਖਾਉਣਾ	-11.6811
ਧਾਰਨਾਵਾਂ	-11.6815
▁ਢਹਿ	-11.6817
ph	-11.6817
▁new	-11.6819
ਮੇਰ	-11.682
▁ਸਾਓ	-11.6823
ਰੋਧ	-11.6825
ਟ੍ਰ	-11.6825
▁ਵਿਹਾਰਕ	-11.6826
ath	-11.6828
▁ਅਸਮ	-11.6829
▁ਪਿਕ	-11.6829
▁ਲੋਕਗੀਤਾਂ	-11.6838
▁ਜੰਮ	-11.6839
300	-11.6841
ਲੀਅਨ	-11.6841
▁quotation	-11.6841
▁ਲਲਿਤ	-11.6841
▁ਪੀਐਚ	-11.6844
▁RQM	-11.6847
▁ਇਨਫਲੇਸ਼ਨ	-11.6847
▁ਮਥੁਰਾ	-11.6847
▁ਧਰਾਤਲ	-11.6847
▁ਪਰਿਕਰਮਾ	-11.6847
▁ਅਟੱਲ	-11.6847
▁ਅਗਾਂਹ	-11.6847
▁ਆਇਸੋਲੇਟ	-11.6847
▁ਪਾਲੀਨੇਸ਼ੀਆ	-11.6847
▁ਵੇਰੀਏਸ਼ਨ	-11.6847
▁ਨੋਰਮਾਂ	-11.6847
▁ਕਵਿਤਰੀ	-11.6848
▁ਸਜਾਇਆ	-11.6849
▁ਸਵਰਾਜ	-11.685
▁ਸਈਦ	-11.6851
੍ਹੇਪ	-11.6851
▁ਨਾਰੀਵਾਦ	-11.6851
▁73	-11.6852
▁ਸਿਰਜਿਆ	-11.6852
▁ਢਾਈ	-11.6853
▁ਵਾਲਟ	-11.6853
▁ਫੈਲਾਇਆ	-11.6855
▁ਹਾਈਪਰ	-11.6859
▁ਵੈਲੀ	-11.6859
▁ਉਦੇਸ਼ਾਂ	-11.6859
▁ਭਗ	-11.686
▁ਆਤਮਕਥਾ	-11.6861
ਿੰਸ	-11.6861
▁ਵਜਾਉਣ	-11.6862
▁ਸਾਹਨੀ	-11.6862
▁ਯਾਦਵ	-11.6862
▁ਪਉੜੀਆਂ	-11.6862
si	-11.6865
▁ਕੂਲ	-11.6865
▁ਸੀਤਲ	-11.6868
ਖਾਨਾ	-11.6869
ਮਹਾ	-11.6869
▁ਐਲਾਨਿਆ	-11.687
▁ਪੜ੍ਹਦਾ	-11.6871
ous	-11.6874
▁ਪੱਧਰਾ	-11.6877
▁ਨੀਵੀਂ	-11.6879
▁ਕੱਚੀ	-11.6879
▁ਸੋਲੋ	-11.6881
ੀਏਸ਼ਨ	-11.6882
▁ਪ੍ਰਚਾਰਕ	-11.6884
▁ਰਹਿਤਲ	-11.6887
▁ਗੁਜਰਾਂਵਾਲਾ	-11.6887
ਲੈਟ	-11.6887
▁ਦਹਿਸ਼ਤ	-11.6888
▁م	-11.6893
▁ਜੁਟ	-11.6893
▁ਜੱ	-11.6894
▁ਪ੍ਰਚਲ	-11.6894
▁ਮੈਨੀ	-11.6895
▁ਸੋਹ	-11.6896
▁ਫ਼ਸਲਾਂ	-11.6896
▁ਉੱਚਾਰ	-11.6896
ਪਰਿਵਾਰ	-11.6896
▁ਅਦਾਲਤਾਂ	-11.6898
▁ਤਸ	-11.6899
ਸਾਰੇ	-11.69
▁ਤਿਰ	-11.6901
ੱਸ਼	-11.6905
▁ਜੁੜਨ	-11.6906
▁ਮਿਲਾਉਂਦ	-11.6906
▁ਪਟਿਆਲ	-11.6907
▁ਵਾਅਦ	-11.6909
▁ਕੈਦੀ	-11.6909
ਲਿਪ	-11.6911
▁ਆਮਦ	-11.6913
▁ਮੈਂਬਰੇਨ	-11.6914
▁ਸੇਮੀ	-11.6917
▁ਸਾਂਭਣ	-11.6922
▁ਦੀਵਾਰਾਂ	-11.6924
▁ਕਲਾਓ	-11.6924
ो	-11.6924
ਂਸ਼ੀਅਲ	-11.6929
▁ਡਾਇਗਨਲ	-11.6931
▁ਪਰਿਣਾਮ	-11.6931
▁information	-11.6931
▁ਇਜਰਾਇਲ	-11.6931
▁ਫ਼ੈਸਲੇ	-11.6931
▁ਯਹ	-11.6931
▁ਹਿਮਾਇਤ	-11.6931
▁ਡੈਨਮਾਰਕ	-11.6931
ਕੁਨ	-11.6931
▁ਐਂਟੀਮੈਟਰ	-11.6931
▁ਵਿਲਿਅਮ	-11.6931
▁ਚਿਹਰਾ	-11.6932
▁ਮੱਖਣ	-11.6932
▁ਸੁਨਾਮ	-11.6933
▁ਰਾਜਿੰਦਰ	-11.6933
▁ਨੀਂ	-11.6934
▁ਜਹਾਨ	-11.6934
▁ਰਾਮਾ	-11.6935
▁ਉਦਾਰਵਾਦੀ	-11.6935
▁ਗਣਿਤਸ਼ਾਸਤਰੀ	-11.6937
ਐਂ	-11.6938
▁ਲਾਰ	-11.694
ਡਿਆ	-11.6942
ਰਥੀ	-11.6942
▁ਪਲੇਅਰ	-11.6943
ਤਿਰੀ	-11.6945
ੀਸਿਟੀ	-11.6949
ਵੰਦ	-11.6954
▁ਉਲਝਣ	-11.6954
▁pro	-11.6957
▁ਕੁਸ਼	-11.6958
▁#	-11.696
ਹਾਰਵੀ	-11.696
▁ਸਰਹੱਦਾਂ	-11.6964
▁ਅਪਣਾਏ	-11.6969
ਟੁ	-11.6971
▁ਲੂਈ	-11.6972
▁ਵਿਆ	-11.6973
▁ਵਿਕਣ	-11.6974
▁ਸੱਤਵੀਂ	-11.6978
3%	-11.6982
ਿਅਕ	-11.6983
▁ਬੱਲ	-11.6984
▁ਕਾਮਰੇਡ	-11.6985
Xm	-11.6986
axi	-11.6987
ਵਿਵਸਥਾ	-11.6987
▁ਪ੍ਰੌ	-11.6987
▁ਘਟੀ	-11.6988
▁ਬਣਕੇ	-11.6988
▁ਖਾਧ	-11.699
▁ਲਿਖਦੀ	-11.699
▁ਮੰਡ	-11.6994
ਨੂਰ	-11.6994
▁ਖਾਦਾਂ	-11.6999
ਫੇਅਰ	-11.7003
bar	-11.7004
▁ਚੱਕਰੀ	-11.7005
ਸਲੇ	-11.7007
ਟੀਆਂ	-11.7009
▁ਵਿਛੋੜ	-11.7009
▁ਮਾਈਕ੍ਰੋ	-11.701
▁ਅੰਦੋਲਨਾਂ	-11.7011
▁ਬੈਠੀ	-11.7012
▁ਮਹਤਵਪੂਰ	-11.7013
▁ਐਲਬਮਾਂ	-11.7014
▁ਗਾਉਣਾ	-11.7015
▁ਅਫਰੀਕੀ	-11.7016
▁ਐਰੀਜ਼ੋਨਾ	-11.7016
▁ਨਕੋਦਰ	-11.7016
▁ਪਸ਼ਤੋ	-11.7016
▁ਸਾਂਸਕ੍ਰਿਤਕ	-11.7016
▁ਖੁਦਕੁਸ਼ੀ	-11.7016
▁ਨਿਊਕਲੀਆਇ	-11.7016
▁ਟਰਾਂਸਪੋਰਟ	-11.7016
▁ਠੁਕਰਾ	-11.7016
▁ਯੁਆਨ	-11.7016
▁ਰਾਧਾ	-11.7017
▁ਜੁਰਮ	-11.7017
▁ਸਨਾਤਨ	-11.7017
▁ਆਲੋਚਨਾਤਮਕ	-11.7018
▁ਸ਼ਾਹਮੁਖੀ	-11.7018
▁ਵੇਖਣਾ	-11.7019
▁ਸਾਰਤਰ	-11.702
▁ਲਾਂਚ	-11.7021
▁ਸੁਭਾ	-11.7021
▁ਕ੍ਰਿਤੀਆਂ	-11.7022
▁ਮਿਨੀਮਲ	-11.7025
▁ਨਿਰਣਾ	-11.7026
▁ਘਟਾਇਆ	-11.7028
▁ਗਣਨਾ	-11.7032
ਵੈਰਾਇਟ	-11.7033
▁ਮਿਰਚ	-11.7036
▁ਜਾਗੀਰਦਾਰ	-11.7039
▁ਵਹਿਮ	-11.7039
▁ਵਪਾਰੀਆਂ	-11.7041
▁ਸ੍	-11.7042
ਕੰਸਾ	-11.7044
▁ਚਾਰਟਰ	-11.7046
▁ਰਿਲੇਸ਼ਨ	-11.7049
ਲੰਬਾਈਆਂ	-11.7055
▁ਪਦਾਂ	-11.7056
▁ਲਹਿੰਦੀ	-11.7056
▁ਸੈਨਤ	-11.706
▁ਸੈੱਲਾਂ	-11.7064
ਐੱਨ	-11.7065
▁ਵਧੇ	-11.7066
▁ਵਸਣ	-11.7067
▁ਵਿਰੋਧੀਆਂ	-11.7067
-10	-11.7068
han	-11.7073
▁ਫਰਾ	-11.7074
▁ਕਿਸੀ	-11.7075
▁ਗੁਲਾਮੀ	-11.7075
int	-11.7079
ਇਓ	-11.7079
▁ਗਲੈਕਸੀ	-11.7081
sa	-11.7084
▁ਤਰਜਮਾ	-11.7086
▁0.4	-11.7089
▁130	-11.709
▁ਸਮਰ	-11.7092
ਲੋਚਨ	-11.7095
▁ਮੋਟੀ	-11.7097
ਸਫੀਅਰ	-11.7098
▁ਲੀਖਟਨਸ਼ਟਾਈਨ	-11.7101
▁ਟਰਾਂਸਮਿਸ਼ਨ	-11.7101
ਵਰੀਥਿੰਗ	-11.7101
▁ਪੁਆਇੰਟ	-11.7101
▁ਪਸੰਦੀਦਾ	-11.7101
▁ਦਿਸੰਬਰ	-11.7101
▁ਸਫ਼ਰਨਾਮੇ	-11.7101
▁ਨਕਾਰਾਤਮਕ	-11.7101
▁ਕੋਮ	-11.7102
▁ਮੌਨ	-11.7103
▁ਉੱਡਣ	-11.7103
▁ਸਿਨਹਾ	-11.7103
▁ਆਲ੍ਹਣਾ	-11.7104
▁ਟੈਬੂ	-11.7104
▁ਬਲਵੰਤ	-11.7105
▁ਅੰਤਰਾਸ਼ਟਰੀ	-11.7106
▁ਹਾਰਮੋਨ	-11.7107
▁ਸਮੁਦਾਇ	-11.7109
▁ਗੁਜ਼ਰਿਆ	-11.7109
▁ਕੱਤਕ	-11.7109
▁ਬੀਬੀਸੀ	-11.7111
▁ਅਗ	-11.7113
▁ਦੰਤ	-11.7114
▁ਮਿਟ	-11.7115
ਗੈ	-11.7115
ਸ਼ੁਦਾ	-11.7117
▁ਕਿਰਾਏ	-11.7118
ਰੋਸ	-11.7123
▁ਆਚਾਰ	-11.7123
▁ਨਿਭਾਉਂਦ	-11.7125
▁ਜੋਗਿੰਦਰ	-11.7125
▁ਕਾਮਯਾਬੀ	-11.7127
ਉੱਚ	-11.7127
▁ਕੁੰਡ	-11.7128
▁ਵਾਪਰੀ	-11.7128
ਸ਼ਾਲਾ	-11.7132
▁ਦੇਖੀਆਂ	-11.7132
ੇਲੀ	-11.7135
▁ਫੌ	-11.7138
ਇਟ	-11.714
,500	-11.7142
▁ਮਾਰਦਾ	-11.7146
ੱਤੇ	-11.7152
▁ਗੋਰਾ	-11.7152
▁ਨਾਨੀ	-11.7157
ਵਰਲਡ	-11.7159
ub	-11.7161
▁ਕੈਮ	-11.7167
▁ਗੰਭੀਰਤਾ	-11.7168
}{	-11.7168
▁ਗਾਣ	-11.7169
ਬਣ	-11.7169
▁ਟੌਮ	-11.7169
ਵੈੱਲ	-11.7169
ਸਟੇਟ	-11.7173
▁ਗਜ਼ਲ	-11.7181
▁ਕਿੱਸਾਕਾਰ	-11.7183
▁ਬੈਲਟ	-11.7184
▁ਉਡਾਣ	-11.7184
▁ਸਿਆਲ	-11.7187
▁ਟਰਮੀਨਲ	-11.7187
▁ਇਨਫਰਮੇਸ਼ਨ	-11.7187
▁ਔਸੀਲੇਸ਼ਨ	-11.7187
▁ਡਿਵੈਲਪਮੈਂਟ	-11.7187
▁ਭਾਈਚਾਰਾ	-11.7187
▁ਰਾਜਦੂਤ	-11.7187
▁ਸੰਸਕਰਨ	-11.7188
▁ਐਡਿੰਗਟਨ	-11.7188
▁ਸੁਗੰਧ	-11.7188
▁ਗਰਭਪਾਤ	-11.7188
▁ਲਹਿਜੇ	-11.7188
▁ਰੋਟਰ	-11.7188
ਸੁਵੰਨ	-11.7189
▁ਧੂੜ	-11.719
ਤਾਲ	-11.7191
▁ਅਾਦਿ	-11.7191
▁ਆਹ	-11.7192
▁ਕਰਤਾਰਪੁਰ	-11.7192
▁ਨਸ਼ੇ	-11.7194
▁ਜਨਕ	-11.7197
▁ਮੋਂਟਾ	-11.7199
ੂਜ਼	-11.7202
▁ਮਿਸ਼ਨਰੀ	-11.7202
ਟੇਸ਼ਨ	-11.7204
▁ਬੁਕ	-11.7205
▁content	-11.7206
▁ਪਲਟਣਯੋਗ	-11.7209
▁ਐਜੂਕੇਸ਼ਨ	-11.7209
Xs	-11.7212
▁ਜਿਉਂਦੇ	-11.7214
▁ਸਾਸ	-11.7214
▁ਘਰੋਂ	-11.7215
▁ਭਾਂਤੀ	-11.7217
ੁਦੀਨ	-11.7221
▁ਤਰਿ	-11.7223
▁ਸੁਭਾਸ਼	-11.7225
▁ਸੰਬੋਧਨ	-11.723
▁ਗ਼ਲਤ	-11.7233
▁ਸਪਾ	-11.7239
▁ਸੈਕੰਡ	-11.724
ਮਾਰਗ	-11.7244
ਚਿਨ	-11.7247
▁ਕਿਤਾ	-11.725
▁ਮੰਨੀਆਂ	-11.7251
▁ਲੌਰ	-11.7251
▁1886	-11.7254
side	-11.7257
▁ਮਦਨ	-11.7258
ਜਸ	-11.726
▁ਨੀਂਦ	-11.726
ੱਕਾ	-11.7261
ਸੀਏ	-11.7263
▁ਸਪਰ	-11.7264
▁ਦਿਓਲ	-11.7265
ਟਕ	-11.7267
ੂਏ	-11.7267
▁ਕੋਲਾ	-11.7269
▁Sa	-11.7269
ੋਇੰਗ	-11.727
▁ਲਾਈਵ	-11.7271
▁ਗੁਜ਼ਰਦੀ	-11.7272
ਫੂ	-11.7273
▁ਜਥੇ	-11.7273
▁ਇਲੀਨਾਏ	-11.7274
▁ਡੇਲਾਵੇਅਰ	-11.7274
▁ਫ਼ਲੌਰਿਡਾ	-11.7274
▁ਸ਼ੇਕਸਪੀਅਰ	-11.7274
▁ਵਿਹੜੇ	-11.7274
▁ਫਿਨਿਸ਼	-11.7274
▁ਜਵਾਲਾਮੁਖੀ	-11.7274
▁ਇਰਾਦੇ	-11.7274
▁ਜਨੂੰਨ	-11.7274
▁ਜਾਰਵਿਸ	-11.7274
▁ਰਾਮਗੜ੍ਹੀਆ	-11.7274
▁ਗੋਥਿਕ	-11.7274
▁ਸਦੱਸ	-11.7275
▁ਨਿਊਕਲੀਆਈ	-11.7275
▁ਸ਼੍ਰੀਮਤੀ	-11.7276
▁ਇਵੈਂਟ	-11.7276
▁ਕਹ	-11.7276
▁ਮੱਕੇ	-11.7277
▁ਗੋਰਕੀ	-11.7277
▁ਦਰਗਾਹ	-11.7279
▁ਕੌਸਮੋਗਨ	-11.728
▁ਟੀਚੇ	-11.7281
▁ਬਾਨੋ	-11.7282
▁ਵਿਆਨਾ	-11.7283
ਸੁੱਚੇ	-11.7283
▁ਲੂਈਜ਼	-11.7284
▁ਕੁਸ਼ਲ	-11.7287
▁ਮਿਰ	-11.7288
▁ਮਾਸਿਕ	-11.7289
▁ਵਿਧਾਵਾਂ	-11.7291
▁57	-11.7292
ਖ਼ਰ	-11.7294
ਸ਼ੇਰ	-11.7296
ਰੋਂ	-11.7296
▁ਓਨਾ	-11.7296
▁ਮਾਨਸ	-11.7301
ਆਪਣੀ	-11.7302
▁ਮੌਸਮੀ	-11.7303
Xj	-11.7303
▁ਗੈਲ	-11.7306
▁ਤਾਰੀਖ਼	-11.7306
▁ਬੇਸਟ	-11.7308
▁ਪਛਾਣਨ	-11.7309
▁ਵਾਲਟਰ	-11.7313
ਤਾਨ	-11.7314
▁ਵਜਾ	-11.732
▁ਉੱਦਮ	-11.7326
▁ਤੈ	-11.7328
▁ਫਰਮ	-11.7329
que	-11.733
▁ਗੁਜਰੀ	-11.733
▁ਅਯੋਗ	-11.7333
▁ਐਸ਼	-11.734
ਕੱਲ੍ਹ	-11.734
▁ਬੇਨ	-11.7344
▁ਘੁਲ	-11.7346
▁ਚਿੱਤ	-11.7346
▁ਆਈਸੋ	-11.7349
▁ਪਾਣੀਆਂ	-11.7349
ਕਾਸ਼	-11.7351
ਦੂਰ	-11.7354
▁ਇੰਜਨ	-11.7361
▁ਸਬਸਕ੍ਰਿਪਟ	-11.7362
▁ਬੈਡਮਿੰਟਨ	-11.7362
▁ਲੁਧਿਆਣੇ	-11.7362
▁ਡਿਟ੍ਰਮੀਨੈਂਟ	-11.7362
▁ਕੌਸ਼ਲ	-11.7362
▁ਭੁਗਤਾਨ	-11.7362
▁ਮੁਕੱਦਮੇ	-11.7362
▁ਰੋਬੋਟ	-11.7362
▁29.79	-11.7363
▁ਕੈਨੇਡੀਆਈ	-11.7363
▁ਅਦਾਰਿਆਂ	-11.7363
▁ਸੂਝ	-11.7363
ਿਊਨ	-11.7364
▁1861	-11.7365
▁ਸਾਕਾ	-11.7366
▁ਆਂਡੇ	-11.7367
▁ਅਰਵਿੰਦ	-11.7367
▁ਮੁਢ	-11.7369
▁ਸਮਾਉਣ	-11.7369
▁ਮਰਜ਼ੀ	-11.737
▁ਸਟ੍ਰ	-11.7372
▁ਪੈਂਟ	-11.7372
ਿੰਟ	-11.7374
▁ਮਾਨਕ	-11.7375
▁ਅਦਾਰਾ	-11.7379
ਸਥਿਤ	-11.7379
mid	-11.7381
▁ਏਰੀਆ	-11.7382
ਟੀਨ	-11.7384
▁ਪ੍ਰੋਗਰਾਮਿੰਗ	-11.7386
ਰਜੀ	-11.7387
▁ਰੋਜ਼ਾ	-11.7388
ਐਂਟ	-11.739
ud	-11.7392
▁ਹਾਰਟ	-11.7394
▁ਚਲਾਣਾ	-11.7397
▁ਲੁੱ	-11.7397
▁ਪੜਾਉਣ	-11.7399
▁ਪੌਪ	-11.74
▁82	-11.74
▁ਖਰਾ	-11.7404
▁ੲਿੰ	-11.7408
▁ਛੱਲੇ	-11.741
▁ਘੰਟਾ	-11.7413
▁ਹਾਸਰਸ	-11.7415
▁ਕਿਸ਼ਤੀ	-11.7415
}^{\	-11.7417
▁ਨੇਵੀ	-11.7421
▁ਅਨਾ	-11.7421
▁54	-11.7422
ਬ੍ਰਗ	-11.7424
▁ਰੂਪਕ	-11.7425
ਸਾਂਤਾ	-11.743
▁ਸਾਦਾ	-11.7432
▁ਕਾਇ	-11.7433
▁ਕੋਲੋਨ	-11.7433
ੱਤਰ	-11.7437
ਹਾਸ	-11.7444
▁ਅੰਤਲੇ	-11.7444
▁ਗ਼ਮ	-11.7445
▁ਤੀਬਰ	-11.7446
▁ਪ੍ਰਸੰਗਾਂ	-11.7446
▁ਅਜ਼ਰਬਾਈਜਾਨੀ	-11.7448
▁ਵਾਦ	-11.7449
▁ਅਲਕੋਹਲ	-11.745
▁ਇੰਟ੍ਰਪ੍ਰੈਟੇਸ਼ਨ	-11.745
▁ਪਾਈਥਾਗੋਰ	-11.745
▁ਟਿਕਾਣੇ	-11.745
▁ਸਿਤੰਬਰ	-11.745
▁ਡਾਈਆਕਸਾਈਡ	-11.745
ਖ਼ਤਰਨਾਕ	-11.7451
ਬਰਾਸਕਾ	-11.7451
▁ਵਾਸ਼ਪ	-11.7451
ਫ਼ੋਕ	-11.7453
▁ਸੰਤਾਪ	-11.7453
▁ਉਸਾਰਿਆ	-11.7454
▁ਰੂਪਾਂਤਰਣ	-11.7454
▁ਏਂਜਲਸ	-11.7455
▁ਪਕਾਉਣ	-11.7458
ਰਦੇ	-11.7459
ਸਮਿੱਟਰੀ	-11.7459
▁ਡੱਬੇ	-11.7461
▁ਪਲੈਟੋ	-11.7461
▁ਦਰਸਾਅ	-11.7463
▁ਲਿਜਾਂਦੀ	-11.7467
▁ਯੂਟਾ	-11.7467
▁ਜਿਥੋ	-11.7468
ਸਿਸਟਮ	-11.7469
▁ਅਮ੍ਰਿਤਸਰ	-11.7469
▁ਨਾਂਬੂ	-11.7471
▁ਖੜ੍ਹੇ	-11.7472
ਲੌਕ	-11.7473
▁ਜਿਹਨਾ	-11.7473
▁ਅਖ	-11.7473
▁ਐਪਲ	-11.7474
▁ਅਗਵਾ	-11.7476
▁ਵਰੇ	-11.7478
▁ਸਿਰੀ	-11.7481
▁ਸ਼ਨੀ	-11.7484
▁ਉਦਯੋਗਕ	-11.7487
▁ਗੰਧ	-11.7487
▁ਬਿਕਰਮ	-11.7492
▁ਪ੍ਰਕਿਰਿਆਵਾਂ	-11.7493
ਰਤੀ	-11.7494
▁ਉਂਗਲ	-11.7497
▁ਨਾਨਕੀ	-11.75
ਾਉਂਦੀ	-11.75
▁Ma	-11.7501
▁ਹਿਸ	-11.7504
▁ਪ੍ਰ੍	-11.7505
ance	-11.7505
▁ਸਲਾਵ	-11.7506
ਡੈ	-11.7512
ਕੁਸ਼ਲਤਾ	-11.7515
ਸਪੇਸਟਾਈਮ	-11.7517
ਮੇਟ	-11.752
ਨਿਵਾਸ	-11.7521
▁ਫ਼ਰੋ	-11.7521
ਡੀਨ	-11.7522
र्	-11.7523
▁ਉਮਾ	-11.7525
▁ਆਜ਼ਮ	-11.7526
▁ਐਸੇ	-11.7529
ਟਾਈ	-11.7532
▁ਬਿਰ	-11.7534
ਸਸ	-11.7537
▁ਕਨੈਟੀਕਟ	-11.754
▁ਗਿਆਨਪੀਠ	-11.754
▁ਲੁਡਵਿਗ	-11.754
▁ਹੈੱਡਕੁਆਰਟਰ	-11.754
▁ਕੋਸ਼ਾਣੂ	-11.754
▁ਭਰੂਣ	-11.754
▁ਅਛੂਤ	-11.754
begin	-11.754
▁ਪਲੇਬੈਕ	-11.754
▁ਕੈਲੰਡਰ	-11.754
▁ਵਿਅਾਹ	-11.754
▁ਵਰਮਾਂਟ	-11.754
▁ਹਮਾਇਤ	-11.754
ਰਾਣੀ	-11.7541
▁ਖ਼ਪਤ	-11.7541
▁ਪਾਚਨ	-11.7541
▁than	-11.7542
▁ਰਗੜ	-11.7544
▁ਕਰੋਡ਼	-11.7544
▁ਪਰਚੇ	-11.7544
▁ਫ਼ਿਜੀ	-11.7544
▁ਗ਼ਰੀਬ	-11.7544
▁ਭੈ	-11.7546
▁ਕਾਇਨਾ	-11.7546
▁ਪੀੜ੍ਹੀਆਂ	-11.7547
▁ਦੁੱਗਣੇ	-11.7547
ਰਾਜਾ	-11.7548
▁ਕਿਊ	-11.7549
ਤਰਮ	-11.755
ba	-11.755
ij	-11.7552
▁ਸਫੇਦ	-11.7554
ਕੋਡ	-11.7555
▁ਪਹੁੰਚਾਇਆ	-11.7556
▁ਜਾਣਗੀਆਂ	-11.7556
▁ਸਚ	-11.7557
▁ਸ਼ਹਿਦ	-11.756
▁੧੯੯	-11.756
▁ਕੁਰਸੀ	-11.7561
▁ਉਲੰਪਿਕ	-11.7561
▁ਖੰਡਰ	-11.7562
ਅਟ	-11.7565
5.	-11.7565
▁5,	-11.7568
▁ਸੌਖੇ	-11.7569
▁ਮਿੱਠੀ	-11.7569
ਮੇਂਟ	-11.757
▁ਗੋਲਾ	-11.7572
▁ਕਾਫ਼ੀਆਂ	-11.7572
times	-11.7573
▁ਸੰਪੰਨ	-11.7575
▁ਡੀਨ	-11.7576
ਭੀ	-11.7576
ah	-11.7578
▁Di	-11.7581
▁ਚੁਰਾ	-11.7582
▁ਪੁੱਜਣ	-11.7584
व	-11.7585
ਿਪ	-11.7585
▁ਸੰਪਰਦਾਇ	-11.7587
▁ਟਾਕਰਾ	-11.7588
ਤੇੜੇ	-11.7588
▁ਨੱਚਣ	-11.7599
ਸ਼ੇਖ	-11.7599
▁ਜੋਸਫ	-11.76
▁11.	-11.7604
ਕਾਰਾ	-11.7605
ਕਵੀ	-11.7606
ਰੈੱਡ	-11.7606
900	-11.7607
φ	-11.7607
ਫ਼ਾਰਸੀ	-11.7607
ਕ੍ਰਿਸ਼ਨ	-11.7608
▁ਮਾਏ	-11.7613
ਚਿਤਰ	-11.7615
ਰਾਵ	-11.7618
▁ਆਊਟ	-11.7618
ਪ੍ਰੇਮ	-11.7619
▁ਮੈਥ	-11.7624
▁ਵਿਖਾ	-11.7627
▁ਹੈਮਿੰਗ	-11.7627
▁ਰਿਕ	-11.7628
ism	-11.7628
▁ਕਾਜ	-11.7629
▁ਟੁਕੜਿਆਂ	-11.763
▁ਨੁਸਰਤ	-11.763
▁ਮਿਜ਼ੂਰੀ	-11.763
▁ਵਿਸਕਾਂਸਨ	-11.763
▁ਸ਼ਰਨਾਰਥੀ	-11.763
▁ਸਰਹੰਦ	-11.763
▁ਮੱਤਭੇਦ	-11.763
▁state	-11.763
▁ਪ੍ਰਤੀਕ੍ਰਿਆ	-11.763
ਜੂਨ	-11.7631
▁ਚਾਚੇ	-11.7631
▁ਯੁਧ	-11.7631
▁ਰੋਮਾਂਸ	-11.7632
▁ਦੂਰਦਰਸ਼ਨ	-11.7634
▁ਖਰੀਦਣ	-11.7634
▁ਵਣ	-11.7635
ਗਸ	-11.7636
▁ਖਾਸੀਅਤ	-11.7638
▁ਟਾਓ	-11.7639
▁ਲੰਮੀਆਂ	-11.764
▁ਹੁੰ	-11.764
▁ਮਨਜ਼ੂਰ	-11.7641
▁ਰਚਣਹਾਰੇ	-11.7645
▁ਭੰਗੀ	-11.7645
ਾਜ਼	-11.7647
9%	-11.7647
ਸਾਲਾ	-11.7647
▁ਕਾਜ਼ੀ	-11.7649
ੈਂਗ	-11.7651
▁ਵਿਸ਼ਵਨਾਥ	-11.7653
▁93	-11.7654
▁ਦੁਸ਼ਮਣਾਂ	-11.7654
▁ਕੇਸਰੀ	-11.7656
ਪੀਰ	-11.7656
▁ਤੰ	-11.7656
▁ਬਾਬੇ	-11.7658
▁ਸੰਵਿਧਾਨਕ	-11.766
ਲੋਰ	-11.766
▁ਬੱਚਨ	-11.766
▁ਫਰੋਲਣ	-11.7662
▁ਵਿਉਂਤ	-11.7663
ਮਾਰੀ	-11.7663
ਫ਼ਤ	-11.7664
▁ਮਹਾਰਾਜੇ	-11.7667
▁ਕ੍ਰਿਸ਼	-11.7668
▁ਹਿਮ	-11.7668
▁ਆਕਰਸ਼ਕ	-11.7669
▁ਆਗ	-11.7669
▁ਕੰਬੋਜ	-11.7675
ਸਬ	-11.7676
▁ਮਾਜਰਾ	-11.7676
ਪ੍ਰੇ	-11.7677
▁ਚਿੰਨ੍ਹਾਂ	-11.7677
ਬਾਰਾ	-11.7679
ਜਿੰਗ	-11.7679
▁ਉਦਯੋਗਾਂ	-11.768
▁ਪੌਣ	-11.7681
▁ਬਸੀ	-11.7683
▁ਲਿਬਨਾਨ	-11.7684
▁ਭੂਰਾ	-11.7686
▁ਗੇਂਦਬਾਜ਼	-11.7686
γ	-11.7687
ੋਵਿਚ	-11.7689
▁ਸਹਿਜੇ	-11.7689
▁ਗ੍ਰ	-11.769
▁ਸਟੈੱਲ	-11.769
▁ਜਿਓ	-11.7694
ਖ਼ਿਲਾਫ਼ਤ	-11.7696
ਹੱਲਾਂ	-11.7699
ੈਟੀਆ	-11.77
੍ਰਤ	-11.7701
ਕਣਾਂ	-11.7703
ਮੋਹਨ	-11.7707
▁ਸਟੋਰੀ	-11.7709
ੀਸ਼	-11.7711
ਰਸਿਕਾ	-11.7713
▁1893	-11.7713
▁ਬਾਊਂਡ	-11.7713
▁ਆਈਗਨਵੈਕਟਰ	-11.7714
▁ਵੇਨ	-11.7714
1844	-11.7715
}},	-11.7716
▁ਕੈਰ	-11.7718
▁ਅਵਾਜ	-11.7721
▁ਮਾਈਕਰੋ	-11.7721
▁ਸ਼ਾਹਜਹਾਂ	-11.7721
▁ਡਿਜਾਈਨ	-11.7721
▁ਵਿਪਰੀਤ	-11.7721
▁ਪ੍ਰਚੰਡ	-11.7721
▁ਬੰਡਲ	-11.7721
▁ਮਨੋਵਿਸ਼ਲੇਸ਼ਣ	-11.7721
▁ਅਮਲੋਹ	-11.7721
▁ਨਿਸਚਿਤ	-11.7721
▁ਜੈਨੇਟਿਕ	-11.7721
▁ਸਾਧਾਰਣ	-11.7721
▁ਪਾਇਲਟ	-11.7721
▁ਸਾਮਗਰੀ	-11.7721
▁ਪੁਆਧੀ	-11.7721
▁ਥੀਸਿਸ	-11.7721
ਸਟੈਟਿਕ	-11.7722
ਵਾਜ਼	-11.7722
ਅਰਜ਼	-11.7722
▁ਦੁਬਈ	-11.7722
▁ਸ਼ੁਮਾਰ	-11.7723
▁1891	-11.7724
▁ਬਲੱਡ	-11.7724
▁ਬੋਸਟਨ	-11.7724
▁ਸਲਮਾਨ	-11.7724
ਕੇਸ	-11.7726
▁ਬ੍ਰਿਟਨ	-11.7727
▁ਅਕਰੋ	-11.7728
ਲਿਟ	-11.773
▁ਅਦਬ	-11.7732
▁ਮਾਓ	-11.7732
▁ਸੁਪਨਾ	-11.7733
▁ਸਾਹਿਤਕਾਰਾਂ	-11.7735
▁ਵਡਿਆਈ	-11.7736
ey	-11.7737
ਨਾਪ	-11.7739
▁ਕਰਵਡ	-11.774
▁ਅਖਵਾਉਂਦ	-11.774
▁92	-11.7743
ੱਪਾ	-11.7744
ast	-11.7747
ੈਰ	-11.7747
ਟੈ	-11.7747
ka	-11.7748
ਮੁੰਡ	-11.775
▁ਦੁਆਰੇ	-11.775
ਗਏ	-11.775
▁ਖਰੀ	-11.7753
▁ਡਿਊਕ	-11.7753
ਰਦ	-11.7753
▁ਰੇਨ	-11.7754
ਜ਼ਾਈ	-11.7754
▁ਗੁਦਾ	-11.7755
▁ਸਫ਼	-11.7757
▁ਵੈਦ	-11.7757
▁ਮੁੱਕਣ	-11.776
▁ਲੰਘਣਾ	-11.7761
▁ਅਖੰਡ	-11.7762
▁ਡਿੱਗਦੇ	-11.7765
ਰਾਓ	-11.7767
▁ਲਤਾ	-11.7767
▁ਪ੍ਰਾਣੀਆਂ	-11.7772
▁ਵਿਗਿਆਨਾਂ	-11.7772
▁ਜਨਮੇ	-11.7773
▁ਖ਼ੂਬਸੂਰਤ	-11.7775
▁ਟਾਰ	-11.7776
▁ਜਿਉਣ	-11.7781
▁ਸਮਤਾ	-11.7781
▁ਭੋਜ	-11.7781
▁੧੩	-11.7782
▁ਡਾਰ	-11.7784
▁ਵਿਰਲ	-11.7785
ਿੰਨ	-11.7789
▁ਪਾਉਂਦੀਆਂ	-11.7789
▁ਕੁੰਭ	-11.7791
ਵੰਸ਼	-11.7792
▁ਖੂਬਸੂਰਤੀ	-11.7793
ਮੈਟ੍ਰਿਕਸ	-11.7793
▁sz	-11.7795
▁ਯੰਤਰਾਂ	-11.7797
ack	-11.7802
▁ਸ਼ਾਖ	-11.7804
▁ਸੰਨਿਆਸ	-11.7809
▁ਸਿਰਜ	-11.7809
gr	-11.7809
▁ਉਲੇਖ	-11.781
ੈੱਸ	-11.781
▁ਇਮਤਿਹਾਨ	-11.7812
▁ਔਸੀਲੇਟਰ	-11.7812
▁ਆਇਡਾਹੋ	-11.7812
▁ਆਕਾਸ਼ਗੰਗਾਵਾਂ	-11.7812
▁ਝਾਰਖੰਡ	-11.7812
▁ਠੇਠ	-11.7812
▁ਕਾਸਤਰੋ	-11.7813
▁ਬਰਾਊਨ	-11.7813
ਮਰਜੈਂਸੀ	-11.7813
▁ਸੰਚਾਲਕ	-11.7813
▁ਪਰੀਖਿਆ	-11.7813
▁two	-11.7813
▁does	-11.7813
▁ਚੁੰਝ	-11.7813
▁ਪਨੀਰ	-11.7813
▁1879	-11.7815
▁ਐਕਸਿਸ	-11.7816
▁1877	-11.7816
▁1897	-11.7817
ਰਕਮ	-11.7818
▁ਗਰੂਤਾਕਰਸ਼	-11.7818
▁ਹਿਸਾਬਦਾਨ	-11.7818
▁ਵਚਨ	-11.7819
▁ਗ੍ਰੰਥੀ	-11.7819
▁ਫ੍ਰਾਂਸ	-11.782
sime	-11.7822
▁ਮੰਗੋਲੀਆਈ	-11.7823
▁ਹੈਂਡ	-11.7824
ਬਾਤ	-11.7827
▁5000	-11.7829
▁ਰਾਬ	-11.7829
▁ਅਸਰਦਾਰ	-11.783
▁over	-11.7831
ਨਾਟਕ	-11.7833
▁ਫਰਾਂਸਿਸੀ	-11.7834
▁ਮਿਡ	-11.7834
▁ਅਰਥਸ਼ਾਸਤਰੀ	-11.7836
ਤਾਬ	-11.7839
▁ਲੋਡ	-11.784
▁ਚਿੜੀਆਂ	-11.7842
▁ਵਿੰਡ	-11.7844
▁ਤੋੜਿਆ	-11.7844
▁ਯੂਨੀਵਰਸ	-11.7846
▁ਹਦਾਇਤਾਂ	-11.785
▁ਮੋਹਾਲੀ	-11.7851
▁ਕਲਪ	-11.7851
ਟ੍ਰਾ	-11.7852
▁Ba	-11.7854
▁ਸੇਕ	-11.7855
ide	-11.7855
ਪੱਤੀ	-11.7857
ਵਿਚਾਰ	-11.7858
ਭਗ	-11.7858
▁ਥਾਨ	-11.786
▁ਚੌਲ	-11.7862
▁ਜਬਰ	-11.7862
▁ਸਟੇਜੀ	-11.7864
▁ਨੀਵਾਂ	-11.7866
▁ਸ਼ਿਆਮ	-11.7867
▁ਮਲਿਕਾ	-11.7867
▁ਅਫ਼ਗ਼ਾਨੀ	-11.7868
gi	-11.7869
ਢੀ	-11.787
▁ਜ਼ਮੀਨਾਂ	-11.7873
▁ਦੁਆ	-11.7874
▁ਇਕਾਇਯ	-11.7878
▁ਬਲੋਚ	-11.788
▁ਖਾਨਾ	-11.7881
▁ਲਾਲਚ	-11.7881
क्	-11.7883
ਿਅਸ	-11.7884
▁ਜਾਇ	-11.7892
ਲਾਇਜ਼ੇਸ਼ਨ	-11.7894
7%	-11.7894
gu	-11.7894
ਸਬੰਧਤ	-11.7895
▁ਸੰਬਧ	-11.7897
▁ਹੀਗਲ	-11.7899
▁ਚਰਮ	-11.7899
ਮਿੰਗ	-11.7903
▁common	-11.7905
▁ਤੇਲੰਗਾਨਾ	-11.7905
▁ਨੱਕਾਸ਼ੀ	-11.7905
▁ਵਾਇਓਮਿੰਗ	-11.7905
▁ਹੈਂਪਸ਼ਰ	-11.7905
▁ਇਰਰਿਡਿਊਸ	-11.7905
ਔਡਿਕ	-11.7905
▁ਕਿੰਟਕੀ	-11.7905
▁ਖਲਨਾਇਕ	-11.7905
▁ਯੂਏਈ	-11.7905
▁ਇੱਫੈਕਟ	-11.7905
▁ਰੌਇਲ	-11.7905
▁ਅਨਪੜ੍ਹ	-11.7905
▁ਨਿਰਣਾਇਕ	-11.7906
▁ਗੜ੍ਹੀ	-11.7906
▁ਰੰ	-11.7907
ਖਿਸਕਾਅ	-11.7909
▁ਹੈਲਥ	-11.791
▁ਨਰਸਿੰਗ	-11.791
▁ਜਾਗਰੂਕਤਾ	-11.791
▁ਰੇਖ	-11.7912
ੱਟੀ	-11.7913
▁ਕਰਵਾਉਣਾ	-11.7915
▁ਚੇਲਾ	-11.7915
ੈਲਿਟੀ	-11.7916
▁ਸਰਾਂ	-11.7918
▁ਲਿਆਂਦੇ	-11.7918
▁space	-11.7919
▁ਬਿਜਲ	-11.792
▁ut	-11.7923
▁ਪਿੱ	-11.7926
▁ਦੱਬ	-11.7927
▁ਟਵ	-11.7931
▁ਮਸੀਹੀ	-11.7933
▁ਪਾਰੀ	-11.7934
out	-11.7937
▁ਟੈਕ	-11.7938
▁ਸਾਖੀਆਂ	-11.7938
ਇਤ	-11.7939
▁ਬੁਝ	-11.7939
▁ਲਿਆਂਦੀ	-11.794
▁ਛਡ	-11.7942
▁ਤਪਤ	-11.7948
▁ਟਕਾ	-11.7948
▁ਯੂਕਰੇਨੀ	-11.7948
▁੧੯੪	-11.7948
ਫ੍ਰ	-11.7949
▁ਰਣਨੀਤੀ	-11.795
▁ਗੁਰਦਿੱਤ	-11.7951
▁diff	-11.7952
▁γμ	-11.7954
ਪਲਟ	-11.7956
ਿਨਾ	-11.796
ਕੌਮੀ	-11.796
ਧਾਰੀਕਰਨ	-11.796
▁ਗਿਰਫਤਾਰ	-11.7961
▁ਡਿਟੈਕਟਰ	-11.7962
▁ਲਾਂਗ	-11.7963
▁ਮੁਰਾਦ	-11.7963
ੇਸ਼ਨਲ	-11.7965
▁ਰਜ਼ਾ	-11.7965
▁ਟੋਲੀ	-11.7967
ਮਨੁੱਖੀ	-11.7968
▁ੲਿੱਥ	-11.7972
▁ਪ੍ਰਦਰਸ਼ਨੀ	-11.7978
▁ਸ਼ੇਕ	-11.7978
ਵਾਣ	-11.7979
ਫੁੱਲ	-11.7981
▁ਅਭਿਵਿਅਕਤੀ	-11.7981
ਗਰਾਊਂਡ	-11.7983
ੈਂਜ	-11.7985
ਵਰਦੀ	-11.7988
▁ਦੁਕਾਨਾਂ	-11.799
▁ਮਾਹ	-11.7991
ਹਵਾਲੇ	-11.7991
▁ਲਿਪ	-11.7993
ੱਫ	-11.7995
▁ਵੇਰ	-11.7996
ਟੇਲ	-11.7998
▁include	-11.7999
▁ਡਵੀਜ਼ਨ	-11.7999
▁ਯੂਨੇਸਕੋ	-11.7999
▁ਤਜਰਬਾ	-11.7999
▁ਸੁੰਗੇੜ	-11.7999
▁में	-11.7999
▁ਟੁਕੜਾ	-11.7999
▁ਫਿਲਹਾਲ	-11.7999
▁ਡਾਈਪੋਲ	-11.7999
▁ਅਠਾਰਵੀਂ	-11.7999
▁ਪੋਰਟਰੇਟ	-11.8
ਹਾਰਡ	-11.8
▁ਗੁਫ਼ਾ	-11.8
▁ਅਦਾਇਗੀ	-11.8
▁ਭੰਗੜਾ	-11.8
▁ਸਮਸਿਆਵਾਂ	-11.8
ਪਾਦ	-11.8
▁ਕਲੈਬ	-11.8
▁ਵੈੱਲ	-11.8001
▁ਨਈਂ	-11.8001
▁1883	-11.8002
ਥਲੀ	-11.8002
▁ਧਰਮਸ਼ਾਲਾ	-11.8002
▁ਸਿਮਰਤੀ	-11.8002
ਦਿਸ਼ਾ	-11.8004
▁ਆਣ	-11.8004
▁1851	-11.8004
▁ਝਗੜਾ	-11.8005
▁ਇਲੈਕਟ੍ਰਾਨਿਕ	-11.8005
ੇਸੀ	-11.8008
gov	-11.8009
▁ਮੈਂਬਰੀ	-11.8011
ੋਜ	-11.8011
▁ਤਰਫ਼	-11.8014
▁ਸਿਖਾਉਣ	-11.8016
▁ਨਮ	-11.8017
ਬੀਨ	-11.8018
▁ਕਿਰਦਾਰਾਂ	-11.8019
▁ਮੈਗ	-11.8023
700	-11.8023
▁ਲੰਮਾਈ	-11.8026
▁ਸਿਰਾ	-11.8026
lk	-11.8028
▁ਲਿਨ	-11.8029
ੂਮ	-11.803
▁ਸ਼ੀਸ਼ੇ	-11.8031
ਗੁੱ	-11.8033
▁ਗ੍ਰੈ	-11.8035
▁ਕਮਰਾ	-11.8037
▁ਮਿਨ	-11.8037
▁ਉਤਰਦਾ	-11.8037
▁ਟੀਕੇ	-11.8038
ਵਾੜ	-11.8038
▁ਤਰਜ਼	-11.804
▁੧੯੮	-11.8041
ੋਵਾ	-11.8044
▁ਬੰਦੂਕਾਂ	-11.8046
▁ਟਰੈਕਟਰ	-11.8047
▁ਡਾਨ	-11.8047
▁ਬੰਦੂਕ	-11.8049
▁ਡੈਲ	-11.805
▁ਨਿਭਾਈਆਂ	-11.8053
▁ਮਨਾਉਂਦ	-11.8053
ਡ਼ਾ	-11.8053
ਸ਼ੀਲਤਾ	-11.8056
▁ਆਲਮੀ	-11.8058
go	-11.806
▁ਜੂਲ	-11.8061
ੈਂਡਰ	-11.8062
ਧਾਰਨਾ	-11.8063
▁ਸ੍ਵਰ	-11.8063
▁ਸਤਾਲਿਨ	-11.8066
▁ਮਸ਼ਹੂਰੀ	-11.8066
ਪੀਸੋ	-11.8067
▁ਇੱਟ	-11.8067
ਥਾਂ	-11.8067
ਵੇਟ	-11.8068
▁ਗਿਰਦ	-11.8069
▁ਗੱਡੀਆਂ	-11.8072
▁ਪਿਤਾਮਾ	-11.8072
▁ਮਹਾਂਦੀਪਾਂ	-11.8073
▁ਪਰਵਰਤ	-11.8076
ਸਾਰੀ	-11.8078
▁word	-11.8078
▁ਮੁਲਾਜ਼ਮ	-11.8078
▁ਰਾਈ	-11.8082
▁97	-11.8083
▁Br	-11.8084
▁ਜਨਰੇਟਰਾਂ	-11.809
▁ਟ੍ਰਿਬਿਊਨ	-11.8093
▁1884	-11.8093
▁ਅਲਵਿਦਾ	-11.8093
▁ਨਾਈਟ੍ਰੋਜਨ	-11.8093
▁ਬਾਗਬਾਨੀ	-11.8093
▁following	-11.8094
ਮਿਸ਼ੀਅਨ	-11.8094
▁ਗੌਟਿੰਗ	-11.8095
▁ਵਰਕ	-11.8095
▁1899	-11.8096
ਖਣ	-11.8096
▁ਰੀਝ	-11.8097
▁words	-11.8098
▁we	-11.8099
▁ਕਹਾ	-11.8099
▁846	-11.8099
▁1845	-11.81
▁ਪਟੜੀ	-11.81
▁ਕਰਿ	-11.81
▁ਸ਼ੈਅ	-11.8101
▁ਦਸਤਾਵੇਜ਼ਾਂ	-11.8101
▁ਸੁਰੰਗ	-11.8101
ਿੰਕ	-11.8103
▁articles	-11.8106
▁ਗਰਦਨ	-11.8107
ਵਾਡਾ	-11.8109
▁ਆੲੀ	-11.8109
▁ਬੱਚ	-11.8111
ਕਾਨਾ	-11.8111
▁ਪੂਨੇ	-11.8112
ric	-11.8113
▁ਅਰਨੈਸਟ	-11.8118
ਮੱਤ	-11.8119
▁ਪੋਥੀ	-11.8121
▁ਦੇਣਗੇ	-11.8122
▁ਪਾਨ	-11.8122
▁ਜਾਪਦੀ	-11.8123
▁ਨਿਕਲੇ	-11.8124
▁ਆਰੰਭਕ	-11.8124
▁ਪਿੰਜਰ	-11.8124
▁ਕੈਥਰੀਨ	-11.8125
ਫ੍ਰੈਂਸ	-11.8129
▁ਮਾਨਵਤਾ	-11.8129
▁ਮੈਟਾ	-11.813
▁ਇੰਡੀ	-11.8133
▁ਜੀਤ	-11.8136
▁ਮੌਜ	-11.8138
▁ਪੰਜਾਬੀਅਤ	-11.8138
▁ਬੋਲਦਾ	-11.8139
▁ਪਿਉ	-11.8144
00,000	-11.8144
ਲਹਿਣਾ	-11.8145
▁ਕੋਕ	-11.8145
▁ਡਬਲਯੂ	-11.8146
▁ਉਸਮਾਨ	-11.8153
▁ਉੱਘਾ	-11.8155
▁ਸ਼ੈਲੀਆਂ	-11.8156
▁ਪੈਦਾਵਰ	-11.8157
ਵਸਤੂ	-11.8157
▁ਵਿਆਂ	-11.816
▁ਰਾਸ਼ਟਰਵਾਦ	-11.8161
ਜਾਈ	-11.8161
▁ਝੁਕੀ	-11.8164
▁ਸੰਪਾਦਕੀ	-11.817
tra	-11.817
▁ਘੋ	-11.8172
▁ਟੈਲੀ	-11.8176
ਸੱਭਿਆਚਾਰ	-11.8176
▁ਪੜ੍ਹਨਾ	-11.8176
ਪ੍ਰਾਪਤ	-11.8176
ਸੰਤੁਲਨ	-11.8177
▁ਗਦਰ	-11.8179
▁ਮੂਰਤ	-11.818
▁ਤਿਲ	-11.8181
ਸੁਪਰ	-11.8184
ੌਮ	-11.8184
ਬਟ	-11.8185
▁ਢਿੱਲ	-11.8186
ੇਵਾਲ	-11.8187
▁ਤਿਨ	-11.8188
▁ਅਦੁੱਤੀ	-11.8188
▁ਚੈਖਵ	-11.8188
▁ਦਿਹਾਤੀ	-11.8188
▁ਓੜਕ	-11.8188
▁ਮਕਬਰੇ	-11.8188
▁ਜਿਨ੍ਹੇ	-11.8189
▁ਭਾਵਨਾਤਮਕ	-11.8189
▁ਕਾਰੀਗਰ	-11.819
▁ਦਿਤੇ	-11.8191
▁only	-11.8191
▁1837	-11.8193
less	-11.8193
▁La	-11.8194
▁ਮਸ਼ੀਨੀ	-11.8194
▁CP	-11.8196
▁ਹਾਉਸ	-11.8196
▁ਓਨੀ	-11.8198
▁ਕੋਕੋਸ	-11.8199
ਯੈੱਨ	-11.8199
▁ਅਟਕ	-11.82
▁ਸਿੰਘਾਪੁਰ	-11.8202
▁ਪੁਕਾਰਦੇ	-11.8202
▁dr	-11.8206
▁ਫ਼ਿਲਪੀਨਜ਼	-11.8206
▁ਰੈਡੀ	-11.8209
ਸਟਿੱਕ	-11.821
▁ਮੁੱਦਾ	-11.821
▁ਅੱਬਾਸ	-11.8212
▁ਰੁਖ	-11.8213
▁ਮਧੂ	-11.8213
▁ਸੁਕਰਾਤ	-11.8213
▁ਪਾੜ	-11.8215
▁ਜੋੜਾਂ	-11.8216
ਟੋਰ	-11.8217
▁ਗੱਦ	-11.8217
▁ਚਕ	-11.8217
“	-11.8219
ਰੀਨ	-11.8222
ton	-11.8224
ਸੇਂਟ	-11.8225
▁ਲਿਬਨਾਨੀ	-11.8227
▁Be	-11.8229
▁ਗਲਤੀਆਂ	-11.8233
ਰਿਸ਼	-11.8235
:15	-11.8235
▁ਕਰਨੀਆਂ	-11.8235
▁ਦੈ	-11.8236
ਰਮਾ	-11.8236
tt	-11.8237
ਉਸਦੇ	-11.8238
ਉਂਦੀ	-11.8238
▁ਉਪਨਗਰ	-11.8249
ਸੁਖ	-11.8249
▁ਨੈਲ	-11.8251
▁ਇਰ	-11.8252
▁ਮੇਵਾੜ	-11.8255
▁ਜੜੀ	-11.8257
▁ਦਾਸਤੋਵਸਕੀ	-11.826
▁ਬੇਸ਼ਕ	-11.8263
ਸਮਰੂਪ	-11.8265
ਇਸ਼	-11.8267
ਹਾਟ	-11.8267
ਹਾਰੀ	-11.8268
▁ਨਿਯੰਤ੍ਰ	-11.8271
ਪੁਰਾਣ	-11.8271
▁ਪੇਂਟ	-11.8273
ਗਲੂਔਨ	-11.8274
ਹੀਰ	-11.8277
ਬੈਂਗ	-11.8278
▁ਜਾਗੀਰ	-11.828
ਸਰੋਤ	-11.8281
ਬਦ	-11.8282
▁ਮੋਹਰ	-11.8282
ਡਿਨ	-11.8283
▁ਗਾਰਡ	-11.8283
▁ਫਰਜ਼	-11.8283
▁ਦਵਾਰ	-11.8283
▁form	-11.8284
▁ਇਸਲਾਮਿਕ	-11.8284
▁ਗਲਤਫਹਿਮੀ	-11.8284
▁ਗੁਰਦੁਆਰਿਆਂ	-11.8284
▁ਕੈਮਬ੍ਰਿਜ	-11.8284
▁ਨੁਮਾਇਸ਼	-11.8284
▁ਇੰਟਰੈਕਸ਼ਨ	-11.8284
▁ਤ੍ਰਿਭੁਜ	-11.8284
ਗਾਇਬ	-11.8284
▁ਪਿੱਠਭੂਮੀ	-11.8285
▁ਸਮੋਲਿਨ	-11.8285
▁ਅਟਲਾਂਟਿ	-11.8285
▁ਹਿੰਮਤ	-11.8285
▁ਅਹੁਦਿਆਂ	-11.8285
▁ਨੇੜਤਾ	-11.8285
▁ਸ਼ੌਕੀਨ	-11.8286
▁ਮਸੀਤ	-11.8287
▁ਅਗਿਆਨਤਾ	-11.8287
▁ਸ਼ੱਕੀ	-11.8288
▁ਤੁਗਰ	-11.8288
▁ਬਲਬੀਰ	-11.829
ਫਾਰਮ	-11.8292
ਪਰਾ	-11.8294
▁(4	-11.8296
▁160	-11.8296
▁000	-11.8297
▁ਅਸਿੰਪਟੋਟਿਕ	-11.83
▁ਕੱਢਣਾ	-11.8302
▁ਛੱਪੜ	-11.8302
ੀਨਜ਼	-11.8303
▁o	-11.8304
ਹੈਂਡ	-11.8305
▁ਹੇਲ	-11.8306
ਕੋਣ	-11.8307
▁ਪਹ	-11.8307
▁ਨਲਵਾ	-11.8307
ਇਵ	-11.8311
▁ਮੈਸ	-11.8313
ਜ਼ੋਲ	-11.8313
ਇਡ	-11.8314
▁Le	-11.8314
▁ਲੋੜੀਂਦਾ	-11.8315
▁ਓਵੇਂ	-11.8317
ਰੀਏ	-11.8317
ਮੂਲੀ	-11.832
▁ਬੀਮਾਰੀਆਂ	-11.8321
▁ਖੇਡਣਾ	-11.8326
▁ਠੰਢਾ	-11.8332
▁ਦਰੱਖਤ	-11.8334
7,000	-11.8334
ਵਿੰ	-11.8335
▁ਜੱਥੇਬੰਦੀ	-11.8336
▁ਕ੍ਰਿ	-11.8337
▁ਛੇੜ	-11.8338
▁ਮੰ	-11.8339
ਿੰਡ	-11.834
ਪਾਟ	-11.8342
▁ਕਿੱਲੋਮੀਟਰ	-11.8342
▁ਨਿਰਧਾਰ	-11.8343
▁ਫਰਮੀ	-11.8343
▁ਸ਼ਾਗਿਰਦ	-11.8344
▁ਪਲਸਰ	-11.8349
▁ਸੋਧਣ	-11.835
▁ਸਾਖਾ	-11.8354
ਪੇਸ਼	-11.8356
▁ਅਖਾੜ	-11.8358
▁ਦੇਸਾਈ	-11.8362
▁ਕਰੀਬੀ	-11.8362
▁ਨਕਦ	-11.8362
▁view	-11.8364
ੈਸ਼	-11.8366
ੈਕਟ	-11.837
▁ਕਰੰਟਾਂ	-11.8371
▁ਲਿਜਾਣ	-11.8373
ਭੂਗੋਲ	-11.8373
▁ਕਲਮੀ	-11.8374
▁ਅੰਦਾਜ਼ਨ	-11.8374
▁ਪਰੇਸ਼ਾਨ	-11.8374
ਟੋਪ	-11.8376
▁ਡਿਊ	-11.8378
▁ਰੋਗੀ	-11.8379
▁ਇੱਜ਼ਤ	-11.8381
▁ਦੌਡ਼ਾਂ	-11.8381
▁ਪ੍ਰਾਰਥਨਾ	-11.8381
▁ਚੇਨੱਈ	-11.8381
▁ਅਧੂਰੀ	-11.8381
▁ਨਿਰਯਾਤ	-11.8382
▁ਰਾਂਹੀ	-11.8382
▁ਔਲਖ	-11.8382
▁ਦਰਖ਼ਤ	-11.8383
▁ਬਲੇਅਰ	-11.8383
vi	-11.8383
▁1881	-11.8384
▁titles	-11.8385
ਫੇਰ	-11.8385
ਨਾਲ਼	-11.8385
wiki	-11.8386
▁ਘੱਗਰ	-11.8386
▁1875	-11.8387
ੇਅਰ	-11.8387
▁ਕੁੱਤਾ	-11.8388
ਪਲੇ	-11.8389
▁ਨੈਣ	-11.8389
▁ਸ਼ਾਹਕੋਟ	-11.839
▁ਸਚਾਈ	-11.839
▁ਕੋਟਲਾ	-11.839
ਡੌ	-11.8391
▁ਪਾਸਿਓ	-11.8395
.5%	-11.8395
▁ਵੇਚਿਆ	-11.8395
▁ਕੁੱਖ	-11.8396
▁ਮਹਾਦੀਪ	-11.8396
ਤਿੰਦਰ	-11.8399
ਵਾਇ	-11.8399
▁ਐਂਜਲਸ	-11.8401
▁ਵਹਿੰਦ	-11.8401
▁ਮਿਲਾਕੇ	-11.8401
▁ਵਿਨਸੈਂ	-11.8402
▁ਐਕਟਿੰਗ	-11.8404
▁ਕਾਨ੍ਹ	-11.8407
ਜੀਨ	-11.8407
so	-11.841
▁ਸ਼ਹੀਦਾਂ	-11.841
erfl	-11.8413
▁ਚੁਕ	-11.8413
▁ਕੁਆਰਟਰ	-11.8413
▁ਸਕਲ	-11.8414
▁7,	-11.842
▁ਦਾਦੀ	-11.8421
RM	-11.8421
▁ਭਾਈਵਾਲ	-11.8425
ੰਥ	-11.8426
▁ਗਾਈ	-11.8429
▁ਬਰਾਤ	-11.843
ਡੋਕ	-11.8433
ਰੋਹੀ	-11.8437
ਵੇਅਰ	-11.8437
▁ਤੇਜਾ	-11.8438
za	-11.8438
ਅੰਦਾਜ਼	-11.8441
▁ਸੱਭ	-11.8441
▁ਰਿਹਾਈ	-11.8443
ਜਾਰ	-11.8444
▁ਵਲੀ	-11.8448
▁ਜਿਲਦ	-11.8448
ਪੱਤ	-11.8451
▁ਕਿਰਤੀ	-11.8453
▁ਡਿਗ	-11.8453
▁ਸ਼ਤ	-11.8454
mp	-11.8458
▁ਰੋਗਾਣੂ	-11.8459
▁ਪੁਜਾਰੀ	-11.8459
▁ਅਗਨੀ	-11.846
ਲੌ	-11.8461
}=	-11.8461
▁ਬਿਮਾਰ	-11.8461
▁ਕਮਾਂਡ	-11.8465
4%	-11.8468
▁ਨੌਰਮਲ	-11.8472
▁ਉਪਰਾਲ	-11.8474
ਂਚ	-11.8475
ਪੱਧਰ	-11.8477
▁ਕੱਟੜ	-11.8478
▁ਕਿੱਲੋ	-11.8479
▁AdS	-11.8479
▁ਇੰਦੌਰ	-11.8479
▁ਦਿਰਹਾਮ	-11.8479
▁ਸਰਵਪ੍ਰਥਮ	-11.8479
▁ਵਿਭਾਜਨ	-11.8479
▁ਵਾਰਵਾਰਤਾ	-11.848
▁ਘੁਲਮਿਲ	-11.848
▁ਰਸ਼ੀਦ	-11.848
▁ਫਾਲਤੂ	-11.8481
▁ਪੁਟੈਸ਼ਲ	-11.8481
▁ਛੁਟਕਾਰਾ	-11.8481
▁ਆਤਮਨਿਰਭਰ	-11.8481
▁ਰਾਮਚੰਦਰ	-11.8482
▁ਕਾਨਪੁਰ	-11.8484
ach	-11.8485
▁ਤੋੜੇ	-11.8486
▁ਲਿਹਾਜ਼	-11.8488
▁ਢੋ	-11.8488
.........	-11.8489
▁ਬਿਸ਼ਨ	-11.8493
▁ਵੱਸਿਆ	-11.8493
ਜੈਕਟ	-11.8494
▁ਸੌਂਪੀ	-11.8495
ਅਜ	-11.8497
▁ਸ਼ਿਲਪ	-11.8498
▁ਉਤਸਾਹ	-11.8499
▁ਸੰਪਰਕਾਂ	-11.8499
▁ਜ਼ੁ	-11.85
ip	-11.8503
▁ਕੈਮਿਸਟਰੀ	-11.8507
▁101	-11.8508
▁ਅਧਿ	-11.851
ਰੋਹ	-11.8521
ਥੁ	-11.8522
▁ਮਹਲਾ	-11.8522
▁ਇਜ਼	-11.8525
▁ਫਰੈਂਕ	-11.8528
▁ਮਤਲ	-11.8528
▁ਤਾੰ	-11.8531
ਸਤੀਨ	-11.8532
▁ਫ਼ੈ	-11.8533
▁ਗ਼ਜ਼ਲਾਂ	-11.8533
▁su	-11.8535
ਬੇਲ	-11.8536
ਿਜਮ	-11.8537
name	-11.8538
▁ਬੁਲ	-11.854
ਕੁਆ	-11.8542
▁ਦੁਆਰ	-11.8551
ਜਲੀ	-11.8552
ਇੱਸ	-11.8554
▁ਜਜ਼ਬ	-11.8555
▁ਫੈਲਾਉਣ	-11.8559
▁ਕਾਨੂੰਨਾਂ	-11.8559
ਯੋਗਤਾ	-11.856
▁ਸੈਨੇਟ	-11.8565
ਬਤੀ	-11.8565
੍ਮ	-11.8566
ਪਲੀ	-11.8566
▁ਮਨਜ਼ੂਰੀ	-11.8567
▁ਵਾਕਿਆ	-11.8569
▁ਪਹਿਰ	-11.8571
▁ਤਰ੍ਹਾ	-11.8572
ੇਂਸ	-11.8573
ਪੈਮਾਨੇ	-11.8574
▁ਤਿੰਨੋਂ	-11.8575
ਸੱਤਾ	-11.8575
cy	-11.8577
▁ਕਰੋਨ	-11.8577
▁ਅਲਕਨੰਦਾ	-11.8578
▁ਇੰਤਜ਼ਾਮ	-11.8578
▁ਬਿਜ਼ਨਸ	-11.8578
▁ਤਹਿਰੀਕ	-11.8578
▁ਪ੍ਰੀਤਲੜੀ	-11.8579
▁ਆਫ਼ਿਸ	-11.8579
▁ਹਿਸਟਰੀ	-11.8579
▁ਮੰਦ	-11.8579
▁ਸਟੈੱਪ	-11.8579
▁ਵੁਮੈਨ	-11.8579
▁ਜੋਧਪੁਰ	-11.858
▁ਰਵਿੰਦਰ	-11.8581
▁ਸਿੱਖਿਅਕ	-11.8582
▁ਆਡੀਓ	-11.8582
▁ਸਾਮੀ	-11.8582
▁ਆਦੀ	-11.8582
▁ਬਲੇਡ	-11.8582
ਹਿੰਦੂ	-11.8582
▁ਤੁਸੀ	-11.8583
▁ਪ੍ਰਤੀਕਰਮ	-11.8583
▁ਬਾਰੀਕੀ	-11.8583
▁ਪ੍ਰਾਂਤਾਂ	-11.8583
ssig	-11.8583
▁ਬੇਅੰਤ	-11.8584
▁ਆਪੇ	-11.8584
▁ਬ੍ਰਹਮੀ	-11.8585
ਲੰਬ	-11.8586
▁ਬਿੰਦੀ	-11.8586
▁ਤਮਗ	-11.8587
▁ਲੈਫਟ	-11.8588
ਰੀਓ	-11.8589
ਪ੍ਰਯੋਗ	-11.8589
▁ਬਾਂਹ	-11.859
▁ਬੇਲਾਰੂਸ	-11.859
▁ਪਾਰਕਰ	-11.8594
▁ਖਲੋ	-11.8596
▁ਬੁਲਾਰੇ	-11.8597
▁ਟਕਸਾਲੀ	-11.8597
▁ਬਟਨ	-11.86
▁ਮਿਕਸ	-11.8601
▁ਉੱਚਾਰਨ	-11.8601
ਆਧੁਨਿਕਤਾ	-11.8604
▁ਸਾਮਰਾਜਵਾਦ	-11.8607
▁ਉਕਤ	-11.8607
▁ਪਹਿਨੇ	-11.861
▁ਪੈਂਦੀਆਂ	-11.8613
▁ਸਾਹਿਬਾਂ	-11.8614
▁ਵੇਖਦਾ	-11.8616
▁ਧੱਕੇ	-11.8621
▁ਸੂਟ	-11.8622
▁ਐਲੀ	-11.8623
▁ਭਰਜਾਈ	-11.8624
▁ਦਾਣੇ	-11.8626
▁ਆਵਾਜ਼ਾਂ	-11.8628
▁ਦੁੱ	-11.8629
▁ਮਰਦਾ	-11.8632
▁ਇੰਕਾ	-11.8633
▁ਗਣਿਤਕ	-11.8635
ਇਸੇ	-11.8637
▁up	-11.8638
੍ਰਿ	-11.8645
▁ਗਰਲ	-11.8646
▁ਕੈਂ	-11.865
▁ਧੀਰ	-11.8652
▁ਕਿਉ	-11.8653
ਸੱਤ	-11.8653
▁ਝੁ	-11.8654
▁ਚੋਰ	-11.8654
ਗੋਨ	-11.8655
▁ਚੁੰਬਕਤਾ	-11.8655
▁Austria	-11.8656
▁ਸੋਚਦਾ	-11.8657
▁ਮੈਡ	-11.8658
▁ਰਿਸ਼ਤੇਦਾਰਾਂ	-11.8662
▁ਰਹ	-11.8665
▁ਪੱਟ	-11.8665
ish	-11.8669
▁ਕਰਨੈਲ	-11.8669
▁ਦੁਆਬ	-11.8669
▁ਜਾਦੀ	-11.867
▁ਦਸਤ	-11.8671
▁ਈਕੋ	-11.8671
▁ਨਿਰੀਖਣਯੋਗ	-11.8672
pt	-11.8673
▁ਮਿਊਨਿਖ	-11.8674
▁ਕੂਚ	-11.8674
ਸਾਈਡ	-11.8675
▁ਭੱਜਣ	-11.8675
▁ਨਾਇਕਾ	-11.8676
▁ਸਿੱਖਿਆਵਾਂ	-11.8677
▁ਅੰਤ੍ਰਾਲ	-11.8678
▁ਇਬਰਾਨੀ	-11.8678
▁ਕੈਮਰੂਨ	-11.8678
▁ਖੱਬਾ	-11.8678
▁ਗ਼ਾਲਿਬ	-11.8678
▁ਢਾਂਚਿਆਂ	-11.8678
▁ਨਛੱਤਰ	-11.8678
▁ਸ਼ਤਰੰਜ	-11.8678
▁ਸ਼ਿਕਾਇਤ	-11.8678
▁ਸੰਜੋਗ	-11.8678
▁ਟੈਲੀਵਿਜਨ	-11.8678
▁ਬਾਇਲੀਨੀਅਰ	-11.8679
▁ਐਨੀਮੇਸ਼ਨ	-11.868
▁most	-11.868
▁ਰੋਨਾਲਡੋ	-11.868
ical	-11.8681
▁ਨਿੰਮ	-11.8682
▁ਕੁਲਦੀਪ	-11.8682
ਸਪੌਂਡ	-11.8682
▁895	-11.8683
▁ਆਗਾਜ਼	-11.8684
▁ਸੰਪ੍ਰਦਾਏ	-11.8685
▁ਟ੍ਰੇਨਿੰਗ	-11.8685
▁2-10	-11.8686
▁ਇਜ਼ਰਾਇਲ	-11.8687
ਵਿਜ	-11.8688
▁ਜੋਤਿਸ਼	-11.8688
▁ਯੁਵਾ	-11.8688
▁ਤੇਜ਼ਾਬ	-11.8689
▁ਖਿਲ	-11.8692
land	-11.8694
▁ਖ਼ਤਰ	-11.8695
▁ਤ੍ਰਾਸਦੀ	-11.8697
ਘਾਟ	-11.8697
▁3-3	-11.8699
▁ਵਿਗਿਅਾਨ	-11.8703
▁ਕਲਾਕਾਰੀ	-11.8703
▁ਤਿਹਾਈ	-11.8705
che	-11.8706
▁ਨਿਸ਼	-11.8707
▁ਥਿੰਦ	-11.8709
▁ਉਨ੍ਹੀ	-11.871
6,000	-11.8712
▁ਕੈਰੀ	-11.8712
ਏਕ	-11.8714
▁ਸੌਖਾ	-11.8716
ਿਯਾ	-11.8717
▁26.	-11.8717
ਕਸ਼ਾ	-11.872
▁ਚਮਕੌਰ	-11.872
▁ਡੋਲ	-11.8721
▁ਗੁੰਮ	-11.8722
ਵਾਂਗੇ	-11.8723
ਸੰਗੀਤ	-11.8726
ਬਜ਼	-11.8727
ਲਾਸ	-11.873
▁ਦੋਙ	-11.873
ਛੁ	-11.8731
▁ਗਲੇਸ਼ੀਅਰ	-11.8732
▁ਡਿਟ੍ਰ	-11.8735
ਨਾਇਕ	-11.8738
ੰਨੀ	-11.8739
ਬਿਆ	-11.8741
ਮਾਤ	-11.8742
▁ਜਾਰਡਨੀ	-11.8742
▁language	-11.8743
▁ਨਿਭਾਏ	-11.8743
ki	-11.8746
ੋਰਡ	-11.8752
hu	-11.8758
▁ਲਗਦੀਆਂ	-11.8759
ਰਿਚ	-11.8761
ਰੁਲ	-11.8762
ਸ਼ਿਕ	-11.877
▁ਕਿਪ	-11.8773
▁ਅਖਾਣਾਂ	-11.8775
ਟੈਂਟ	-11.8775
▁ਪਰਲ	-11.8776
ay	-11.8777
▁ਪਤ	-11.8778
▁defined	-11.8779
▁ਆਹਲੂਵਾਲੀਆ	-11.8779
▁ਕਲਕੱਤੇ	-11.8779
▁ਕੈਬਨਿਟ	-11.8779
▁ਜੇਹਲਮ	-11.8779
▁ਰਾਸਾਇਣ	-11.8779
▁ਰੁਤਬੇ	-11.8779
▁ਅਲਟ੍ਰਾਵਾਇਲਟ	-11.8779
▁ਟਰੱਕ	-11.878
▁ਜਨਰਲਾਇਜ਼ੇਸ਼ਨ	-11.878
▁ਤਜਵੀਜ਼	-11.878
▁ਸਿਰਮੌਰ	-11.878
▁ਲੈੱਟਿਸ	-11.878
aligned	-11.878
▁ਸ਼ੂਗਰ	-11.878
▁ਸ਼ੋਭਾ	-11.8781
▁ਭੇਂਟ	-11.8781
▁ਯੱਗ	-11.8781
▁ਝੁਕਾਅ	-11.8782
▁ਤੰਤੂ	-11.8782
▁ਵਿੰਡੋਜ਼	-11.8783
▁ਖੱਤਰੀ	-11.8783
▁ਘੋੜਿਆਂ	-11.8784
▁1873	-11.8784
▁ਸਿਲਵਰ	-11.8786
▁ਪੀਐਚਡੀ	-11.8786
ਮੈਨੂੰ	-11.8787
▁ਗਰਲਜ਼	-11.8787
▁ਖਿੜ	-11.8794
▁ਸਪਤ	-11.8795
ਗ੍ਰਾਮ	-11.8796
ਥਾਨ	-11.8796
▁ਠੰਢੇ	-11.8797
▁ਲੌਕ	-11.8799
▁ਸਕੇਗੀ	-11.8799
▁ਸਟਾਰਟ	-11.8801
▁ਜ਼ਮਾਨਾ	-11.8802
ਨਿਕਸ	-11.8805
▁ਲਾਇ	-11.8806
▁ਨਿਤ	-11.8807
▁ਮਿਖਾਇਲ	-11.8808
▁ਲੈਸ	-11.8808
ਪੇਟ	-11.8809
▁ਮੱ	-11.8809
ਆਨਾ	-11.8811
▁ਗੁਜ਼ਰਦ	-11.8814
und	-11.8814
▁ਟੌ	-11.8814
▁ਉਤ੍ਰਾ	-11.8818
ਐਕਸ	-11.8819
ਕਾਂਤ	-11.8819
ਐੱਮ	-11.8823
tic	-11.8826
▁ਬਜ	-11.8829
▁ਰੰਗਾ	-11.8837
ਿੱਲ	-11.8839
▁ਲੰਘਦੀ	-11.884
3,000	-11.8842
ana	-11.8843
ਨਮ	-11.8846
▁ਰਾਜ਼ੀ	-11.8847
▁2.5	-11.8849
▁ਸੰਪੂਰਣਤਾ	-11.8849
▁ਲੰਗ	-11.8849
ਹਿਤ	-11.885
▁ਐਸ਼ਮੋ	-11.8856
ਲੜੀ	-11.8863
▁ਛਪੀਆਂ	-11.8865
▁ਦੀਵਾਨਾ	-11.8865
ਰੱਖਿਆ	-11.8872
▁ਦਿਖ	-11.8872
▁ਰੁਕੇ	-11.8873
੍ਲ	-11.8877
▁about	-11.8881
▁ਜ਼ਾਮੇਨਹੋਫ	-11.8881
▁ਦਿਹਾੜਾ	-11.8881
▁ਧੂਮਕੇਤੂ	-11.8881
▁ਪੁਰਾਤਤਵ	-11.8881
▁ਫੇਫੜਿਆਂ	-11.8881
▁ਰਾਸਾਇਨਿਕ	-11.8881
▁ਰੁੱਝ	-11.8881
▁ਮਿਆਂਮਾਰ	-11.8881
▁after	-11.8881
▁ਹਿੰਸਕ	-11.8882
▁ਯਿਸੂ	-11.8882
ਦੂਨ	-11.8882
ਥੂ	-11.8883
ਸਪੈਸ਼ਲ	-11.8883
▁ਮਿਊਜ਼ਿਕ	-11.8884
ਕੁਆਟ੍ਰਨੀਔਨ	-11.8884
▁1865	-11.8885
▁1894	-11.8885
▁ਕਾਈ	-11.8886
▁ਮਨੁਖ	-11.8886
ਆਚਾਰੀਆ	-11.8887
▁ਨਿਸ਼ਾਨਚੀ	-11.8888
▁ਅਥਲੈਟਿਕਸ	-11.8889
▁ਉੱਦ	-11.8893
▁ਉੜ	-11.8893
ਪਸੰਦ	-11.8893
ਜੈਂਟ	-11.8893
▁ਲਾੜੇ	-11.8895
{{	-11.8895
▁ਨਵਾਜ	-11.8896
▁ਧਾਰਨਾਤਮਿਕ	-11.8896
▁ਪਾਰਸ	-11.8897
▁ਫ਼ਿਰਕੇ	-11.8901
▁out	-11.8901
▁ਪੱਕ	-11.8904
▁ਘੜੇ	-11.8905
▁ਫੋਰਟ	-11.8905
▁ਹਾਓ	-11.8906
▁vt	-11.8907
▁ਭਲੇ	-11.8908
▁ਗੋਵਿੰਦ	-11.8908
▁ਸਾਦੀ	-11.8909
▁ਕਾਟ	-11.8913
▁ਮਨਦ	-11.8914
ਗਲੀ	-11.8915
▁ਵਰਤਣੀ	-11.8916
▁ਸੈਟ	-11.8917
▁ਮੈਸੀਅਰ	-11.8918
▁ਬਰੀ	-11.8918
▁ਮੂਵੀ	-11.8919
▁ਟੋਕ	-11.892
ਸਿਟੀ	-11.8922
▁ਵੇਸਟ	-11.8922
ਬੇਨ	-11.8924
▁ਅਲੰਕਾਰਾਂ	-11.8927
▁ਮਨਾਂ	-11.8931
les	-11.8931
▁ਜ਼ਖਮੀ	-11.8932
▁ਛਾਇਆ	-11.8933
▁ਵਾਪਰਨ	-11.8934
▁੧੧	-11.8934
▁ਉੰਨੀ	-11.8935
▁ਉਤਾਰਨ	-11.8939
ਗ਼ਜ਼	-11.8943
ਸਾਡੇ	-11.8945
ੱਕੀ	-11.8945
▁ਹੋਮੋਜੀਨੀਅ	-11.8947
▁ਗੁਰਦੇ	-11.896
ਬੌ	-11.8961
tal	-11.8961
▁ਕ਼	-11.8962
▁ਸੰਕੇਤਾਂ	-11.8962
▁ਉੱਨ	-11.8964
▁ਕ੍ਰਿਸ	-11.8966
▁ਵੜ	-11.8969
▁ਐਡਮ	-11.8969
▁ਜਾਰ	-11.8972
▁ਕਾਂਗੜ	-11.8975
ਧੁਰਾ	-11.8978
▁ਪਹਿਨ	-11.8979
▁ਹੱਟ	-11.8979
▁ਸੈਲਫ	-11.8981
ਅਬ	-11.8981
▁edit	-11.8983
▁ਨਿਊਟ੍ਰੌਨਾਂ	-11.8984
▁ਜੈਨੀ	-11.8984
▁ਟਿਵਾਣਾ	-11.8985
▁ਰਸਾਲੂ	-11.8985
square	-11.8985
▁ਇਰਾਦਾ	-11.8985
▁ਸੰਗਮਰਮਰ	-11.8985
▁ਗੱਠਜੋੜ	-11.8985
▁ਦਖ਼ਲ	-11.8985
▁ਇੰਟੈਂਗਲਮੈਂਟ	-11.8985
▁ਭਾਂਡੇ	-11.8985
▁ਟੋਂਗਾ	-11.8985
▁ਡੈਨਿਸ਼	-11.8985
▁ਬਦਨਾਮ	-11.8986
▁ਘਿਉ	-11.8986
▁ਪਿੱਪਲ	-11.8986
ਵਰਲੈਪ	-11.8986
ਸੌ	-11.8987
▁ਮਹਿਕਮੇ	-11.8987
▁ਵੇਵਨੰਬਰ	-11.8988
ਂਗਾ	-11.8989
LF	-11.8989
▁ਵੱਢ	-11.8989
▁ਚਲਾਉਂਦੀ	-11.8991
▁ਦਿਲਾਂ	-11.8992
▁ਵਾਲ਼	-11.8992
▁ਗੁਫਾਵਾਂ	-11.8993
ਮੀਨਾ	-11.8993
rsam	-11.8995
▁ਸੁਵਿਧਾਵਾਂ	-11.8995
ਉਹਨਾਂ	-11.8996
▁170	-11.8998
▁ਪੁੱਤਰੀ	-11.8999
▁ਨਿਮਰਤਾ	-11.9
▁ਲਭ	-11.9
▁ਮਰੀਨ	-11.9001
▁ਖੋਲ੍ਹਣ	-11.9001
▁ਘਾਲ	-11.9001
▁ਮਿਲਣਾ	-11.9002
▁ਜਨਮਦਿਨ	-11.9003
ਪਰਤ	-11.9003
▁ਦੁਸ਼	-11.9004
▁ਜਲਾ	-11.9006
▁ਮੂਸਾ	-11.9006
ਕਿਰਿਆ	-11.9006
▁ਬ੍ਰਜ	-11.9008
ਯਥਾਰਥਵਾਦ	-11.901
▁ਮਰੇ	-11.9011
▁ਇਕਨਾਮਿਕਸ	-11.9011
600	-11.9014
▁ਸੂਬੇਦਾਰ	-11.9015
▁some	-11.9015
▁ਲੂਸੀਆ	-11.9016
0.5	-11.9016
▁ਅੜ	-11.9017
▁ਮਹਾਦੇਵ	-11.9019
▁ਬੇਅਰਥ	-11.9021
▁ਧੁਨਾਂ	-11.9022
rect	-11.903
ੁੰਗ	-11.9031
▁ਕਰਨਗੀਆਂ	-11.9032
ਜ਼ਿੰਗ	-11.9033
ਏਂ	-11.9034
ਿਲੀ	-11.9034
▁ਵਾਪਰੇ	-11.9035
▁ਸੰਭਾਵ	-11.9036
ਲੱਬ	-11.9039
ਦੇਵੀ	-11.9039
▁ਮਿਨੀਮ	-11.9039
▁ਸੁਧਾਰਿਆ	-11.904
ਲੋਮ	-11.9048
▁ਫੰ	-11.9049
▁ਐਸਾ	-11.905
ੋਸਫੀਅਰ	-11.9052
ਰਲੈਂਡ	-11.9054
▁ਕਮਰ	-11.9055
ਥਾਈ	-11.9056
▁ਕੰਨਾਂ	-11.9057
▁ਅੰਬਰ	-11.9057
▁ਰਹਾ	-11.9057
ਸੂਰਜ	-11.9057
▁ਦੱਤਾ	-11.9059
ੈਂਪ	-11.9064
▁ਜਿੰਮੇਵਾਰੀ	-11.9069
▁ਰਾਜਸਥਾਨੀ	-11.9069
▁ਸ਼ਰਮ	-11.9069
▁ਡੈਨ	-11.9072
▁ਟੌਪ	-11.9072
▁ਸਕੇਲਰਾਂ	-11.9073
▁ਡੈਲਟ	-11.9076
ਪਟਨ	-11.9076
▁ਜੁਲ	-11.9077
▁ਆਲੀ	-11.908
▁ਯੂਰੇਸ਼ੀਆ	-11.9081
▁ਮੋਮ	-11.9083
ਸਟਿਕ	-11.9084
ਮਾਇਆ	-11.9086
ਫਾਰ	-11.9087
▁ਫਰੈਂਚ	-11.9088
ਗਤੀ	-11.9088
▁ਟੈਲੀਪੋਰਟ	-11.9088
ਡਿਜਨ੍ਰੇ	-11.9089
▁ਅਸਮਰੱਥ	-11.9089
▁ਰਫਤਾਰ	-11.9089
▁ਮਹਿੰਗੇ	-11.9089
▁ਸਮਰਕੰਦ	-11.9089
▁ਵਿੱੱਚ	-11.9089
▁ਕਪੜੇ	-11.909
▁ਕੁਰਆਨ	-11.909
▁ਉਪਮਹਾਦੀਪ	-11.909
bold	-11.909
▁ਜਾਲ਼ੀ	-11.909
1–15	-11.9091
▁ਫੈਲੋਸ਼ਿਪ	-11.9091
▁ਪ੍ਰੋਟੋ	-11.9091
▁ਵਿਸ਼ਵਕੋਸ਼	-11.9093
Wiki	-11.9094
ਠਹਿਰੇ	-11.9094
▁ਮੰਗਣ	-11.9094
lam	-11.9094
▁ਮਹਾਭਾਰਤ	-11.9094
▁ਛੰਤ	-11.9094
▁ਰੁਫ਼ੀ	-11.9095
▁ਰੈਮ	-11.9101
▁ਙੁ	-11.9101
▁ਮੇਲਿਆਂ	-11.9103
ਟੀਵਿਟੀ	-11.9104
▁ਦੁਲ	-11.9104
ਕੀਮਤਾਂ	-11.9106
▁there	-11.9107
▁ਸੱਥ	-11.911
ੇਵਾਲਾ	-11.911
▁ਪੌਟਰ	-11.9114
▁ਸਂ	-11.9115
▁ਫ਼ੈਜ਼	-11.9115
▁ਨਾਜ਼ੁਕ	-11.9116
▁ਰਖਦੇ	-11.9119
▁ਅਸਤੀਫ਼	-11.912
▁ਕਾਦਰੀ	-11.9123
ਪਿਨ	-11.9124
▁ਕੋਇਲ	-11.9124
▁ਦਾਇਰਾ	-11.9124
▁ਤੁਹਾਡਾ	-11.9132
▁ਪਰਜਾ	-11.9133
▁ਲਾਗਾਂ	-11.9134
ਸ਼ੰਕਰ	-11.9134
▁ਸਮੁੱਚਾ	-11.9134
ਪਸਾਰੀ	-11.9141
▁ਵਿਵਹਾਰਕ	-11.9144
▁ਕਤਰੀ	-11.9145
▁ਖਤ	-11.9146
▁ਸੂਫ਼ੀਆਂ	-11.9148
ਸ਼ਹ	-11.9149
ਕੜਾ	-11.9149
ਪੁਰਖ	-11.915
▁ਕਮਲਾ	-11.915
ਆਰੀਆ	-11.9151
▁ਅਫ	-11.9155
▁(3	-11.9155
▁ਰਾਜਪੂਤਾਂ	-11.9156
ਕਰੋ	-11.9157
ਮੈਗਨੈਟਿ	-11.9158
▁ਜੰਗਨਾਮਾ	-11.9158
ਪੂਰ	-11.916
ੁੱਲ	-11.9163
▁ਰਿਸੀਵ	-11.9167
ਦੇਸ	-11.9167
ਡੀਜ਼	-11.9168
▁ਬੁੱਝ	-11.9169
ਪੋਜ਼	-11.9171
▁ਸਲਿੱਟ	-11.9174
▁ਬਾਣੀਆਂ	-11.9174
▁ਗਰੇਡਿ	-11.9176
ਵੀਨ	-11.9179
ੋਂਗ	-11.9179
▁ਸਿੰਘਾਪੁਰੀ	-11.918
der	-11.9182
▁ਨਾਟੋ	-11.9185
▁Na	-11.9187
▁ਉਲਟੀ	-11.9188
▁ਆਤਮਕ	-11.9189
ਵੈਨ	-11.9191
▁ਜਿੱਤਾਂ	-11.9194
▁categories	-11.9194
▁ਆਜੋਜਿਤ	-11.9194
▁ਆਸਤੂਰੀਆਸ	-11.9194
▁ਕੁਸਤੁਨਤੁਨੀਆ	-11.9194
▁ਜ਼ਿੰਬਾਬਵੇ	-11.9194
▁ਪਿਕਾਚੂ	-11.9194
▁ਬਾਰਬਾਡੋਸ	-11.9194
▁ਸਈਅਦ	-11.9194
▁ਸਾਹਿਬਜ਼ਾਦਿਆਂ	-11.9194
▁Europe	-11.9194
▁ਅਨੋਖਾ	-11.9194
▁ਪ੍ਰੌਪੇਗੇ	-11.9194
▁ਸਪੈਕਟ੍ਰੋਸਕੋਪ	-11.9194
▁ਸਟ੍ਰਕਚਰ	-11.9194
▁ਨੈਗੈਟ	-11.9194
▁ਅਰਥਚਾਰਾ	-11.9194
ਲੈਂਟੀਨ	-11.9194
▁ਜੰਮਪਲ	-11.9194
▁ਟਰਕੀ	-11.9195
▁ਕਾਬਲੀਅਤ	-11.9195
▁ਪ੍ਰਵਚਨ	-11.9195
▁ਮੈਡੀਸਨ	-11.9195
▁ਪ੍ਰਣ	-11.9195
ੋਮੋ	-11.9196
▁ਨਜਮ	-11.9197
ਿਰੁਧ	-11.9197
▁ਜਥਾ	-11.9197
▁ਮਹਾਂਰਾਸ਼ਟਰ	-11.9198
▁ਸਾਇਬੇਰੀਆ	-11.92
▁Gel	-11.92
ਗਾਂ	-11.92
▁contain	-11.9201
ਿਲਟੀ	-11.9201
ਵੱਡੇ	-11.9203
ਪੇਅਰਟੀ	-11.9207
ਨਟ	-11.921
▁ਪਲਟਾਓ	-11.9213
▁ਟਰੀ	-11.9213
▁ਫ਼ਿਰੋਜ਼ਪੁਰ	-11.9214
▁ਆਸਕਰ	-11.9216
▁ਪਨ	-11.9217
्य	-11.9221
▁ਬਸਿਆ	-11.9226
▁ਊਮਿਓ	-11.9226
▁ਜੀਵੰਤ	-11.9226
ਇਸਲਾਮ	-11.9228
▁ਚੁਣੀਆਂ	-11.9229
men	-11.9231
▁cos	-11.9233
ਰੰਗੀ	-11.9236
▁ਦੇਂਦੇ	-11.9238
ਤਰੇ	-11.9241
▁ਚਾਂਸਲਰ	-11.9244
▁ਮੇਸ	-11.925
੍ਹਾਂ	-11.9252
ਨੀਤੀ	-11.9252
▁ਕੋਂ	-11.9252
ਸੰਯੁਕਤ	-11.9253
▁ਐਬ	-11.9254
▁ਚਚੇਰ	-11.9254
▁ਪ੍ਰਕਾਸ਼ੀ	-11.9256
ਨੈਸ਼ਨਲ	-11.9256
▁ਅਸੂਲ	-11.9257
।:219	-11.9259
ਵੰਡਾਂ	-11.9259
▁ਉਤਰਦੀ	-11.926
▁ਕੈਦੀਆਂ	-11.9262
▁ਸਕਾਈ	-11.9262
ਰਦਾਰ	-11.9262
ਗ੍ਰਿ	-11.9264
▁ਖਾਤੇ	-11.9268
▁ਸਤਿਆ	-11.9268
▁ਨਿੱਕਾ	-11.927
ੀਨੀ	-11.9271
ਂਗੇ	-11.9271
ਵਿਧੀ	-11.9272
ਅਲੀ	-11.9277
eas	-11.9278
▁ਚੋਟ	-11.928
ਗਠਿਤ	-11.9281
▁ਹਲਦੀ	-11.9283
▁ਕੁੱਦ	-11.9286
▁ਪੂਰਣ	-11.9287
ਸ਼ਾਦ	-11.9287
ਬਿਟ	-11.9288
ਟੇਡ	-11.9288
ini	-11.9291
▁ਚਿਨ	-11.9294
ਸਾਗਰ	-11.9297
▁ਬਜ਼ੁਰਗਾਂ	-11.9298
abbr	-11.93
▁ਲੈਪਲਾਸੀਅਨ	-11.93
ਵਿਵਸਿਥ	-11.93
▁ਡੈਰੀਵਿਟਵ	-11.93
▁ਦੁਰਲੱਭ	-11.93
▁ਫਿਨਲੈਂਡ	-11.93
▁ਫੇਇਨਮਨ	-11.93
▁ਸ਼ਰਧਾਂਜਲੀ	-11.93
▁ਸੰਸਾਧਨ	-11.93
▁ਰਿਵਾਇਤ	-11.93
▁ਸਾਹਿਬਜ਼ਾਦੇ	-11.93
▁ਵਤੀਰੇ	-11.93
▁ਜ਼ਿੰਕ	-11.9301
▁ਗ੍ਰਾਂਟ	-11.9301
▁ਪ੍ਰਨਾਲੀ	-11.9301
ERN	-11.9301
▁ਰਾਜਨੇਤਾ	-11.9301
▁ਗੋਰਖਨਾਥ	-11.9301
▁ਸੋਫੀਆ	-11.9301
▁ਲੁਪਤ	-11.9302
▁ਉਧਰ	-11.9303
▁(2	-11.9303
▁ਗੋਲਾਕਾਰ	-11.9303
ਟੇਕ	-11.9303
▁ਜਾਏਗਾ	-11.9303
▁ਵਾਯੂ	-11.9303
▁ਕੈਰੋਂ	-11.9304
▁ਦਖਣ	-11.9304
▁ਪ੍ਰਸੰਨ	-11.9305
▁ਸੰਜੇ	-11.9306
▁ਫ਼ੀਲਡ	-11.9306
ਨਾਗ	-11.9307
old	-11.9307
138	-11.931
ਪ੍ਰਾਈਮ	-11.9311
ਸੁਰੱਖਿਅਤਾ	-11.9311
ਬਾਊਂਡ	-11.9312
▁ਸ਼ਾਰਟ	-11.9312
▁ਰਲਾ	-11.9313
ਜਨਰਲ	-11.9314
▁ਖਰੀਦਿਆ	-11.9314
ਵਿਹਾਰ	-11.9315
▁ਮਸਤੀ	-11.9316
▁ਨਾਨਕੇ	-11.9316
ਢੁਆਈ	-11.9316
750	-11.9321
▁ਜਲਗਾਹਾਂ	-11.9322
:198	-11.9322
▁ਲਾਓਸ	-11.9323
ਫੋਰ	-11.9326
▁ਸਕੀਏ	-11.9327
ਪਰਵਾਰ	-11.9327
▁ਘੜਾ	-11.9327
▁ਪਲਾਸ	-11.9327
▁ਪ੍ਰਸ਼ਾਸਨਿਕ	-11.9328
▁ਡਾਇਰ	-11.9331
▁ਉਪਰਲੇ	-11.9333
▁ਕਾਮਾ	-11.9335
▁ਈਅਰ	-11.9335
▁ਨਸੀਬ	-11.9335
ਤੀਆ	-11.9338
▁ਪਿਹਲ	-11.9339
▁ਅੱਠਵੀਂ	-11.934
▁ਜੰਮਿਆ	-11.9342
ਡਾਈ	-11.9343
▁ਬੀਏ	-11.9343
ਸਿਵ	-11.9344
96–9	-11.9344
▁ਸਿਧਾ	-11.9349
▁ਲੇਹ	-11.9349
▁1/	-11.9357
ੰਤਾ	-11.936
ਮੈਟਿਕ	-11.9363
ਕੇਸ਼	-11.9365
ਮ੍ਰਿ	-11.937
ਕੋਵਸਕੀ	-11.9371
ore	-11.9372
ਾਤਮਿਕਤਾ	-11.9373
ਸੈਲ	-11.9377
ਪਰੇ	-11.9377
pm	-11.9379
▁ਹੈੱਡ	-11.9379
ਨਿਯਮ	-11.938
ਡਾਇਮੈਨਸ਼ਨਾਂ	-11.9383
▁ਸਬਅਲਜਬਰ	-11.9384
▁ਚੁਗ	-11.9386
▁ਬੁੱਧੀਜੀਵੀ	-11.9388
▁ਕਾਰਣਾਤਮਿਕ	-11.9388
▁ਐਫ਼	-11.939
▁ਅਸਮਰੂਪ	-11.9391
▁ਉਮਰੇ	-11.9394
▁ਕਸ਼	-11.9399
▁ਸਮੋ	-11.9399
▁ਪੈਨਲ	-11.9402
▁ਦਸਤਾਵੇਜ	-11.9405
▁੧੯੭	-11.9406
▁ਟੁਰ	-11.9407
▁ਡਿਪਾਰਟਮੈਂਟ	-11.9408
▁ਤਮਿਲਨਾਡੂ	-11.9408
▁ਧਨਾਢ	-11.9408
▁ਫੋਟੋਗ੍ਰਾਫਰ	-11.9408
▁ਬਰਖ਼ੁਰਦਾਰ	-11.9408
▁ਅਧਿਆਏ	-11.9408
▁ਚਮੜੇ	-11.9408
▁ਝਾਂਸੀ	-11.9408
▁ਸਜਾਵਟ	-11.9408
▁ਇੱਕਲੌਤੇ	-11.9408
▁ਮੁਰੰਮਤ	-11.9408
▁ਇੰਟਰਨੈਟ	-11.9408
▁ਟੈਲੀਗ੍ਰਾਫ	-11.9408
▁ਮਤਭੇਦ	-11.9408
▁ਮੁਫਤ	-11.9409
ੱਫਰੈਂਸ	-11.9409
▁ਉੱਲੂ	-11.9409
▁ਮਿਕਦਾਰ	-11.9409
box	-11.9409
▁dim	-11.9409
▁ਐਕਸੀਅਲ	-11.9409
▁ਛੂਤ	-11.9412
▁ਕਪਿਲ	-11.9412
▁ਕੀੜਿਆਂ	-11.9413
▁ਰਾਵਣ	-11.9413
▁ਲੋਆਰ	-11.9414
ਬੁੱਲ੍ਹੇ	-11.9415
▁ਮੁਗਲਾਂ	-11.9415
▁ਵੇਕ	-11.9415
={\	-11.9415
▁ਹੱਬ	-11.9416
▁Clp	-11.9416
▁ਸਰਜਨ	-11.9417
▁New	-11.9418
▁ਜੌਹਰ	-11.9418
ਹਿਲ	-11.9418
ਸੁਰਜੀਤ	-11.9422
▁ਗੋਲਫ	-11.9422
▁ਨਾਸਿਰ	-11.9423
▁ਸਹੁਰਾ	-11.9426
▁ਜਵਾਰ	-11.9427
▁ਟੈਕਸਟ	-11.9427
ਕੇਨ	-11.9432
ations	-11.9434
▁ਨਗਰਾਂ	-11.9434
ੇਰੀਅੰਟ	-11.9435
▁ਦੋਹਰੀ	-11.9435
ਮੀਤ	-11.9438
▁ਨੱਲ	-11.9438
▁Fig	-11.9439
ਾਕੋਨ	-11.9441
▁ਕਾਰਕਾਂ	-11.9441
▁ਵਿਚਕਾਰਲੇ	-11.9443
ਮੰਤ	-11.9444
▁ਯਾਨ	-11.9445
ਲ੍ਹਾ	-11.9446
▁ਵੱਡ	-11.9447
▁ਟੰਗ	-11.9447
▁ਗਰੈਜੂਏਟ	-11.9447
ਫੈਕਟਰ	-11.9448
ਵਰਸ਼	-11.9449
▁ਜਨਮਦਾਤਾ	-11.945
ਾਵਤੀ	-11.9451
▁ਸੁੰਦਰੀ	-11.9456
SA	-11.946
ਨਹੀਂ	-11.946
▁ਸ਼ਬਦਾ	-11.9462
▁ਸਮੁੰਦਰੋਂ	-11.9462
ਪਕਾਇਆ	-11.9462
▁ਟਿੱਪਣੀਕਾਰ	-11.9463
▁ਨਾਸ	-11.9464
ਨੋਬਲ	-11.9465
।:36–	-11.9465
▁ਉਪਯੋਗੀ	-11.9466
ris	-11.9468
▁ਸੋਲਨ	-11.9471
▁ਸਮੇਟ	-11.9472
▁ਵਿਆਹੀ	-11.9473
▁ਐਪਰ	-11.9477
▁ਰੱਜ	-11.9481
▁ਖਿੱਚੀ	-11.9483
▁ਹਾੜ	-11.9485
▁ਵਸੀ	-11.9486
▁ਪੁਤਰੀ	-11.9486
▁ਬੇਟੀਆਂ	-11.9486
▁10.	-11.9487
▁ਮੁੱਠੀ	-11.9488
ਮੀਆਂ	-11.9488
ਾੳੁਣ	-11.949
ਕੇਂਦਰੀ	-11.9492
ਰੇਅ	-11.9493
▁ਵਿਆਹੁ	-11.9494
▁ਘੋੜ	-11.9495
ਭਾਸ਼ਾਈ	-11.9496
ਾਓਣ	-11.9496
▁ਮਿਥਿਹਾਸਕ	-11.9497
▁ਛਿੜ	-11.9498
ਡ਼ੀ	-11.9501
ਬਕ	-11.9505
ਕ੍ਰਿਤੀ	-11.9508
▁ਇਟ	-11.9511
▁ਕਠ	-11.9513
ਬਧ	-11.9513
▁ਸੁੱਕੀ	-11.9515
▁ਐਪ	-11.9515
▁ਖਰ	-11.9516
▁ਲਿੰਗਕ	-11.9516
।:106,120–122	-11.9517
▁ਮਜ਼ਹਬ	-11.9517
▁ਕਰਤੱਵ	-11.9517
▁ਹਾਦਸੇ	-11.9517
▁ਟ੍ਰਾਂਜ਼ੀ	-11.9517
ਪੁਜੀਸਨ	-11.9517
▁ਚਾਈਨਾ	-11.9517
▁ਅਧੂਰਾ	-11.9517
ਪੀਰੇਨੇ	-11.9517
▁ਜੈਕੋਬ	-11.9517
▁ਮੁਨਸ਼ੀ	-11.9518
▁ਪ੍ਰਤੀਯੋਗੀ	-11.9518
▁ਕੰਵਲ	-11.9518
▁ਜਿਆ	-11.9519
▁ਕੋੲ	-11.9521
▁ਸਿਮੋਨ	-11.9521
▁ਸੀਜ਼ਰ	-11.9522
▁ਸੁਝਾਈ	-11.9523
▁ਧੁੱਪ	-11.9524
▁ਬਲਦ	-11.9526
▁ਤੇਜਾਬ	-11.9526
▁ਪਰਿਸਥਿਤੀਆਂ	-11.9527
▁ਵੈਸਾਖ	-11.9527
ਰੋਮਾ	-11.9527
ਮਾਰਾ	-11.9529
▁ਮਾਝੇ	-11.953
▁ਮੋਜ਼	-11.953
▁ਇੰਡਕ	-11.9531
ਰੀਲੇਟੀਵਿਸਟ	-11.9532
ਨਿਰਮਾਣ	-11.9532
ara	-11.9534
▁ਉਘਾ	-11.9537
▁1700	-11.9538
▁੧੭	-11.9539
ੋਲੋ	-11.954
cj	-11.9542
ਦ੍ਰਿਸ਼ਟੀ	-11.9543
▁ਡਿਕ	-11.9544
▁ਰਸਲ	-11.9544
▁ਰੋਟੇਸ਼ਨਲ	-11.9545
▁ਦਵੰਦ	-11.9548
ਮਾਸਟਰ	-11.9548
ਰੇਟਰ	-11.955
▁ਰਾਮਪੁਰ	-11.955
▁ਸੂਰੀ	-11.955
ਬਾਨੀ	-11.9551
▁ਡੂੰਘਾਈ	-11.9552
▁ਕਿਰਪਾਲ	-11.9553
▁ਪਕ	-11.9553
▁ਸਪਸ਼ੱਟ	-11.9554
ਿਆਨਾ	-11.9561
▁ਨਿਰਪੇਖ	-11.9561
ੰਤਰ	-11.9561
ਿਊਰ	-11.9562
▁ਗੇਂਦਬਾਜ਼ੀ	-11.9562
ਕੁਸ਼	-11.9564
ਡਿਸ	-11.9567
▁ਰੱਸੀ	-11.9567
ਤਾਕਰਸ਼ਣ	-11.9567
▁ਭਰੀਆਂ	-11.9568
18–1	-11.9569
▁ਚੌਧਰ	-11.9573
▁ਨਹਿਰਾਂ	-11.9574
▁ਇਸ਼ਤਿਹਾਰ	-11.9579
▁ਵਿਰ	-11.9579
▁1.5	-11.9579
:64	-11.9582
▁ਛਕ	-11.9583
▁ਕੁਮ	-11.9585
▁ਨਾਰਾਇਣ	-11.9586
-14	-11.9588
▁ਕਰੀਬੀਆ	-11.9588
▁ਕਰਜ਼ਾ	-11.9589
ਰਿਤ	-11.959
ck	-11.959
▁ਬੱਝ	-11.9591
▁0.500	-11.9591
ence	-11.9591
ਿਅਲ	-11.9602
▁91	-11.9604
▁ਪਉੜੀ	-11.9606
▁ਡਿਕੇ	-11.9611
▁ਪ੍ਰਾਯ	-11.9611
▁ਖ਼ਬਰਾਂ	-11.9613
▁ਗ੍ਰਾਫਿਕ	-11.9613
▁1100	-11.9613
▁ਫ਼ੌਜੀਆਂ	-11.9614
▁ਘਾਟੀਆਂ	-11.9615
ੱਈਆ	-11.9616
▁ਬਾਕਾਇਦ	-11.9617
▁ਸਕਣਾ	-11.9619
▁ਕਾਹ	-11.962
▁੩੦	-11.9622
▁ਪਬਲਿਸ਼	-11.9624
▁ਐਂਥ	-11.9625
▁ਯੁੱਧਾਂ	-11.9626
▁ਨੁਕਸ	-11.9626
0–113	-11.9626
dagger	-11.9626
ਬਲੀਊਸ਼ਿਫਟ	-11.9626
▁MHz	-11.9626
▁ਅਫਰੀਕਨ	-11.9626
▁ਇਖ਼ਤਿਆਰ	-11.9626
▁ਪ੍ਰੋਟਾਨ	-11.9627
▁ਗੋਸ਼ਟੀ	-11.9627
▁ਪੜਚੋਲ	-11.9627
▁ਫਰਮੀਓਨ	-11.9627
▁ਬਰਾਮਦ	-11.9627
▁ਫਾਈਬਰ	-11.9627
ਆਂਤਰਿਕ	-11.9627
ਨਿਡਰ	-11.9627
▁ਝਰਨੇ	-11.9627
▁ਬੋਲ਼ੇ	-11.9628
▁ਨਿਅੰਤਰ	-11.9628
▁ਬੈਨਰਜੀ	-11.9628
▁ਛੁਪਿਆ	-11.9628
▁ਹੈਸੀਅਤ	-11.9628
ਚਾਰੀ	-11.9629
▁ਬਟਾਲਾ	-11.9629
▁1862	-11.963
਼ਦੀ	-11.963
▁1864	-11.9632
ਕਥਾਵਾਂ	-11.9633
ਬਾਗ	-11.9633
▁ਦੇਵਦਾਸ	-11.9634
▁ਸਹੋਯੋਗ	-11.9635
▁ਗੰਢਾਂ	-11.9635
▁ਲੱ	-11.9635
▁ਸ਼ਾਰਦਾ	-11.9636
▁ਪ੍ਰਬਲ	-11.9637
▁33.9	-11.9637
▁ਮਿਹਰ	-11.9638
▁ਪ੍ਰੇਮਿਕਾ	-11.9638
▁ਨੌਵੇਂ	-11.9638
ੋਵਸਕੀ	-11.9638
▁ਨੇਸ਼ਨਲ	-11.9639
▁ਟਿ	-11.964
▁ਹਾਲਾਤਾਂ	-11.9642
ਪਿਉ	-11.9642
▁ਕੰਪ	-11.9643
±	-11.9644
▁ਜਗ੍ਹਾਂ	-11.9645
▁ਪਹੁੰਚਾ	-11.9645
▁ਮਿੰਟਾਂ	-11.9645
▁sub	-11.9646
ਾਇਜ਼	-11.965
ਗੁਨ	-11.9651
.99	-11.9652
▁ਵਿੱ	-11.9654
6.	-11.9658
ਲਿਫ਼	-11.9658
▁ਲੈਂਬ	-11.9659
▁ਦਵਾ	-11.9659
ਨਸ਼ੀਨ	-11.966
ਫਤ	-11.966
▁ਅਲਬ	-11.966
▁ਹਾਂਗ	-11.9661
ਸ਼ਾਲੀ	-11.9663
▁ਵਾਈਸ	-11.9663
▁ਮੰਜ	-11.9664
▁Ti	-11.9666
▁ਵਿਜੇਂਦਰ	-11.9669
▁ਅਜ਼ੀਮ	-11.9675
▁ਕੋਰੀ	-11.9677
▁96	-11.9677
▁ਵਿਲਾ	-11.9678
਼ਰ	-11.968
▁ਅਬਦਾਲੀ	-11.9682
cl	-11.9684
▁ਗੜਬੜ	-11.9684
▁ਫਰਾਂਸਿਸਕੋ	-11.9686
▁ਲਪੇਟ	-11.9687
▁ਪਨਾਹ	-11.9688
ਰੀਨਾ	-11.9689
▁ਹਰਨਾਮ	-11.9691
▁ਸੂਪ	-11.9691
▁ਓਡ	-11.9691
ਾਰਕ	-11.9693
▁ਗਲਾ	-11.9694
▁ਸੋਮੱਰਫੈਲਡ	-11.9695
▁ਸਿਆ	-11.9695
ਿਸ਼ਟ	-11.9696
▁ਨੈਗੇਟਿਵ	-11.9697
ਿਚ	-11.9702
ਯੰਤਰ	-11.9706
▁Bo	-11.9708
}{\	-11.971
▁ਗੁਡ	-11.9716
▁ਉਸਮਾਨੀਆ	-11.9716
ਰੋਵ	-11.9719
▁ਰਕਤ	-11.9719
ਓਮਾਨ	-11.972
ਰੀਅਰ	-11.972
▁ਗ੍ਰੈਵਿਟੋ	-11.9722
ਨਾਟ	-11.9725
▁ਓਨ	-11.9732
3/2	-11.9733
▁ਭੰਨ	-11.9733
ਚਨ	-11.9734
ੱਖਣ	-11.9735
▁0.250	-11.9737
:47–59	-11.9738
:90–92	-11.9738
।:220–221	-11.9738
▁between	-11.9738
▁ਟ੍ਰਿਗਨੋਮੈਟ੍ਰ	-11.9738
▁ਡਾਇਬਟੀਜ਼	-11.9738
▁ਬਗ਼ੈਰ	-11.9738
▁ਪ੍ਰੋਵਾਂਸ	-11.9738
▁ਭਾਦੋਂ	-11.9738
▁ਐਂਟੀਕੁਆਰਕ	-11.9738
▁sinh	-11.9738
ali	-11.9738
:94–96	-11.9738
▁cosh	-11.9738
▁mgh	-11.9739
▁ਲੇਖਾ	-11.9739
▁ਪਲੌਟ	-11.9739
▁ਝਰਨਾ	-11.974
▁ਧਵਨ	-11.974
▁3‐8	-11.9741
▁3‐12	-11.9741
▁γβ	-11.9741
▁2‐7	-11.9741
▁ਲਖ	-11.9741
▁1882	-11.9741
▁ਬੋਰਿਸ	-11.9742
▁ਵੇਇਨ	-11.9742
▁ਸਹਿਕਾਰੀ	-11.9745
▁ਪਹਿਲੋਂ	-11.9745
▁ਤੀਵੀਂ	-11.9746
▁90%	-11.9747
▁ਗੋਂਡ	-11.975
▁ਰਿਪਬਲਿਕਨ	-11.975
▁1200	-11.9752
▁ਸੁੱਟਿਆ	-11.9753
▁ਕਿਰੀਬਾ	-11.9755
▁ਮਠ	-11.9756
▁ਰਾਏਪੁਰ	-11.9756
▁ਇਲੈਕਟਰਾਨਿਕ	-11.9758
ਵਿਲੌਸਿਟੀ	-11.9758
▁4‐1	-11.9759
ਬਿੰਦੂ	-11.976
▁ਡਾਕੂ	-11.9764
▁ਕੁਚਲ	-11.9765
▁Me	-11.9765
ਵਿਸ਼ੇਸ਼	-11.9766
▁ਮਿਲਾਨ	-11.9766
▁ਅਸਤੀਫ	-11.9766
▁ਰਾਮਸਰ	-11.9768
।:11	-11.9769
▁ਪ੍ਰਮੁੱਖਤਾ	-11.9769
ਅੰਦਰ	-11.977
▁ਦਿਨੀਂ	-11.9771
▁ਆਦਮੀਆਂ	-11.9771
ਹਦ	-11.9772
ੰਨਿਆ	-11.9774
ਪੰਥ	-11.9775
ky	-11.9776
▁ਅਚੇਤ	-11.9781
▁ਸੁਝਾ	-11.9782
▁ਛੱਡੇ	-11.9784
▁ਜੁਗਤਾਂ	-11.9786
▁ਵਰਿਆਮ	-11.9788
▁ਜਸਵਿੰਦਰ	-11.9788
▁ਵਿਕਟ	-11.979
▁ਕੱਟੀ	-11.9792
ਜ਼ੋਨ	-11.9795
▁ਗੇਮਾਂ	-11.9796
▁ਉਦਾਸ	-11.9796
▁ਚਿਤ	-11.9796
▁ਖ਼ਲ	-11.9797
▁ਅਬੇਲ	-11.9797
▁ਗ਼ਦਰੀ	-11.98
▁'/	-11.9802
▁ਔਜ਼ਾਰਾਂ	-11.9804
▁ਵਿਜੈ	-11.9804
▁ਜ਼ੀਨੈਕ	-11.9807
▁ਖ਼ੂਬ	-11.9809
▁ਡਿਜ਼ਾਇਨਰ	-11.9812
ਮੁਰ	-11.9813
▁ਜ਼ਬਰਦਸਤ	-11.9813
ਬਦਲ	-11.9813
ਨੀਅਮ	-11.9814
▁ਜੁਗਤ	-11.9819
ਸੀਸੀ	-11.9823
▁ਮਾਤ੍ਰ	-11.9823
▁ਮਹੱਲ	-11.9823
▁ਏਂ	-11.9823
▁ਚੱਲਦੇ	-11.9826
ਹਰਚਰਨ	-11.9827
▁}\	-11.9828
▁ਭਾਵੇ	-11.9832
਼ਨ	-11.9839
▁ਜਮਾਤਾਂ	-11.9839
▁ਘੋੜੀਆਂ	-11.9839
▁ਸੰਕ	-11.984
▁ਜ਼ਰਾ	-11.984
▁ਸਪੋਰਟ	-11.9843
▁ਅਲੇ	-11.9844
ਯਾਤਰਾ	-11.9845
▁ਰੁਮਾਂਸ	-11.9846
▁ਬਾਘ	-11.9846
▁ਆਯੁਰਵੇਦ	-11.985
▁ਤੁਵਾਲੂ	-11.985
▁ਮੌਡਿਊਲ	-11.985
▁ਰਚਨਹਾਰ	-11.985
▁ਭੁਟਾਨ	-11.985
▁ਹੈਮੀਲਟੋਨੀਅਨ	-11.985
matrix	-11.985
▁ਮਾਈਕ੍ਰੋਨੇਸ਼ੀਆ	-11.985
▁ਵਿਵੇਕ	-11.985
▁ਚਾਕਲੇਟ	-11.985
▁ਹਾਈਪਰਪਲੇ	-11.985
▁ਸਥੂਲ	-11.985
▁ਮਹਾਰਿਸ਼ੀ	-11.985
▁ਮੂਹਰੇ	-11.985
▁ਇੰਡਿਆ	-11.9851
▁ਆਟੋਮਨ	-11.9851
▁ਨੌਕਰੀਆਂ	-11.9852
▁ਚਲਾਉਂਦੇ	-11.9852
▁ਸਿਫ਼ਤ	-11.9852
▁ਵਾਮਨ	-11.9854
▁ਸਵਾਗਤ	-11.9854
▁ਪਛਮ	-11.9854
ਅੰਦਾਜ਼ੀ	-11.9854
▁ਖੱਲ	-11.9854
ਥਲ	-11.9855
▁ਮਿਲੀਮੀਟਰ	-11.9855
▁ਸ਼ੈਤਾਨ	-11.9856
▁ਘਾਤਕ	-11.9858
▁ਯੂਰੋਪੀਅਨ	-11.9859
▁ਪਾਵਨ	-11.9859
▁ਨੱਸ	-11.986
▁ਵੁਲ	-11.9862
▁ਮਨੋਵਿਗਿਆਨੀ	-11.9862
▁ਓਲਡ	-11.9863
▁ਰਿਵਾਜ਼	-11.9867
▁ਫੁਲਕਾਰੀ	-11.9867
▁ਸ਼ਿਵਾਲ	-11.9868
▁ਸੰਯੋਗ	-11.9869
▁ਬਿਜਲਾਣੂ	-11.987
▁ਅਹਮਦ	-11.9871
▁ਬੋਝ	-11.9872
▁का	-11.9872
ਸਲਿੱਟ	-11.9872
▁ਇੰਟ੍ਰੈਕਸ਼ਨਾਂ	-11.9872
▁ਵਣਜ	-11.9873
▁ਸਰੀ	-11.9875
▁ਦਲੇਰੀ	-11.9878
▁ਮਰਜੀ	-11.9879
ade	-11.9879
ੱਢ	-11.9881
▁ਸੰਦਰਭਾਂ	-11.9882
ਵਰਧਨ	-11.9883
▁ਸਿੱ	-11.9884
▁ਮੈਕਰੋ	-11.9885
ਆਰੰਭਿਕ	-11.9887
▁ਖਪਤਕਾਰ	-11.9888
▁21,	-11.9888
ੳੂ	-11.9888
▁ਨਿਊਕਲੀ	-11.9888
▁ਐਮਏ	-11.9889
ਨਾਈ	-11.989
▁ਬਾਂਦਰ	-11.9891
▁ਪ੍ਰਚਲਤ	-11.9893
▁ਜੁੜਦਾ	-11.9893
ਤਰਾਂ	-11.9893
ls	-11.9894
▁ਕਿਸ਼ਤ	-11.9895
▁ਆਰਿਆ	-11.9896
▁ਵਿਅ	-11.99
▁1600	-11.9901
▁ਨਾਭ	-11.9903
ari	-11.9907
ਤੁਰ	-11.9909
▁ਪ੍ਰਤੀਰੋਧ	-11.9909
▁ਰਹੱਸਵਾਦੀ	-11.9911
ਹੈਮ	-11.9911
ਸਕੋਪ	-11.9913
ਮਨਾਤ	-11.9913
▁ਐਡੀਸ	-11.9915
▁ਵਧੀਕ	-11.9915
▁ਸੱਦਿਆ	-11.9916
▁ਅਾਪਣ	-11.9917
▁ਹਿਸੇ	-11.9918
ਗੋਚਰ	-11.9921
▁1,000	-11.9922
▁ਸਰੋਕਾਰਾਂ	-11.9924
▁ਜਾਲੀ	-11.9926
▁ਵੱਜਣ	-11.9928
▁ਅਸਤ	-11.9931
▁main	-11.9931
ਲਿਖਤ	-11.9932
▁ਵਿਰਕ	-11.9936
ਾਲੇ	-11.9939
▁ਯਿ	-11.994
-7	-11.9943
ਨੈਸ	-11.9944
▁ਵਹਾ	-11.9944
ਲਾਂਗ	-11.9945
▁ਸੁਹ	-11.9947
▁2)	-11.9948
▁ਆਖੀ	-11.995
ਬੁਰ	-11.9951
▁ਅਦ	-11.9952
▁ਮਾਪਣ	-11.9952
▁ਦਾਅਵੇ	-11.9952
▁350	-11.9956
ਰਦੀ	-11.9957
mon	-11.996
▁ਲੈਲਾ	-11.9962
▁ਪਹੇਲੀਆਂ	-11.9962
▁ਅਮ੍ਰਿਤ	-11.9963
▁ਬੱਲੇਬਾਜ	-11.9963
ਲਗ੍ਰਾਂਜ	-11.9964
▁ਅਨੁਸੰਧਾਨ	-11.9964
▁ਪਤਝੜ	-11.9964
▁ਤਾਇਨਾਤ	-11.9964
▁ਦਮੋਦਰ	-11.9964
▁ਪ੍ਰਸੰਸਾ	-11.9964
▁ਘੰਟੀ	-11.9964
▁ਇਤਆਦਿ	-11.9964
▁ਖਾਰ	-11.9964
▁ਪੋਤਰੇ	-11.9964
▁were	-11.9964
▁ਪ੍ਰਦੇਸ	-11.9964
▁National	-11.9964
▁ਉਦਾਤ	-11.9965
▁ਗਰੁਪ	-11.9965
▁ਕੁਤਬ	-11.9965
▁ਵੋਲਗਾ	-11.9965
▁ਸੰਕਲਿਤ	-11.9966
ver	-11.9966
▁ਚੀਫ	-11.9967
▁ਆਲ੍ਹਣੇ	-11.9967
▁ਸ੍ਰੀਮਤੀ	-11.9968
▁ਤੁਲਸੀ	-11.9969
▁ਬਚਾਇਆ	-11.9969
▁ਭਾਬੀ	-11.997
▁ਰੀਫ਼	-11.9971
▁ਹਾਨੀਕਾਰਕ	-11.9972
ੌਡ	-11.9973
▁ਬੈਂਤ	-11.9973
▁ਗਰੀਬਾਂ	-11.9975
▁ਥਰਮੋ	-11.9976
▁ਗੋਲ਼	-11.9976
ting	-11.9976
-16	-11.9977
੍ਰੇ	-11.9978
ਉੱ	-11.9979
▁ਟੋਨੀ	-11.9979
▁ਰਖਣ	-11.9981
▁ਲੱਤ	-11.9981
▁ਰਿਲ	-11.9981
▁ਜਟਿਲਤਾ	-11.9982
▁ਏਕੁਆਦੋਰ	-11.9984
ਸੋਮ	-11.9984
▁ਰਾਸ਼	-11.9986
▁ਬੁਣਿਆ	-11.9988
▁ਮਰਦਾਨਾ	-11.9988
ਭਰਪੂਰ	-11.999
▁ਸਾਈਂ	-11.999
ਵੋਲ	-11.999
ਬ੍ਰਹਿਮੰਡ	-11.9991
ਡੋਸ	-11.9992
400	-11.9993
ST	-11.9993
▁ਭੁੱਲਰ	-11.9994
▁ਲੰਘਦਾ	-11.9994
gs	-11.9998
ਡੀਆ	-11.9998
ਭੂਤ	-11.9999
▁ਛੱਡਣਾ	-11.9999
▁ਚਲਾਣ	-12.0004
ੂਰੀ	-12.0004
▁ਰਿਫ	-12.0004
▁ਇੱਛਾਵਾਂ	-12.0005
ਹੁੱਦੀ	-12.0006
ੱਕੜ	-12.0006
ਚਾਂਗੇ	-12.0007
▁ਸਤਿਹ	-12.001
▁ਬੈਲੇ	-12.0011
ਰਿਵਾਜ	-12.0013
ik	-12.0014
▁ਮੋਨੋ	-12.0015
▁ਬੁਖਾਰਾ	-12.0015
do	-12.002
▁ਰਾਜਭਾਸ਼ਾ	-12.0021
ਜ਼ਾਦਾ	-12.0021
▁Se	-12.0022
▁ਭਰਦਾ	-12.0022
▁ਸਲਾਮ	-12.0023
▁ਇਨਰ	-12.0024
▁ਕਾਹਨ	-12.0024
ਮਿਰ	-12.0025
▁ਕੈਲੀ	-12.0025
ਇਸਨੂੰ	-12.0029
▁ਫਰੈ	-12.0031
▁ਸਨਮਾਨਿਆ	-12.0032
▁ਕਾਲੀਨ	-12.0035
▁ਵਿੱਟਨ	-12.0035
▁ਕ੍ਰਿਸਟਲ	-12.0041
ਯਾਦ	-12.0041
ਜਿਲ	-12.0043
ਭੇ	-12.0044
-11	-12.0045
ਭਰਾ	-12.0049
▁ਕਿਰਤਾਂ	-12.0049
▁ਨੈਨ	-12.005
ਭੁਜ	-12.005
▁ਟ੍ਰੇ	-12.0053
▁ਅਪਣਾਈ	-12.0054
▁ਬਚੀ	-12.0054
ੇਂਡ	-12.0054
ਵਿਡ	-12.0056
▁ਗਹਿ	-12.0056
▁ਪੇਰ	-12.0058
ਾਈਲਾਈਟ	-12.0059
ਂਡੀ	-12.0061
▁ਇਲੀ	-12.0062
ਾਨੰਦ	-12.0064
ਚਮ	-12.0065
▁ਸਿੰਗਲਜ਼	-12.0066
▁ਅਲਬ੍ਰ	-12.0067
▁ਦਯਾ	-12.0068
ਸਾਨੀ	-12.0069
ਕੁਦਰਤ	-12.007
▁ਸੱਭਿਆਚਾਰਾਂ	-12.0071
ਨੇਰ	-12.0073
▁ਆਸਰਾ	-12.0073
ਵਾਟ	-12.0076
▁follow	-12.0077
▁ਮਸਾਲੇ	-12.0077
▁place	-12.0079
▁ਕੈਲੇਡੋਨੀਆ	-12.0079
▁ਨਿਵੇਕਲਾ	-12.0079
▁ਪੁੱਛਗਿੱਛ	-12.0079
▁ਨਿਸ਼ਚਾ	-12.0079
▁ਕੈਮੀਕਲ	-12.0079
▁ਅੱਤਵਾਦੀ	-12.0079
▁ਖੁਸਰੋ	-12.008
▁ਐਂਡਰਸਨ	-12.008
▁ਫਰਾਇਡ	-12.008
eg	-12.008
▁ਏਅਰਵੇਜ਼	-12.0081
▁ਪ੍ਰੈ	-12.0082
▁ਚੰਬਾ	-12.0083
▁ਸਹਿਗਲ	-12.0083
▁ਅਠਵੀਂ	-12.0084
▁ਭਾਫ਼	-12.0084
▁ਵਾਲਿਸ	-12.0085
▁ਯੂਸਫ਼	-12.0085
▁ਛੁ	-12.0086
▁ਈਸਪ	-12.0086
▁ਆਦਮਪੁਰ	-12.0086
▁ਤੁਹਾਡੀ	-12.0087
▁ਨਿਗਾਹ	-12.0088
▁mc	-12.009
▁ਦੇਂਦੀ	-12.0092
ਪੁਣੇ	-12.0094
▁ਪ੍ਰਭ	-12.0096
▁ਹਿਸਾਰ	-12.0097
▁ਬਰਸਾਤ	-12.0097
▁ਮਲਕ	-12.01
ਪ੍ਰਸਿੱਧ	-12.0101
▁ਹਾਰਨ	-12.0104
म्	-12.0106
▁ਮੁੱਕੇਬਾਜ਼ੀ	-12.0108
ਦਿੱਲੀ	-12.0108
ਮੂਰਤੀ	-12.011
ਬਿਜਲੀ	-12.011
▁ਖਤਰਾ	-12.0111
▁ਰਾਮਪੁਰਾ	-12.0111
▁ਸਲਾਦ	-12.0111
ਸੀਜ਼	-12.0112
▁ਵਾਦਕ	-12.0114
▁ਨੀਲੀ	-12.0115
ੇਦਾਰ	-12.0118
▁ਪਿਆਨੋ	-12.0119
nt	-12.0119
▁ਵਾਰਡ	-12.0122
▁ਪੂਰ	-12.0123
▁ਟਰਾ	-12.0124
ਸ਼ਰੀਰ	-12.0124
▁ਤੂਰ	-12.0124
▁ਸਲਿ	-12.0124
ਓਰ	-12.0125
▁ਡੰਡੀ	-12.0125
ਤਾਪ	-12.0125
▁ਹਰਸ਼	-12.0125
▁ਬਰੀਕ	-12.0126
▁ਪਰਚਾਰ	-12.0129
ਵਿਧਾਨ	-12.013
▁ਝੁਨੀ	-12.0133
▁ਲੱਭੇ	-12.0136
ਰਾਇਡ	-12.0138
▁ਈਦ	-12.0145
ਨੋਮ	-12.0147
▁ਫ੍ਰੇ	-12.0148
ੁੱਟ	-12.0148
▁ਅੱਠਵਾਂ	-12.0149
▁ਨੱਥ	-12.0151
cu	-12.0153
▁ਨਾਸਾ	-12.0153
▁ਸੁਝਾਵ	-12.0155
▁ਦੂਤ	-12.0156
▁ਵਿਓਂਤਬੱ	-12.0157
▁ਜੀਂਦ	-12.0157
▁ਕਾਂਟ	-12.0158
ਨਾਸ਼ਕ	-12.0158
▁ex	-12.016
▁ਵਾਇ	-12.0162
▁ਫ਼ੁ	-12.0163
▁ਸ਼ਰੀ	-12.0163
▁ਲੇਸ	-12.0165
▁ਜੀਓ	-12.0168
▁ਪ੍ਰਤੀਕਿਰਿਆ	-12.0169
▁US	-12.017
▁ਲਸ਼ਕਰ	-12.0172
▁ਮਰਗ	-12.0173
▁ਮੰਗਾਂ	-12.0174
▁ਪਹਲ	-12.0179
▁ਭਾਸ਼	-12.0181
▁ਹੋਮੋ	-12.0181
ਗੇਟ	-12.0181
▁ਦਾਰਸ਼ਨਿਕਾਂ	-12.0182
==	-12.0183
▁ਹੁਰ	-12.0185
▁ਸਵੀ	-12.0191
▁ਬਾਣ	-12.0192
▁ਮੁਕੱਦ	-12.0193
▁ਘੜ	-12.0194
ਗ੍ਰੈਵਿਟੀ	-12.0195
▁Library	-12.0195
▁first	-12.0195
▁ਦਰਵਾਜੇ	-12.0195
▁ਦਸੂਹਾ	-12.0195
▁ਮਨਮੋਹਕ	-12.0195
▁ਮੰਮਟ	-12.0195
lower	-12.0195
▁ਕੋਲੰਬਸ	-12.0195
▁ਕਾਪੀਰਾਈਟ	-12.0195
▁ਮੋਹੰਮਦ	-12.0195
▁before	-12.0195
▁ਐੱਸਪੇਰਾਂਤੋ	-12.0195
▁ਅਖਤਰ	-12.0196
▁ਹਜ਼ੂਰ	-12.0196
▁ਸਮੇਲਨ	-12.0196
▁ਖਹਿਰਾ	-12.0197
▁ਪ੍ਰਤੀਪਾਦ	-12.0197
▁ਰੀੜ੍ਹ	-12.0197
▁ਪ੍ਰੇਰਿਆ	-12.0198
▁ਸਿਖਾਇਆ	-12.0198
▁ਪ੍ਰਗਟਾਵੇ	-12.0199
▁ਟਾਇਲ	-12.0199
▁ਕਰੰਸੀ	-12.0199
ੌੜ	-12.0201
▁ਪਾਰਾ	-12.0202
▁1867	-12.0203
▁ਹੇਡ	-12.0204
▁ਕਾਰਣਾਤਮਿਕਤਾ	-12.0204
▁ਆਕਸਾਈਡ	-12.0205
▁੧੪	-12.0207
ਮੀਨੈਂਟ	-12.0208
▁ਮਾਪਿਆ	-12.0208
▁ਜਾਦੂਗਰ	-12.0209
▁ਏਸ਼ਿਆਈ	-12.0209
▁ਸਾਂਤਾ	-12.0209
▁ਤਨਹਾ	-12.0209
▁ਮੈਕਸੀਕਨ	-12.021
▁ਹਾਮੀ	-12.0213
ਪ੍ਰਸਤ	-12.0215
ਸਥਿਤੀ	-12.0218
ਆਇਨ	-12.0219
▁ਢੋਆ	-12.0219
ਸਰੀ	-12.0221
▁ਅਹਿਸਾਨ	-12.0223
ਊਸ	-12.0223
▁ਮਾਹਿਰਾਂ	-12.0225
ਅਸਮਾਨੀ	-12.0225
▁ਡਰਾਈਵਰ	-12.0225
▁ਆਇਰਨ	-12.0226
bu	-12.0226
ਇਨਵੇਰੀਅੰਟ	-12.0226
ਮੁਢਲੇ	-12.0226
ਸੋਵੀਅਤ	-12.0226
ਕਾਜ	-12.0229
ਸ਼ਿਵ	-12.0231
▁ਸੋਹਣਾ	-12.0233
▁ਸ਼ੰਕਾ	-12.0235
ੈਕਟ੍ਰੋਡਾਇਨਾਮੈਕਿਸ	-12.0238
▁ਵਜ	-12.024
ਵਿਤ	-12.024
▁ਕਮਾ	-12.0241
▁ਪੂਰਵਕ	-12.0245
▁ਗਣੇਸ਼	-12.0246
▁ਸੋਧਾਂ	-12.0246
▁ਹਨੇਰੀ	-12.0247
ਜੁਕ	-12.0247
▁ਗੜਬੜੀ	-12.0251
▁ਮਹਾਰ	-12.0253
ਕਾਸ	-12.0255
▁ਇਲੈਕਟ੍ਰੋਮੈਗਨੈਟਿ	-12.0255
▁ਦਫਨ	-12.0256
▁ਗੁਰਬਖ਼ਸ	-12.0258
▁ਹਦਾਇਤ	-12.0259
▁ਆਦਤ	-12.026
ਲੈਕਟ	-12.0261
ਖ਼ਤ	-12.0262
▁ਪੇਸ਼ਵਾ	-12.0263
ਪਾਰਟ	-12.0263
▁ਤਾਬ	-12.0266
▁Car	-12.0269
▁Ka	-12.0276
ਲੀਓ	-12.0276
▁ਗਰੈਵਿਟ	-12.0276
▁ਹਰਕਤ	-12.0277
▁ਮੈਗਨੈਟ	-12.028
▁ਅਜਾਦ	-12.0281
▁ਲਾਉਣਾ	-12.0281
▁ਮਰੀਜ਼	-12.0284
▁ਮੰਤਰੀਆਂ	-12.0288
Cl	-12.0288
ਵਿਟਾ	-12.0289
▁Tr	-12.029
▁ਐਰ	-12.0291
ਵਿਅ	-12.0291
ਵਰਡ	-12.0292
ਜਿਤ	-12.0303
▁III	-12.0305
ਗ੍ਰਹਿ	-12.0306
ਵਿਆਸ	-12.031
▁ਕਾਕ	-12.031
▁ਰਖਦੀ	-12.0312
Block	-12.0312
gen	-12.0312
▁ਅਯੋਧਿਆ	-12.0312
▁ਜਮੈਕਾ	-12.0312
▁ਪਛਤਾਵਾ	-12.0312
▁ਪਿਰਾਮਿਡ	-12.0312
▁ਯੋਧਿਆਂ	-12.0312
▁sign	-12.0312
▁ਸੁਲੇਮਾਨ	-12.0312
▁ਕੌਂਟਰਾਵੇਰੀਅੰ	-12.0312
▁ਗੌਰਮਿੰਟ	-12.0312
▁ਬੀਟਾ	-12.0312
▁ਵ੍ਹਾਈਟ	-12.0312
▁ਹਾਰਡਵੇਅਰ	-12.0313
▁ਦੈਨਿਕ	-12.0313
▁ਚੰਦਰਗੁਪਤ	-12.0313
▁ਮੇਰਠ	-12.0313
▁ਵਜੀਦ	-12.0313
▁ਪੁੱਠ	-12.0313
▁ਕਢਾਈ	-12.0314
▁ਸ੍ਰੇਸ਼ਟ	-12.0314
▁ਲੈਂਥ	-12.0314
▁ਅਸਪੱਸ਼ਟ	-12.0314
▁ਛਪਾਈ	-12.0314
▁ਸਦਮਾ	-12.0315
ists	-12.0315
▁ਉਠਾਇਆ	-12.0315
▁ਮੰਟੋ	-12.0316
▁ਰਸਾਲਾ	-12.0317
▁1869	-12.0317
▁ਵਰਗੀਕਰਣ	-12.0318
▁ਭਾਈਚਾਰਿਆ	-12.0319
ces	-12.0321
ਵੇਅ	-12.0321
▁ਪਕਵਾਨਾਂ	-12.0322
▁ਅਲੀਗੜ੍ਹ	-12.0322
▁ਲੀਓਨ	-12.0323
ਛੀ	-12.0323
▁ਫੌਮ	-12.0323
▁ਹੇਅਰ	-12.0325
ਖੋਰ	-12.0325
▁ਛਪਦਾ	-12.0325
੬੫	-12.0326
ਸਿਮ	-12.0327
▁ਜ਼ਿਕਰਯੋਗ	-12.0327
▁ਸਲੇਟੀ	-12.0328
ਝੇ	-12.0329
▁ਪ੍ਰੇਰਕ	-12.0329
▁ਬੰਨਣ	-12.033
▁ਸੰਗੀ	-12.033
▁ਸਪੇ	-12.033
ੰਤ੍ਰਤਾ	-12.0331
▁ਨਾਮਕਰਣ	-12.0332
▁ਟੈਬ	-12.0332
ਰਗੇ	-12.0333
ਬਾਜੀ	-12.0335
▁ਭਾਰੂ	-12.0335
▁ਡਾਕਟਰਾਂ	-12.0335
▁13.	-12.0337
▁ਲੋਗੋ	-12.0337
▁ਫ਼ੈਸਲਾਬਾਦ	-12.0339
▁ਜੀਵਨਕਾਲ	-12.0339
▁ਪਾਤਸ਼ਾਹੀ	-12.0344
ਪ੍ਰਣਾਲੀ	-12.0345
▁exp	-12.0345
ਯਮ	-12.0346
▁ਗ਼ਦਰੀਆਂ	-12.0348
▁ਇਸ਼ਾਰ	-12.0351
▁ਸੁਣਾਉਣ	-12.0352
ਕਰੇ	-12.0353
▁ਡਰਾ	-12.0355
▁ਆਕਰਸ਼ਣ	-12.0356
▁ਤਾਂਬਾ	-12.0357
▁ਬੰਨ੍ਹਣ	-12.0358
▁ਲੀਕ	-12.0359
ਸੀਓ	-12.0361
▁ਪਾਂਡ	-12.0363
਼ੀਅਲ	-12.0365
▁ਦਿਲੀ	-12.0365
▁ੲਿਨ੍ਹਾ	-12.0365
ਗੁਜ਼ਾਰਾ	-12.0368
▁ਐਂਟੀਸਮਿੱਟਰ	-12.0371
▁ਛੂਹ	-12.0374
form	-12.0374
▁ਹੁੱਕ	-12.0376
▁ਮਾਰਕੇ	-12.0378
▁ਸੰਘਰਸ਼ਾਂ	-12.038
▁ਵੱ	-12.0382
ਰਿਵਰਸਲ	-12.0386
ਪਕ	-12.0386
ਮੰਚ	-12.0386
ਫ਼ੋਰਡ	-12.0388
▁ਗ੍ਰੇਨਾਡਾ	-12.039
ਹੀਣਤਾ	-12.0393
ੰਬਾ	-12.0394
▁ਨਿਰੰਜਨ	-12.0394
ati	-12.0395
ਕਦੀ	-12.0396
lin	-12.0396
▁ਵਾਰਤਾ	-12.0397
▁ਪਾਉ	-12.0398
▁ਘਟੀਆ	-12.04
▁ਜੂਸ	-12.0401
▁ਕਨੇ	-12.0401
ਸੂਲ	-12.0401
▁ਅਸਤਿਤਵਵਾਦ	-12.0401
▁ਸੁਹਾਗ	-12.0401
▁ਉਪਕਰਣਾਂ	-12.0402
▁ਹੋਇ	-12.0408
▁‘’	-12.0408
▁ਨਿੱਘ	-12.0408
▁ਸਕਿ	-12.0408
▁ਜੋਤਿ	-12.041
▁ਹਿੱਤਾਂ	-12.0412
ਣੁ	-12.0413
ਗਰਾਦ	-12.042
ਪੁਰਮ	-12.042
ਸਿਸਟ	-12.0421
▁Chi	-12.0421
▁ਰੀਮਾਨੀਅ	-12.0421
▁ਵਰਸਾ	-12.0421
▁ਜ਼ਾਤ	-12.0424
▁ਝੂਲ	-12.0427
▁ਪੜਿਆ	-12.0428
ਤੋਰ	-12.0429
ਿੱਕ	-12.0431
▁ਇਨਸਾਫ਼	-12.0431
▁ਡਿਜਾਇਨ	-12.0431
▁ਦਿਹਾਂਤ	-12.0431
▁ਭੱਟਾਚਾਰੀਆ	-12.0431
▁ਮਲਹੋਤਰਾ	-12.0431
▁ਲੋਕਪ੍ਰਿਅ	-12.0431
▁ਸਲਿਊਸ਼ਨ	-12.0431
▁ਹੈਡਕੁਆਰਟਰ	-12.0431
▁ਕਾਮਨਵੈਲਥ	-12.0431
▁ਤਸਦੀਕ	-12.0431
▁ਭਾਈਚਾਰਕ	-12.0431
▁ਡਿਵਾਈਸ	-12.0432
▁ਸਮਲਿੰਗੀ	-12.0432
▁ਚਿਤੌੜ	-12.0432
ould	-12.0432
▁ਅਮਾਨਤ	-12.0432
▁ਮੋਬਾਇਲ	-12.0432
▁75.84%	-12.0432
▁ਰਾਂਚੀ	-12.0432
▁ਯੁਨਾਈਟ	-12.0432
▁ਗੁਲਜ਼ਾਰ	-12.0432
▁੨੦੦੮	-12.0432
▁ਕਿਧਰੇ	-12.0432
▁ਪਥਰਾਟ	-12.0432
▁ਮੈਕਸਵੈਲ	-12.0432
▁ਸਮੁਚ	-12.0432
ਨਾਉਰੂ	-12.0432
▁ਕਸਰਤ	-12.0432
ਨੇਮ	-12.0433
▁ਲਿਜਾਇਆ	-12.0433
▁ਕੈਰੀਬਿ	-12.0433
▁ਬਰਕਲੇ	-12.0433
▁ਅੱਸੂ	-12.0433
▁ਪਲਾਊ	-12.0433
▁ਫੋਲ	-12.0434
▁ਚਾਕੂ	-12.0434
▁ਕਿੱਕਰ	-12.0434
▁ਹਮਾਰਾ	-12.0434
▁ਸਾਈਮਨ	-12.0434
▁1872	-12.0435
▁1799	-12.0435
▁ਜਨੌਰ	-12.0436
▁3+1	-12.0436
ਵਰਨ	-12.0436
▁ਵਰਗੀਕ੍ਰਿਤ	-12.0438
▁ਉਪਮਹਾਂਦੀਪ	-12.0438
▁ਧਰਮਿੰਦਰ	-12.0441
▁ਸਦਾਚਾਰ	-12.0442
▁ਜੌਂ	-12.0442
▁ਵਿਸਥਾਪਨ	-12.0442
▁ਰੈਂਕਿੰਗ	-12.0442
▁ਵੈਸੇ	-12.0443
dt	-12.0445
▁ਐਡੀਟਰ	-12.0446
▁ਗੌਸ	-12.0448
▁ਕੁਆਂਟੇ	-12.0449
▁ੳੁਪ	-12.045
ਸੈਟ	-12.0451
▁ਵਿਦਾ	-12.0451
▁appear	-12.0452
▁ਪਲੇਨਾਂ	-12.0452
▁his	-12.0453
▁ਬਚਾਓ	-12.0453
▁ਕਰਾਈ	-12.0456
▁ਸਟੇਸ਼ਨਾਂ	-12.0456
▁ਬੈਂਕਾਂ	-12.0458
▁ਜੋਹਨ	-12.0458
eit	-12.046
▁ਰਾਈਟ	-12.0465
ਕਲਾਸੀਕਲ	-12.0469
▁ਨਬੀ	-12.0469
ਸ਼ਾਰ	-12.0469
ਕਿਲ	-12.047
ਭਰਾਵਾਂ	-12.0474
▁ਸੰਪ	-12.0474
▁ਨਕ	-12.0478
▁ਸੰਘਣਾ	-12.0479
▁ਕੈਰਲ	-12.0484
▁ਚਿਕਿਤਸਕ	-12.0485
ਗੋਸ	-12.0486
ਸਨਮਾਨ	-12.0489
▁ਜਿਲਦਾਂ	-12.049
▁ਆਂਦੇ	-12.0496
ਸਟੇ	-12.0498
▁ਲੋਹੜੀ	-12.0499
▁ਉਂਨ	-12.05
ਬਰੂ	-12.0502
▁ਜਾਨਾਂ	-12.0502
▁प	-12.0504
mar	-12.0504
▁ਗੁੱਜਰ	-12.0504
▁ਵਿਆਖਿਆਕਾਰ	-12.0506
▁म	-12.0508
▁ਚੱਟਾਨ	-12.0509
▁ਬਣਾਉਣੀ	-12.0511
ਟਰਾਂ	-12.0516
▁ਸੇਖ	-12.0522
ਖੁਦ	-12.0524
▁ਮੈਟਰੋ	-12.0527
▁ਰੁਚੀਆਂ	-12.0529
▁ਲਹਿ	-12.053
^{\	-12.053
▁ਪੰਡ	-12.0531
▁ਵਰਣਾਂ	-12.0533
▁ਮੁਜ	-12.0533
ਲਗ	-12.0535
▁ਮਾਰੀਓ	-12.0539
▁ਚੁਕਾ	-12.0541
▁ਬਾਹ	-12.0543
▁ਸੱਜ	-12.0543
▁ਜੱਦ	-12.0544
OS	-12.0545
▁ਮਾਧਿਅ	-12.0546
▁ਮੋਰਾ	-12.0547
▁ਦੁਹਰਾਉ	-12.0547
▁ਸ਼ੁੱਕਰ	-12.0551
ਸਬਰਗ	-12.0552
▁ਰਮਾਇਣ	-12.0552
▁ਵਨੁਆਤੂ	-12.0552
▁ਅਵਸ਼ੇਸ਼	-12.0552
▁ਹਾਫਿਜ਼	-12.0552
▁ਵਿਗਿਆਪਨ	-12.0552
▁ਪਠਾਨਕੋਟ	-12.0552
▁ਸੰਭੋਗ	-12.0552
[...]
